#version: 0.2 - Trained by `huggingface/tokenizers`
Ġ O
Ġ N
ĠN C
S P
Ġ SP
Ġ D
Ġ F
d e
Ġ V
ĠD A
ĠV M
Ġ A
ĠA Q
e n
Ġ B
e s
R G
l a
o s
ĠF c
Ġ I
c i
ĠVM I
r a
o n
O RG
ĠF p
t a
e r
Ã ³
Ġ C
u e
Ġ P
o r
e l
E R
a l
a r
P ER
q ue
a n
u n
a s
i n
r e
a d
L O
LO C
Ġ Z
t i
ĠC C
Ã³ n
en t
ĠD I
ĠF e
I S
Ġ RG
M IS
MIS C
c on
s e
ĠP R
p r
d i
Ã ¡
Ã Ń
c o
ĠVM N
ĠC S
d o
l os
t e
ci Ã³n
de l
i s
p a
p or
c a
t o
r i
s u
m a
l i
c u
m i
la s
l e
Ã ©
d a
ĠVM P
Ã ±
r o
ĠFp t
ĠFp a
t u
h a
t ra
s i
m o
v i
b i
on es
l o
n o
ĠD P
ĠV S
ĠV A
ad o
pr o
pa ra
p o
p e
r es
de s
ÃŃ a
ĠVA I
pr es
un a
Ã º
ĠF g
d ad
h o
t er
ci a
ĠVS I
ĠD D
s o
es ta
d os
f i
m e
p ar
co m
ent e
ent o
u i
E l
de n
e c
v o
ĠD N
p u
ĠN P
p er
en ta
b a
ra n
e m
ci ones
0 0
t os
t en
a c
i o
ĠVM S
Ã¡ n
e x
t or
R N
Ġ RN
m an
F E
g o
a m
ma y
E FE
i m
g u
d u
L a
ta s
un i
ad a
c e
z a
ĠP P
m Ã¡
p re
j o
al es
ĠA O
l es
n i
t r
v a
ho y
t es
al i
2 3
f or
E s
ra s
p i
m in
ta r
q ui
t ro
g a
ci on
c ar
mÃ¡ s
l u
s a
c as
s er
a Ã±
b re
p os
e ra
co mo
v er
re c
m u
la n
r u
a u
r Ã¡
c an
pa Ã±
d as
n a
b o
g i
Ãº n
ta n
b le
c os
c h
ĠP I
en cia
ĠVM M
g an
l l
es te
pres i
i a
ĠP N
m ar
Ã© s
or es
ent re
se g
er o
par ti
f u
di s
ci al
m ente
v e
la r
su s
m bi
ÃŃ s
es t
ci o
ad os
i Ã³n
mi ento
c er
o b
1 9
y a
C o
E n
b an
bi er
p as
p on
presi den
m is
= =
c Ã³
ent es
s on
g ra
x i
Ã© n
el e
c re
j e
f in
v is
p li
l ÃŃ
C on
in ter
me di
h an
j u
ra ciÃ³n
on a
mi ll
ta l
I n
n e
t in
so bre
ti v
pos i
b er
c es
m os
t ri
z ar
tu ra
v en
g en
ar i
mill ones
er on
de r
ci ento
es e
tra s
ad ri
an a
pres enta
R e
b u
presiden te
con tra
b ra
ci p
ti en
ta do
f er
tr os
q u
bier no
m as
j a
c al
da des
S e
ĠVM G
ti tu
G o
l la
a y
ti vo
M adri
l le
a cu
Madri d
m ento
c ado
s in
in for
M ar
g ar
cion al
a ciÃ³n
o l
m Ã³
es pe
an do
un ta
pr Ã³
n ue
f a
S an
r os
aÃ± os
b li
00 0
A l
u ro
is ta
a g
in s
A n
L os
d Ã³
e z
d on
ci os
min is
f ue
ta mbi
ri o
tambi Ã©n
m er
pa ÃŃs
Go bierno
a b
f r
an te
in a
m en
C O
t Ã³
fi r
ÃŃ as
ra r
p en
ti va
con o
em pres
c ent
d ar
ra l
V i
ca ciÃ³n
p ese
con s
tra ba
h i
ent os
19 9
ter i
seg Ãºn
si Ã³n
com uni
ad as
E S
aÃ± o
ti ca
u s
p ue
ci as
as ta
par te
es ti
c en
pro du
za ciÃ³n
pu es
g ru
des de
U ni
p la
f ec
P a
z o
b ar
m es
1 0
v ar
ue l
P ar
m enta
c tor
ĠF d
v al
ad or
pese tas
Ãº l
di jo
paÃ± a
Ã± a
prÃ³ xi
ta dos
j un
as e
R A
2 0
t Ã©
di rec
e qui
est Ã¡
tien e
pr i
f e
i l
u l
c or
h asta
an o
per o
ar io
per son
r Ã¡n
== ==
E N
p lan
pas ado
g Ãºn
N a
c lu
un os
or gan
in di
cu l
Ãº bli
cu r
ha b
for ma
c la
ac tu
ran te
Ãºl ti
P or
p le
bi li
c ciÃ³n
j er
ci Ã³
pr im
di o
u r
c to
o pe
an tes
por ta
ali dad
c el
t on
el ec
in i
t res
en sa
C a
m uni
de ci
J os
3 0
al u
B ar
t re
era l
b e
n os
ci ales
c ri
es paÃ±
con si
O N
g as
tiv os
ma Ã±
c ÃŃa
M i
C ar
D e
r Ã³
en a
re g
po lÃŃ
tra n
ĠVS N
g ran
maÃ± ana
ra do
don de
ad ores
V al
r ÃŃ
u dad
J u
Es paÃ±a
ti co
E uro
T A
mi li
la res
res pon
pu esta
un da
c ha
c ele
A r
s Ã³
si tu
1 4
p un
re ci
y ec
1 5
es i
ex pli
o tros
p Ãºbli
is tas
2 5
F ran
es a
re uni
v as
ri a
may or
gru po
prÃ³xi mo
b as
la ciÃ³n
t ÃŃ
S o
es tu
ca m
si do
du rante
g ado
j or
ĠV SP
ten i
ari os
ta ciÃ³n
d ÃŃa
cu ando
de mÃ¡s
man i
organ i
ra da
g os
n u
L as
la bo
tr u
qui en
g res
un que
Ã© r
pro yec
C I
L i
er i
di Ã³
L e
c ada
r en
prim er
t el
mu y
na cional
A R
C i
se Ã±
Jos Ã©
un do
pr in
ent ras
por que
R o
pues to
1 2
c ho
ser vi
ase gu
D E
ci n
is mo
A s
er n
ĠP D
si g
ver si
ci udad
1 3
tor i
ti do
esta do
e di
ad i
pi tal
re presenta
te m
Se gÃºn
er ra
Ã± o
pu Ã©s
me ra
n ec
gen eral
Bar cel
M an
to dos
posi ciÃ³n
v in
ta rio
or i
al g
ho ra
acu er
ti s
parti do
P o
j ue
a unque
h ec
y o
di da
equi po
a tro
o p
b os
n or
mi entras
fin al
P P
mis mo
A N
ĠF x
la do
vi a
f al
f un
m on
ar ro
con se
i r
un o
di do
bo l
Barcel ona
bili dad
ra el
re ali
A S
D i
des puÃ©s
cip al
S a
b les
s os
z as
Ã³ mi
so cial
z Ã³
en do
en cu
dÃ³ lares
s en
z ado
fu er
teri or
G u
traba j
h u
E x
f ran
cele bra
a pro
res pe
com paÃ±
C Ã¡
I N
h os
paÃŃs es
1 8
5 0
E L
an un
d ÃŃas
la ciones
C as
L u
c ni
se man
li b
po d
person as
1 6
in o
empres a
porta vo
a fir
pri mera
2 00
M Ã©
to do
mis iÃ³n
Con se
ser Ã¡
ve z
minis tro
C h
re gi
se ctor
tiv as
ces o
Re al
el i
ÃŃ an
r ÃŃa
ca mbi
encu ent
jun io
tran s
on al
pro ble
pre vis
tan te
U E
b ri
v an
sÃ³ lo
acuer do
seg ui
expli cÃ³
d or
i ca
l lo
te ra
ob je
Ju an
so li
consi de
1 7
r on
in g
ti cas
portavo z
con tin
tu vo
lo c
ĠVS S
am ente
qui er
A L
o la
ci ar
ÃŃ n
C u
e dad
des ta
fu entes
minis tra
e uro
ha y
vi l
ho ras
f o
le g
ne go
CO M
cu enta
cu atro
d in
al Ã³
an os
as ÃŃ
ti em
ch e
mer cado
O E
O S
o cu
ta li
ti Ã³
In ter
situ aciÃ³n
cu m
mi entos
ha cer
parti ci
m ad
ha ce
traba jo
tÃ© cni
reuni Ã³n
P S
a ra
g ue
pr ensa
respon sa
fi ca
im por
nue vo
a po
d ado
d ores
e ta
o f
ri dad
res ul
des arro
fi ci
tor ia
rec or
je cu
ca pital
esta s
proyec to
d an
n ada
es tra
ra ciones
in t
con Ã³mi
ten cia
direc tor
mani f
seÃ± alÃ³
may o
infor mÃ³
==== ====
l en
ten er
est Ã¡n
ab ri
C or
y Ã³
di ri
me tros
vo l
s an
er os
se cre
ay u
pue de
1 1
c tos
ĠF z
su r
ins titu
ti cos
am bi
p es
con ce
tien en
C an
ta da
is te
per i
ba j
au to
P ro
b en
c l
v esti
es tos
ci miento
199 9
S i
cia ciÃ³n
tar Ã¡
cas o
empres as
er to
unta miento
cent ro
asegu rÃ³
M on
T o
v es
de cla
com pe
den un
ten ciÃ³n
e conÃ³mi
u ra
in te
lo g
2 8
T ele
Na cional
nec esi
ci do
ti vi
ri os
ha ber
ju g
R a
g e
z ona
ent Ã³
ĠVA N
m ero
co mi
vis i
m ado
cion ales
fr ente
2 4
A y
un as
se gu
li cÃŃa
espe cial
2 1
L o
ci s
ar Ã¡
pro gra
per io
seg unda
a vi
d rÃ¡
an ti
ÃŃ o
em b
Es ta
lu gar
tan to
pun tos
R E
S er
d ro
f on
polÃŃ tica
M e
per mi
ay er
cul tura
cin co
e u
h is
Ã± os
Conse jo
pro f
com er
can o
gres o
a demÃ¡s
f is
s es
x im
al mente
esta ble
can dida
seman a
2 2
o tras
ri as
Car los
B ra
P e
e fec
o fi
s al
Ã³ r
bi do
n Ãº
de rec
ar on
is iÃ³n
EFE COM
mes es
jun to
hab ÃŃa
2 000
C ent
S u
T I
al cal
ti r
com en
medi o
de f
is rael
Ay untamiento
israel ÃŃ
C am
b al
v enta
do min
pa ci
tu r
fu eron
Pa ra
ope raciÃ³n
Euro pe
teni do
v el
in ver
ĠVA S
infor ma
fr on
J unta
d Ã©
j ero
z ada
ga ciÃ³n
espe ra
ini cia
representa n
7 0
mi emb
ac ciones
tar de
espaÃ± ol
tem po
F u
i ones
ci r
ban o
An ton
afir mÃ³
B o
c ados
h e
s tri
pa ciÃ³n
to tal
Co misiÃ³n
fer encia
Par ÃŃs
Val encia
tiem po
secre tario
2 6
O L
si l
dis pu
indi cÃ³
euro pe
F ern
g ui
Es tado
Euro pa
A C
E U
M a
R I
j Ã³
o tro
di a
com pro
em os
lu ciÃ³n
medi a
Mar ÃŃa
cur so
f ra
t bol
ci den
in vesti
Ã¡ c
adi Ã³
Lu is
nÃº mero
M in
m bre
de se
ter min
hec ho
A D
v arios
su bi
cu al
tor es
fa v
a hora
e i
r is
re ti
cip ales
soli ci
O r
b el
uni den
G en
j ui
t ele
pu bli
vis iÃ³n
estado uniden
alg unos
PS OE
m pi
la menta
ci to
ac tivi
mar on
clu b
3 5
U S
e p
es cri
ta d
in e
ti lla
pro ceso
so ci
me jor
gu a
Ãºlti mos
4 0
A m
o tra
de pen
in clu
li o
vi en
pro pi
res i
am pli
ari as
bu s
g al
v ÃŃa
de z
un tos
di eron
le y
par ec
em ple
go bierno
tr Ã³
Anton io
2 7
C hi
g Ã³
de raciÃ³n
ue va
re cu
ti dad
mo mento
pro puesta
ter io
Es tados
mu jer
pon e
fin an
Fran cia
t Ã¡n
de ba
el los
tra ta
bi en
ex is
pre ci
pre cio
Co muni
nue va
estu di
tru cciÃ³n
Bra sil
g ent
en cias
di ca
di pu
fa mili
pÃºbli co
Man uel
R i
U N
g er
m ÃŃa
m undo
p an
de por
ra les
ar ia
con vo
con tro
tan tes
ope ra
jor nada
proble mas
obje tivo
A u
G ar
I I
P er
fi caciÃ³n
man os
du stri
Li ga
C E
O R
d alu
de be
di fer
su b
Ex tre
g ente
j Ã©r
as is
in cre
co le
ri da
po co
pe di
des tin
den cia
au tori
pÃºbli ca
A d
H u
al e
Ãº ni
ins ta
contin u
cl ui
jÃ©r cito
8 0
a fec
de ber
Ã³n ica
con su
res to
parti r
est Ã³
deci siÃ³n
reg is
conse jero
5 00
F e
J o
M o
g ada
i z
t Ã¡
con di
del e
pro vin
car on
prÃ³ xim
anun ciÃ³
A g
A le
a de
re cono
to da
Con greso
medi os
In s
organi zaciÃ³n
CI ON
servi cio
segu ridad
E fe
m entos
tu ras
aÃ± adiÃ³
apo yo
jui cio
A demÃ¡s
B an
a ca
a ban
p lo
v os
pr en
tar on
mar tes
acu s
Uni versi
fun cion
desta cÃ³
manif estÃ³
9 0
E m
N o
or din
el l
re la
se is
jecu tivo
estadouniden se
E jÃ©rcito
L A
e vi
Ã¡ r
xi co
Po licÃŃa
mad ura
Extre madura
U n
c ali
un di
Es te
gru pos
op in
eu ros
alcal de
fav or
M u
s ali
ĠP T
an za
as es
con ta
vi r
vi lla
enta l
ju s
lle var
Uni Ã³n
servi cios
MÃ© xico
P u
b ado
m al
s or
z Ã¡
en contra
ci en
er re
vi da
inter nacional
pues tos
miemb ros
L ÃŃ
P i
r ue
s elec
Ãº s
du caciÃ³n
ob ras
lle gar
men os
hi zo
Ãºlti mo
tÃŃ tu
labo raciÃ³n
prin cipal
respe cto
encuent ro
D es
g uel
l or
en fr
al can
se a
di ver
esta r
me jo
ex pres
man o
Mi guel
compaÃ± ÃŃa
cum pli
P A
b un
n ar
es to
ti li
si ones
com ple
am eri
espaÃ± ola
ministra ciÃ³n
partici par
tempo rada
LÃŃ bano
3 4
B u
R O
a t
i co
v Ã©s
ma ra
po li
ter o
den tro
ba jo
ac to
na cionales
posi ble
posi bilidad
mos tra
actu al
enfr enta
G on
f Ã³nica
r se
y e
ra c
mo vi
em pre
am ble
pre ten
pre cios
ju di
qu es
cono mÃŃa
prÃ³xi ma
plan te
nu bos
domin go
inicia tiva
P al
f ÃŃa
i gu
j os
s iste
ra z
re laciones
ca ciones
Ã© l
pro ce
medi das
sin o
nue vas
A z
T E
b or
r or
la mento
er te
or k
se Ã±a
ha cia
vi e
car re
parti dos
parti cip
dis tin
ber n
impor tante
abri l
progra ma
perio dis
3 1
G ran
I s
de mo
el las
te c
por t
ca u
po der
Ãº tbol
par ta
em bar
fu tu
cip io
val or
mayor ÃŃa
soci edad
6 0
A so
D o
R u
c Ã©s
g or
u al
re du
ti cia
ent ren
ÃŃ cu
cu ar
per man
tor io
Uni dos
decla raciones
Europe a
Min is
amble a
f ri
o cas
p in
p len
t Ã³n
en o
ci ado
tra vÃ©s
po b
des a
ni vel
mu ch
zar on
gen era
nor te
pod rÃŃa
MÃ© rida
4 5
e t
h er
le z
rec ha
ven ciÃ³n
comuni cado
esti Ã³n
Fran cis
necesi dad
7 5
E EU
P re
c ta
or den
con ven
is i
is la
Ã© ri
si empre
am bos
ob li
ces a
pue den
espaÃ± o
recor dÃ³
zÃ¡ lez
Francis co
EEU U
N ueva
a gra
a pli
i g
k il
p el
r Ã©
es pa
os o
as o
man da
pi diÃ³
ve ci
fran cÃ©s
loc alidad
ses iÃ³n
Gon zÃ¡lez
kil Ã³
a ta
v ÃŃ
re gu
par e
ex per
za ciones
tin a
CO N
199 8
segui r
recu pe
E jecutivo
a co
e jer
l Ã³
l Ã¡
di ez
ca paci
pu l
ten drÃ¡
ce ra
pre mi
car go
seg undo
Co m
pon er
mis ma
tri bu
cono cer
cons trucciÃ³n
elec ciones
conside ra
diri gi
undi al
M Ã¡
T ambi
a fi
g ro
en ci
es o
con fir
co in
so l
fi co
em bre
can a
comuni caciÃ³n
alu d
cambi o
previs to
bun al
Tambi Ã©n
H a
T ras
V I
c ales
l in
p al
u tili
es es
ci li
ti po
co ti
del i
to das
lo cal
so lu
au gu
ch i
ob ra
sen tido
Ch ina
C A
c ti
j al
m b
m ÃŃ
de fin
in dustri
re co
ti rÃ¡
ca te
ha bi
vi eron
vi ol
pres u
go l
ga ran
lÃŃ ne
teri ores
trabaj adores
Tele fÃ³nica
H o
a la
a bier
e te
f ÃŃ
o fer
ta mente
fi car
par lamenta
mÃ¡ xi
je fe
Al var
pla zo
ciudad anos
ofi cial
informa ciÃ³n
aban don
Is rael
parta mento
M en
b lo
s Ã¡
z os
en fer
ue la
ar es
in f
dad os
em pe
tr Ã¡
au mento
mar cha
sin dica
produ ctos
Na var
cur ri
cele b
tru c
inte gra
9 8
D I
L E
i e
s as
v uel
un to
ti a
con clu
ca bo
li ban
am os
lÃŃ mpi
infor maron
forma ciÃ³n
muni cipal
reci bi
fal ta
representan tes
Universi dad
siste ma
C ul
D u
T O
Y ork
a Ãºn
c ra
g el
ĠF h
ta ciones
di ario
co lo
su bra
si le
pre para
cor respon
ayu das
prof esi
fis cal
autori dades
opin iÃ³n
A ra
M A
e ran
re a
vi ce
vi vien
ter ror
com p
Co pa
Con s
zar Ã¡
tras la
Se villa
nec es
responsa ble
Fe deraciÃ³n
embar go
futu ro
Cul tura
3 7
B ada
E SP
i de
ta b
an terior
in augu
re i
con ver
mo ciÃ³n
pres encia
com isiÃ³n
Ã¡n dez
jo z
cas os
cer ca
inter Ã©s
Par lamento
cam paÃ±a
prin cipales
Di pu
social ista
proble ma
prÃ³xim os
Bada joz
M I
j ar
k i
de c
es ca
er g
el lo
re laciÃ³n
mo di
ba ja
cion ados
tan cia
fin ales
Re y
cons titu
pla za
cur sos
======== ========
jug adores
Gar cÃŃa
difer entes
vÃŃ cti
2 9
8 5
N O
S in
j es
l Ã©
n in
ta ria
er tos
re z
con f
pas o
comuni dad
rÃŃ an
avi er
derec hos
def en
Minis terio
kilÃ³ metros
defin i
nin gÃºn
7 7
E ducaciÃ³n
F i
h eri
k o
m bra
z an
se de
co les
pa z
mi Ã©r
ha ya
ser Ã¡n
cent ros
estu dio
ben e
reti rada
Comuni dad
gent ina
condi ciones
miÃ©r coles
c alidad
g on
v ado
v ec
de bido
en ca
in clui
con den
di ce
pro p
ac ciÃ³n
era li
can os
ju gar
reg Ã³
regi Ã³n
regi onal
tÃ©cni co
desarro llo
Or gan
8 9
G ru
I B
P an
T or
f Ãºtbol
o posiciÃ³n
v arias
an i
co laboraciÃ³n
ac er
am ena
mis o
gas ol
proyec tos
edi ciÃ³n
lib ro
partici paciÃ³n
Chi le
Ins titu
igu al
A t
V A
ra dos
or o
al em
an to
di ci
ca us
ri es
ma g
der Ã³
Ca ta
Ban co
8 6
9 5
N A
on ales
ta das
cu lar
pe ti
pe ones
cia ciones
jo ven
min o
cas a
cre aciÃ³n
presenta do
bra sile
dar Ã¡
ctor es
alu m
ocu p
Cent ro
Fern Ã¡ndez
Navar ra
. .
4 9
S al
a miento
d rÃ¡n
k a
p Ã©r
en car
er ta
re al
con du
se x
ca ÃŃ
vi o
po pu
me xi
den tes
ba ra
min u
lar Ã³
qu in
Mar tÃŃ
Pa la
Ãºlti ma
prim ero
bri tÃ¡n
subi da
mujer es
dipu tado
regis tra
Gru po
A si
S Ã¡n
a que
e conomÃŃa
g io
j as
j ado
er ÃŃa
ar Ã¡n
un es
pr ue
di ente
mi l
si ca
res o
pi os
ch ez
vis ta
cen so
consi derÃ³
mili tar
teni dos
CÃ¡ mara
cambi os
Alvar ez
B ru
I D
I tali
J or
P Ãºbli
R ob
i da
m Ã©
p is
s ÃŃ
en os
es truc
la da
ta rios
er ri
el la
el im
as co
in ten
cu yo
pro te
pro vo
ter ri
mu cho
mu erte
cer es
inter nacionales
ne t
nue vos
menta r
RA N
elec to
polÃŃ ticos
unda ciÃ³n
Ci vil
resul tados
pes ar
log ÃŃa
emple o
Ad ministraciÃ³n
preten de
SÃ¡n chez
3 3
I A
O vie
c k
c rÃŃ
e jecu
h ÃŃcu
i zaciÃ³n
l on
m adri
de termin
es tro
ci pios
pr Ã¡c
di z
Ã¡ l
co operaciÃ³n
li ber
le o
Ãº a
ac ep
gu s
na tura
tan der
ve hÃŃcu
pas ada
ju lio
qu Ã©
San tander
fec ha
tÃ© r
ern es
int enta
vol unta
peri or
activi dades
Aso ciaciÃ³n
tÃ³n o
pob laciÃ³n
sÃ¡ bado
Ovie do
1 00
6 9
C Ã³r
O M
g ados
i do
p ista
ci dad
vi les
vi ernes
esta ba
esta rÃ¡
fi cÃ³
vo lu
tin o
ven es
bu r
qu ÃŃ
qu isi
San tia
ag entes
gran des
cam po
Le Ã³n
fuer te
CÃ¡ ceres
To le
jug ador
Me dio
Gen eral
espaÃ±o les
Santia go
4 4
B a
C H
P au
t s
in tenciÃ³n
te ma
cu ya
da tos
ten ÃŃa
cas i
bo m
lÃŃ der
presenta ciÃ³n
San ta
fue ra
jer ÃŃa
sig ui
jue ves
hec hos
CÃ¡ diz
Ser vi
jÃ³ venes
cole c
rue da
Az nar
plen o
garan ti
subra yÃ³
Tole do
9 9
F er
I g
L on
a van
c las
o c
u ales
en tidad
on ces
ta les
con cent
di co
am bas
est re
medi da
mos trÃ³
produ cciÃ³n
Par tido
cor po
gran tes
Ar gentina
tis ta
celebra rÃ¡
Cent ral
activi dad
contro l
nubos o
bern am
capaci dad
conf li
Itali a
CÃ³r do
B er
G i
G ui
c adas
m ada
o port
p l
r ero
z ados
de manda
al go
ent en
con ferencia
do cu
ri cultura
ma ter
fi gu
ex tra
gu bernam
mu l
gi ca
fa cili
An dalu
Por tu
Ci udad
Ro d
quier e
conce jal
Fern ando
dese m
finan ci
deba te
tÃŃtu los
tec no
mÃ¡xi mo
bene fi
CÃ³rdo ba
3 2
3 6
J e
J us
M er
R ÃŃo
S E
T i
T ra
V E
g estiÃ³n
l lar
m or
z on
la ga
ar dia
an ali
ti l
con cre
co la
ter cera
com ba
pu so
ac tos
car bu
lu Ã±a
ob ser
Co mi
val o
equi pos
reci ente
primer os
alg unas
tis tas
reali zar
trans por
responsa bles
investi gaciÃ³n
periodis tas
Ã©ri ca
MÃ¡ laga
ofer ta
Cata luÃ±a
alum nos
3 00
J avier
Z ara
a ciones
a pun
i dad
u su
en ti
as untos
pr on
por tu
su pone
si ete
ac or
ob s
In terior
ins is
fir ma
pue da
hab ÃŃan
De por
quien es
bol sa
apro b
Cas tilla
tÃ©cni cos
Can tab
denun cia
econÃ³mi ca
comi en
def ensa
preci sÃ³
incre mento
toda vÃŃa
acus ado
entren ador
coin ci
mÃŃ ni
Dipu taciÃ³n
dec larÃ³
prop io
dici embre
Cantab ria
6 1
A mbi
F o
J a
J es
P lan
e o
i as
j an
l unes
ar se
in os
con junto
se o
lo go
ado p
per ÃŃo
ex i
tr ui
ser ie
cre cimiento
tiv amente
dar on
direc ciÃ³n
person al
hab rÃ¡
labo ral
respe c
ayu da
compe ti
compe tencia
Pe dro
Cam peones
dele gado
evi tar
M E
P E
U na
a bo
a compaÃ±
c ente
h en
v era
z ca
Ã³ pe
an dalu
con ci
ca be
ri Ã³
su fri
ran tes
man era
uni versi
pre g
tr en
ag regÃ³
bas ti
jue go
conse cu
Inter nacional
Pal ma
viol encia
celeb raciÃ³n
4 8
B al
I U
M uni
M ay
T ri
V asco
a tra
c ru
e go
g Ã³n
g lo
re d
no min
pres entÃ³
ac cion
tar Ã¡n
sa ciÃ³n
au s
ch ar
presi Ã³n
cre ar
tal Ã¡n
bu en
An gel
pen s
person a
organ ismo
polÃŃ tico
versi ones
fuer zas
fran cesa
of rec
ampli aciÃ³n
Per Ãº
provin cia
vice presidente
Portu gal
3 8
6 5
F undaciÃ³n
P ri
S I
d res
j unta
v Ã©
de lan
ci l
ra rÃ¡
in gres
in depen
co ordin
te x
cu anto
go za
fu siÃ³n
lle va
plan tilla
pun to
seman as
institu ciÃ³n
inver siÃ³n
compro miso
cual quier
famili a
Ãºni co
vir tiÃ³
selec ciÃ³n
ejer ci
lÃŃne a
Pala cio
Zara goza
5 5
A i
B i
F A
T a
c rÃ¡
c ero
f es
f le
in corpo
ca talÃ¡n
cu esti
com is
gu ay
Es paÃ±
car Ã¡c
gan Ã³
titu lar
mÃ³ vil
tÃ³ ri
ES L
ple o
jer os
De f
So cial
sig ni
vol ver
cau sa
cate gor
Ambi ente
Jes Ãºs
perÃŃo do
carÃ¡c ter
6 8
J an
L Ã³pe
R io
a tenciÃ³n
b ras
f ru
h or
i or
m entÃ³
n ing
o este
o curri
de ra
in mi
re cursos
su per
vi du
lo gra
ho tel
man tiene
man tener
im pli
ser ÃŃa
gi os
ele gi
Se gu
pue dan
muni cipio
cri ti
sector es
gue z
Ag ricultura
Ale man
espa cio
mb res
sindica tos
Organ izaciÃ³n
electo ral
clas i
mater ia
Andalu cÃŃa
Jus ticia
zon as
portu gu
LÃ³pe z
9 7
J ue
N E
c ris
i tali
l lan
m estre
o cho
s ores
Ã ¼
en ero
in as
di das
cu ad
no ta
no vi
po licÃŃa
vo luciÃ³n
ac ceso
mar zo
sus pen
medi ante
posi ciones
cal le
Se basti
Vi lla
menta l
porta ciones
Le y
As untos
sig ue
fal le
EL E
200 1
loc ales
fo to
econÃ³mi co
candida to
Fu er
pedi r
Em pres
much os
sol dados
vuel ta
vÃŃcti ma
5 3
5 4
B I
C el
E TA
P R
Q u
c li
h ing
z gado
de partamento
en se
la bor
al ter
ti eron
con tem
pr isiÃ³n
co l
pa tri
to ra
cu ales
pe que
res er
so ciales
uni dades
rec la
sus titu
ÃŃs tica
mis mas
gra ve
espe ran
rar se
deci r
jue z
Conse jerÃŃa
encuent ra
leg io
eta pa
resul tado
especial mente
efec tu
israelÃŃ es
ciden te
vivien das
Institu to
Sebasti Ã¡n
3 9
5 9
8 7
S U
W as
Z a
a par
e va
f ase
m Ãº
la dos
al o
in versiones
li d
mi ca
mo tivo
vi c
no mbra
pro mo
ex tre
ex tran
gu erri
ce p
va ciÃ³n
sa tis
au ton
contra to
San z
Al ber
mer os
mer cados
rar on
comuni dades
actu aciÃ³n
Ãºlti mas
muni cipales
rÃŃ guez
cam pe
ren o
Sa la
previs ta
loc ali
apo y
Ãºni ca
distin tos
veci nos
peti ciÃ³n
aque l
elim in
liber tad
Pau lo
Lon dres
Rod rÃŃguez
Comi tÃ©
Tri bunal
hing ton
Was hington
4 7
A G
A us
B il
D on
e du
i on
p ad
s ue
z adas
de res
de ben
en erg
es fuer
ta t
ar ca
que z
as amblea
as unto
is mos
pa cto
su fici
mi r
Ã± as
no che
fi cado
ba o
ex posiciÃ³n
go bier
im enta
im pul
for t
au tor
can tidad
ÃŃs tico
pon en
pon drÃ¡
ona to
tri mestre
men a
cent ral
pla zas
actu alidad
actu almente
ON U
Gu ardia
Cu ba
diri g
visi ta
comen zÃ³
fron tera
compro me
resi dencia
insta laciones
consu l
volunta d
Jue gos
Bil bao
I TA
T ER
c Ã¡n
d ra
m adas
r ena
y en
de di
ci da
el o
al l
as pe
re for
ent onces
pr os
di encia
tu vieron
no mbre
man tuvo
im puesto
tar se
lu cha
gan ar
En tre
ne o
infor me
Vi cente
mili ta
labo rales
As tu
As amblea
edi fi
quier da
Inter net
desarro lla
Si erra
his toria
ei ro
sali da
trÃ¡ fico
Ara gÃ³n
comp ra
neces ario
Asi mismo
reso luciÃ³n
6 2
F C
M T
R am
T ur
b es
c un
g rÃ¡
t ÃŃa
v ent
de nomin
ci dos
al gÃºn
ar gent
in media
ad virtiÃ³
di r
do ce
ca ra
des car
ex peri
gu ar
pre vÃ©
les ia
ni Ã±os
ga ciones
mu estra
ll er
Ã©s ta
lar go
19 7
fin ali
ne ga
der ro
bu ena
lle gÃ³
espe ci
nue ve
Vi toria
Pa ÃŃs
indi vidu
Sa o
Ex teriores
nego cios
ocu paciÃ³n
perio do
comer cial
parec e
ade lan
Bu enos
raz Ã³n
terror ismo
0 5
C ha
D A
G ali
M undial
P r
P la
P am
U r
V en
f Ã¡
p eli
s ent
u gos
la te
la das
ci endo
ci erre
al to
an d
in vi
re as
con fi
con ex
pa pel
to mar
li bre
vi Ã³
no ve
per tura
ba ciÃ³n
au tÃ³no
inter venciÃ³n
gen cias
minis tros
fr en
cons trui
gas Ã³
polÃŃ ticas
hu manos
nego ciar
derec ho
representan te
Fu entes
europe o
Gen erali
US A
diver sos
carre ra
afi cionados
mexi cano
prÃ¡c tica
pl ona
Ai res
EspaÃ± ola
Jan eiro
foto gra
Pam plona
ugos la
8 3
A li
B en
D en
D ÃŃa
F I
G O
P I
f ar
g re
m undial
o lÃŃmpi
u bi
u so
de mostra
es co
re fi
se p
se las
di cos
ca pi
li a
li g
li dad
mi o
Ã© xi
tu d
tu al
si mi
ec e
ten drÃ¡n
lan a
parti cular
fu ente
ÃŃs ticas
Co lo
tri un
comuni caciones
produ jo
estu vo
prin cipio
nor ma
mon ta
mon io
lib era
of re
san i
denun ciÃ³
Ã³r gan
inclu ye
cali ficÃ³
demo crÃ¡
premi os
popu lar
Bru selas
tÃ©r mino
argent ino
4 6
5 1
A la
C la
D el
F in
G a
M or
M il
U L
b lan
b rero
e j
f ac
f unda
Ã ĳ
es os
os a
er Ã¡
Ã³ s
re fer
re fle
ad ministra
con curso
di Ã¡
di miento
pa tr
pa gar
su l
su pe
mo mentos
vi ctor
esta ciÃ³n
me ta
den te
ten gan
man a
cion ado
cos te
inter es
mes a
Ci U
trabaj os
pod rÃŃan
leg isla
din ero
comer ciales
Europe o
inver sores
recono ciÃ³
tÃŃtu lo
aso ciaciÃ³n
habi tantes
presu puesto
vec es
ries go
britÃ¡n ico
Rob erto
Muni cipal
tex to
Segu ridad
milita res
late ral
Generali tat
6 6
7 2
8 4
C al
E r
F l
P as
V e
c Ã¡
g in
j eron
l ista
n adas
v ador
os to
ci eron
ar gu
as pi
con vi
con seguir
di fÃŃ
Ã¡ vez
si a
pro t
gu erra
tas a
Co mer
ju rado
tri b
ag rÃŃ
ez as
fe brero
ope raciones
consi gui
Val le
Val lado
As ÃŃ
acuer dos
Ch Ã¡vez
his tÃ³ri
fis cales
deber ÃŃa
diver sas
mejo rar
regu la
minu tos
estruc tura
apun tÃ³
cabe za
Rio ja
ning una
Aleman ia
eva cu
Gali cia
gasÃ³ leo
Vallado lid
5 2
B os
B AR
J A
T U
T er
T RA
a gua
a pertura
c ÃŃ
e dades
g ri
h n
i to
ci ta
ci mientos
al ta
as i
Ã© c
pro ces
ho mbres
par tes
ex iste
ga lar
sa ciones
gi a
lar on
mbi a
presiden cia
ne z
presenta n
ag osto
An d
mer i
men or
199 6
Ca ra
TA N
hu bi
celebra da
apro baciÃ³n
tiem bre
ocu pa
int ento
institu ciones
candida tura
ofi ciales
inclu so
expres Ã³
ocas iÃ³n
gol pe
madri le
confli cto
enti dades
insis tiÃ³
ejerci cio
edu ca
gobier nos
sep tiembre
4 1
7 3
9 1
F RA
H i
H os
H er
H iz
I b
M ag
P on
R es
S ur
T e
a mi
d al
s ac
t ente
v ada
es cen
ta gon
ar t
an as
ent rada
di os
is tra
ma ciÃ³n
cu lo
si co
bi a
pe tro
des pla
me z
vo ra
am Ã¡
na var
gi da
entre ga
inter eses
presenta r
bu lÃ¡
fe deraciÃ³n
bili dades
obje tivos
fici na
log ÃŃas
comi cios
tele visiÃ³n
propi a
acus ados
cumpli r
ameri cano
seÃ±a la
Pre mio
abier to
parlamenta rio
profesi onales
lÃ© tico
MartÃŃ nez
terri torio
mÃŃni mo
signi fica
inmi grantes
criti cÃ³
Colo mbia
diÃ¡ logo
Comer cio
trib ui
Hiz bulÃ¡
G MT
M EN
O lÃŃmpi
P ero
P AR
R EN
S en
S ec
X I
e a
p ano
r enta
t entes
Ġ Y
en la
or e
se an
di fi
di entes
Ã¡ rea
to ma
ri que
ma teri
cu y
res ta
ho mbre
ter os
ter cer
ex pedi
uni dad
pos terior
gan an
Ã©s te
fu tbol
ban co
pas a
cÃ³ mo
inter ven
tiv al
tri bunal
zar Ã¡n
titu d
acu mu
199 7
cri min
pÃºbli cos
So ciales
So fÃŃa
nu meros
sig lo
segui do
nego ciaciones
fici t
comi tÃ©
dÃ© ficit
dispu tarÃ¡
bus car
Au diencia
deber Ã¡
much as
coti zaciÃ³n
enfer me
colo mbi
profesi onal
gasol ina
gubernam ental
categor ÃŃa
mÃº sica
dirig entes
Astu rias
4 2
6 3
7 1
D O
F or
G U
H is
P os
T ran
T VE
a fron
b ase
c encia
c uela
e mi
e voluciÃ³n
i leg
r eli
z quez
de tenidos
ra das
er po
que da
an u
ad Ã¡
con tar
di dos
di cho
te ras
te mas
ri do
su perior
cu los
mi tad
Ã© fon
pro tagon
res pal
so luciÃ³n
enta les
ten ga
tor neo
pi de
au mentar
gi co
Re ina
sin i
dÃ³ lar
ab or
Jos ep
reci bido
organi zado
tel Ã©fon
Ro ma
social istas
desarro llar
Lo cal
progra mas
estable cer
candida tos
miemb ro
convo ca
II I
Des de
judi cial
carre tera
conven io
apli car
recupe rar
Du rante
At lÃ©tico
alem Ã¡n
bur go
carbu rantes
respec tivamente
Def ensa
Ã©xi to
ej em
difÃŃ cil
difi cul
Tran s
4 3
7 6
8 2
8 8
B ag
F rÃ¡n
L is
M os
M al
P N
S A
a ten
c fort
e co
g im
m Ã¡n
t x
z ano
de ri
de ral
ci viles
ra turas
que dÃ³
as u
as censo
re forma
re alidad
ti pos
con ces
Ã¡ zquez
do mi
ca rac
su puesta
da ciÃ³n
mo de
po dido
des pe
esta dio
me j
com entÃ³
ec er
may ores
im puestos
mÃ¡ tico
for mado
Es tu
sa la
ru gada
ch u
vis to
inter ior
posi tivo
ari dad
presenta da
qu er
cal les
fa vora
ag res
cla ro
actu aciones
ur ban
nu estra
reali zado
trabaj ar
apro bar
pod rÃ¡
200 4
mad rugada
Ra fa
prof es
europe os
prÃ³xim as
funcion amiento
alcan zar
Do min
Ru sia
rÃ© di
liban Ã©s
Rey es
Pan amÃ¡
vehÃŃcu lo
garanti zar
reciente mente
preg un
auton Ã³mi
Alber to
aspe ctos
Pr in
FrÃ¡n cfort
gim en
0 9
A unque
B B
B e
C os
C ris
G T
P OR
b era
c ÃŃas
f f
l Ã³n
m ados
n adi
s alud
t h
u d
z co
de o
de tal
de mos
es p
un ca
in cen
ad ministraciÃ³n
ad quisi
ti fi
ent rena
con tribu
se para
del o
pa ti
ca mi
ma la
li tera
pe c
des cono
ter cero
esta tu
fi esta
com parec
ba lan
tor no
man ca
ali zaciÃ³n
bo a
ll eros
mar ca
mar gen
presiden ta
cip ado
Mar io
Mar rue
gar on
ag ru
ez uela
produ ctores
indi ca
ini cial
ini cio
jor nadas
organi zaciones
Li ma
via je
ron da
OE A
dÃ© ci
inicia tivas
tele fon
escri to
escri tor
exis ten
opera tivas
mejo ra
industri a
concent raciÃ³n
docu mento
obs tante
Sala manca
experi encia
triun fo
Ã©c tri
Marrue cos
A c
E X
E le
G al
M ari
P Ã©
P RO
T el
Z A
a ba
a ero
b on
c Ã¡r
c rÃ©di
e labo
f Ã©
h uel
i den
l er
m ni
es cu
ci vil
ta des
Ã³ si
ue go
que dado
an ual
in fra
re mos
con clui
se cu
di plo
is o
le za
tra di
mo ra
bi l
po ten
res ol
res puesta
dad a
pu erto
per s
ce der
mÃ¡ tica
ali ciÃ³n
tar ÃŃa
lan d
cos as
cer rÃ³
ob is
bier on
pas ar
mas i
lle gado
lle gada
cons en
traba ja
menta ciÃ³n
val enci
plan ta
cul tores
deci diÃ³
gas to
vas co
Le ona
nor m
fuer za
afir ma
Ch e
soli d
tali dad
diri gente
ambi ente
econÃ³mi cos
europe a
Jo hn
Em pleo
proce dentes
perman ente
genera les
exper tos
blo que
acer ca
mag istra
caÃŃ da
prote cciÃ³n
ejecu ciÃ³n
cuesti ones
alter na
Ven ezuela
peli gro
sent encia
Hos pital
4 00
6 4
8 1
D er
G I
G ir
K o
L IB
M O
M as
M undo
R ec
f lo
i os
o tor
p to
u dades
de rÃ¡
de tenido
es as
ci c
ci das
ci udades
an im
re bel
di endo
cu bri
mi tiÃ³
Ã© tica
si m
po lÃ©
so me
dos e
com enta
ex pan
man teni
go les
go bern
gu as
ni a
ver s
ch as
entre vis
sus cri
lÃŃ deres
presenta rÃ¡
Vi r
cons is
us k
Pa z
indi caron
elec ciÃ³n
Ca i
nu es
tel la
vin cu
abri r
decla raciÃ³n
tivi dad
fron teri
cir cun
Bo li
gal le
estudi ar
rÃ© gimen
enfer mos
Cons titu
pÃ©r didas
prue ba
Jor ge
natura l
tecno logÃŃas
conci erto
delan tero
Fuer zas
guerri lleros
Ram Ã³n
Sen ado
telefon ÃŃa
cÃ¡r cel
A ir
B N
B Ã¡r
C D
E conomÃŃa
G e
I v
J er
K oso
L le
N u
T empe
a z
c ro
d Ã³n
f em
l uego
m ue
t Ãºa
v Ã³
y eron
de jÃ³
es tr
ci ada
ra dio
er e
al za
ar ÃŃa
as cen
ad qui
con t
se mi
Ã¡ mbi
te la
is is
le ta
mo delo
ter rÃ¡n
fi li
vo taciÃ³n
per u
enta s
ac el
va ti
for man
cion ar
ch el
mar Ã¡
mar co
dis tribu
Con federaciÃ³n
inter pre
gen es
Re gi
acu saciÃ³n
gar Ã¡
pen a
hi jo
cla ra
De partamento
situ ado
prin cipios
tori os
apro vec
respe to
encuent ran
conside rar
Cu mbre
tÃ©cni ca
impor tantes
Pro vin
cl Ã¡
necesi ta
fon dos
permi tirÃ¡
comer cio
dese o
Chi rac
asis tencia
provin cial
ameri cana
poli ciales
premi o
deli to
amena zas
pÃ©r dida
Ã¡l isis
volu men
Fer ia
apoy ar
Den is
simi lar
petro le
Bag gio
Lis boa
Rafa el
Prin cipado
nadi e
PÃ© rez
Der ec
circun s
Boli via
Koso vo
Tempe raturas
0 3
5 6
5 8
9 6
B ale
C aÃ±
E M
F ar
F eli
M eli
O TAN
R US
U GT
a p
b ro
g encia
j Ã³n
l Ã©s
n do
p ciÃ³n
r y
v Ã¡
w n
ci anos
er tas
ue vas
ER C
al tÃ³
ar ra
as cien
ti rÃ¡n
con ser
co aliciÃ³n
pa la
ri cultores
li tro
li bra
li cen
le van
da Ã±os
bi r
bi Ã³
pe dido
com pon
ac titud
ex plo
gu en
les iÃ³n
cas as
era r
ch il
dis crimin
Co legio
ban cos
ju zgado
In dustri
ven ez
Re pÃºblica
sin di
infor mado
espe cta
ab solu
CO I
CO O
Vi zca
produ cto
bar rio
organ ismos
muni cipios
asegu rado
representa ciÃ³n
Di rec
hos pital
pod rÃ¡n
trans par
previs tas
ciar Ã¡
ÃŃn dice
baj Ã³
cultura l
propuesta s
consu mo
iz quierda
sor pren
poli cÃŃas
movi li
nubos os
distin tas
periodis ta
cuar to
abandon ar
sindica to
ide a
conden a
prue bas
PÃºbli cas
vehÃŃcu los
OM C
bom bar
Servi cio
benefi cios
aprob Ã³
accion istas
fotogra fÃŃa
norma tiva
Mil Ã¡n
victor ia
convoca toria
mej ores
huel ga
Gir ona
Vizca ya
6 7
9 2
A rias
B ara
F is
L y
N e
P residencia
S alud
T EN
U D
e ducaciÃ³n
f an
h arÃ¡
i ble
n unca
s ar
y ol
de jar
en vi
es pos
ci na
ta rias
el em
el Ã©ctri
ar te
ad Ã©
ad judi
ent rar
con cer
co me
ca p
ca ta
ca den
ri ente
lo va
ĠVS G
esta mos
pu ertos
ten cias
ac cidente
ex portaciones
pre cis
pi e
pi ezas
tro pas
pos tura
ver n
ru so
gi cas
presiden cial
fin es
Con ferencia
posi bles
ja ra
Go vern
dar io
Uni das
val u
val ores
ton e
rÃŃ n
expli ca
So bre
organi zada
nu estro
tori al
Man cha
ori gen
compaÃ± ÃŃas
lib erali
responsa bilidad
estra te
baj ada
paci entes
emple ados
estudi os
dipu tados
ger ente
Jo an
Mu seo
cien da
movi miento
ocas iones
Ha cienda
lÃŃne as
integra ciÃ³n
cra cia
vivien da
terror ista
MartÃŃ n
Servi cios
Ig lesia
transpor te
andalu z
aus encia
Cara cas
favora ble
resol ver
rebel des
expan siÃ³n
Iv Ã¡n
fem en
Meli lla
0 1
7 4
B el
B lan
D a
E cu
F OR
G il
J im
N as
P ab
P ir
Q UE
T Ã©
T OS
U R
a ran
b los
b ez
c Ãº
d ÃŃ
e laboraciÃ³n
g esti
h on
i t
s esi
v ari
ĠF s
os is
on ia
ta m
or ca
que dar
an al
in de
di cha
co operativas
su i
si r
si va
si endo
vi gi
pro posiciÃ³n
pro medio
po ca
res altÃ³
des censo
esta tal
me tro
ui z
pu do
ten e
ex ten
man tienen
tes ti
tro du
car gos
ver siÃ³n
au menta
gi Ã³
gan a
parti da
dis co
ne gÃ³
gen i
lle vado
ag encia
Pa tri
val os
pri ori
Na ciones
25 0
tÃŃ n
CI A
DE L
vin o
op ciones
anun ciado
fica ciones
impor tancia
venta s
AC NO
ciden tes
Comuni caciÃ³n
estudi antes
Jo a
rela cion
ases or
conta ctos
llevar Ã¡
cumpli miento
PA RA
raz ones
redu cir
ata que
confir mÃ³
presu puesta
inf lu
rei v
heri das
Tra bajo
novi embre
suspen siÃ³n
locali dades
sufici ente
funda mental
ganan cias
solid aridad
BÃ¡r bara
estrate gia
9 4
C AN
C COO
F on
F re
G Ã³
I P
M esa
O V
P en
R U
S V
S y
c Ã©
d rÃŃa
e to
f re
g Ã¼
h ar
t t
t enta
t Ãºn
v ento
v ac
v ados
ci f
ci pe
ta ba
ta forma
ar e
ar tÃŃ
an teriores
in ta
in ti
in trodu
re publi
di seÃ±
di visiÃ³n
pa go
ri eron
su puesto
ma ti
ma cho
li de
li mi
mi dad
mo tiv
no ti
Ãº an
so cios
am Ã©rica
Es tos
car Ã¡
mu la
dis cip
gra do
Ã©n dez
In g
ces i
zar se
ol Ã³
cons ta
cons tru
199 5
var ia
Ca ja
Ca macho
deci dido
gas tos
So ci
alg una
final mente
sen ti
che t
peri Ã³
compe tencias
anti l
Su perior
EU RO
subi Ã³
soci edades
exis tencia
famili as
CE LO
ases ina
encontra ba
redu cciÃ³n
recha zÃ³
espaÃ±o las
recibi r
heri dos
enca bez
.. .
mÃ© dico
colec tivo
extra ordin
pron un
glo bal
Pri mera
elegi do
cli entes
esfuer zo
edifi cio
lig ero
BAR CELO
posterior mente
Bale ares
TÃ© cni
inde mni
GÃ³ mez
7 00
A Ãĳ
B on
B ur
C AR
C eu
E u
E usk
F IN
I O
I bar
I ON
K ar
P ue
P ad
P las
P ese
S or
S ol
V Ã¡zquez
b la
c tura
k m
p Ãº
p ana
s Ã©
de mÃ³
ci tada
al tura
re Ãºn
con soli
con junta
di vi
di bu
co las
por tero
ca er
to talidad
li cencia
cu lares
ha bili
res is
pres entes
ter ra
esta ciones
par o
com bus
ran do
em ent
em pa
ten as
ac adÃ©
im pedir
tr on
Es pe
pos tela
mu seo
ru t
rÃ¡ pi
tan cias
entre vista
dis posiciÃ³n
ban car
pon i
der os
Re laciones
contra rio
qu eri
Se g
Vi llan
pue blo
direc tivos
actu ales
Mi entras
Ar madas
seÃ± anza
edi l
fun ciÃ³n
celebra r
celebra do
apro bado
segui dores
cum bre
mad re
PS E
of en
san ciones
institu to
anti gu
investi g
Am Ã©rica
CION ES
poli cial
particip an
aso ciaciones
exper imenta
chi ÃŃ
industri al
trÃ¡ s
recibi Ã³
conver saciones
modi ficaciÃ³n
================ ================
vÃŃcti mas
sigui ente
figu ra
vera no
and ante
ofre ce
Ã³rgan o
Mor eno
hubi era
resta u
expedi ente
chu bas
Mari ano
obis po
Provin cial
sesi ones
tam poco
asesina to
BARCELO NA
Ceu ta
Plas encia
demÃ³ cra
combus ti
Villan ueva
0 7
7 8
A mena
B A
B or
B ei
C ab
E du
F a
G A
G ala
H e
M edi
N I
O l
P rÃŃn
T en
T ELE
U no
a por
a pe
a pla
a plaza
b Ã¡
c ciones
h emos
t Ã©s
z ando
de cen
la mentÃ³
ci entos
ra ti
on ce
ar re
an Ã¡lisis
re de
co bra
te ca
is h
pa que
ca mino
cu estiÃ³n
mi te
da mente
tu ri
bi o
pro mociÃ³n
pe ra
pres ente
ter Ã³
ter reno
esta n
fi le
ten ÃŃan
ex clu
man tenido
am is
im plan
mÃ¡ ticas
jo y
23 0
Es to
lu vi
ch es
dis cu
ve inte
Co mo
pas e
pas Ã³
pon ga
cre e
ju rÃŃ
mill Ã³n
ne y
posi bilidades
ber os
lle ga
fa bri
Al fon
men es
pen as
empres ari
empres ario
empres arios
comuni tarios
direc tamente
equi val
Jos pin
nos otros
reg res
mili cianos
expli cado
reuni ones
ren un
cin as
nor mas
AS A
Sa int
hu bo
IN A
Cas a
ciar on
resul taron
Can adÃ¡
denun ci
Ra joy
efec to
derec ha
europe as
fav ori
solici tado
parec er
pan yol
regis trÃ³
aca bar
funcion arios
encontra r
ameri canos
at enta
plante a
Com postela
deli tos
abier ta
conclu yÃ³
Cons ell
brasile Ã±a
brasile Ã±o
sex ual
gus to
oport unidades
oport unidad
facili tar
Je an
Mer cado
ofrec er
comis ario
cris is
itali ano
PR ES
energ ÃŃa
Tur ismo
fÃ¡ bri
conex iones
refi riÃ³
enferme dad
BB VA
Cos ta
polÃ© mica
Lle ida
distribu ciÃ³n
ascien de
bombar de
Bei rut
0 6
9 3
A cesa
C e
D ES
F lor
F Ãºtbol
H ern
M ur
O li
P ac
T ec
a pos
c ue
c Ã³n
g ÃŃa
i me
i ba
k er
p Ã¡
t z
t za
u a
v adas
v amos
y ugosla
z z
de j
la jara
la terra
ci ente
ci ne
ci fra
ci lio
on ar
ta le
ue lo
al tos
ar tista
ar tistas
in su
re ferencia
ti dos
di vis
co che
do ble
ca yÃ³
li ga
cu erpo
mi les
le ish
da q
ha cen
si cos
vi la
esta rÃ¡n
com andante
vo tos
ten dencia
pre ocupaciÃ³n
ali anza
for mu
Es cuela
sa b
aÃ± ade
era les
lan da
ru guay
gan ador
presiden ciales
gra cias
Ã©n ez
medi ados
qu ÃŃn
acu l
mÃ³ viles
ag ricultores
ins tru
pÃºbli cas
reuni rÃ¡
cam pes
mani osis
tori as
ori gin
Gu er
conside raciÃ³n
ocu par
Mon te
avi Ã³n
permi te
Cam po
bus ca
finan ciaciÃ³n
trata miento
famili ares
Hu go
afec tados
Ale jan
Pu erto
lor ca
participar Ã¡n
genera ciÃ³n
veci no
recupe raciÃ³n
lÃ³ gica
utili zar
solu ciones
conclu siones
liban eses
sex uales
quin ce
registra do
CH A
sigui entes
gubernam entales
anali zar
aprob ada
comien zo
coinci dieron
Ja ime
consecu encia
portugu Ã©s
reser vas
nombra miento
extre me
aquel los
pad res
esco lar
numeros os
Mal lorca
domi cilio
detal les
balan ce
Ã¡mbi to
petrole ras
caden a
Nas daq
cif ras
Ing laterra
PrÃŃn cipe
leish maniosis
1 20
5 7
A Ã±
C U
D ani
H el
H erre
I T
M c
O bras
P res
R ad
R espe
S il
V AR
d ney
e e
e ras
e fica
f eli
i dos
o posi
o ficina
s tra
t y
u da
u Ã±a
v ul
v adores
v amente
x em
y an
de tenciÃ³n
ra dor
ar qui
re comen
ti ma
ti erra
co labo
su ce
su pri
li ca
li Ã¡n
cu a
cu la
mi co
Ã± e
ro quÃŃ
ha ciendo
tra yec
ones a
des file
ho mena
so la
com para
com Ãºn
vo to
pu s
per diÃ³
ac la
ex am
ex terior
du ra
ada lajara
mÃ¡ xim
pre vi
min aciÃ³n
car tas
ver de
ru gÃŃa
ch os
gan do
mar io
Ã©s tos
dis tribui
cer rar
inter valos
bu eno
ay untamiento
infor mar
Al to
men sa
men ores
pen sa
cono cido
cent en
dar se
produ ce
cor re
plan es
indi cado
Ca la
ON G
Mi chel
gres istas
tis mo
jue ces
via ja
Gu adalajara
UE FA
ing lÃ©s
ola no
hacer lo
tÃ©cni cas
impor te
of reci
recor rido
Cor uÃ±a
baj as
econÃ³mi cas
inte grantes
log rÃ³
Ra Ãºl
Ser ena
alcal desa
tir se
tur ismo
club es
convo cado
consu mi
Fe deral
dele gaciÃ³n
Ale x
Ins alud
Pi lar
llegar on
mostra do
proce dimiento
demo cracia
ata ques
dirigi da
parlamenta ria
rei terÃ³
ries gos
exi gi
pens ar
coordin ador
fes tival
Empres a
promo ver
extran jeros
Aus tri
sue lo
construi r
prÃ¡ctica mente
patr onal
Fl ori
agrÃŃ colas
proces ado
cuy os
telÃ©fon o
Trans por
asu mi
despe jado
adquisi ciÃ³n
vers ario
Ge or
transpar encia
Ly cos
elem entos
Jim Ã©nez
Pab lo
anal istas
antigu o
Alfon so
Herre ra
Respe cto
0 2
A B
A P
A T
B us
C lu
E ri
G RAN
I sa
L an
M aÃ±
M ia
O P
O s
P ino
S O
S T
V er
Y o
Y ugosla
Z am
a gen
a jus
a pare
a penas
b Ãºs
d s
e jecutivo
e valu
g r
i ma
i cas
m p
n er
n an
p Ã³n
p rac
s t
de ro
de fi
ra di
or no
el es
ER A
al rede
un ciÃ³n
as turi
re mi
re tra
ad amente
ent ÃŃ
con tu
con tarÃ¡
se min
di era
Ã¡ s
los evi
is tÃ¡n
ri tu
Ã© poca
tu bre
si tÃºa
vi gente
pro lon
po cos
res te
pres unta
pres unto
Ãº r
Ãº per
esta dos
esta bilidad
fi l
com porta
den cias
pu lar
pu erta
per dido
em in
ac tivos
tor o
man do
go tÃ¡
La tino
for mar
Es tas
Es panyol
pi er
min os
tar je
cion alidad
sa ber
ver da
lan cia
cos tes
ch an
mar roquÃŃ
ve ga
mis mos
gra ves
lÃŃ n
der ÃŃa
qu en
Go ya
acu sÃ³
unta mientos
San idad
ag re
An te
minis terio
CO S
fir mado
cons ell
cen se
produ c
produ cido
produ cir
10 6
Par lamenta
ope rado
tre inta
Mi losevi
pun tu
vas ca
asegu ra
Po lÃŃ
Po pular
AN O
fun ciones
arro llo
Gu a
fran ces
200 2
cambi ar
bri co
cuenta s
estra tÃ©
Cor ÃŃn
san gre
institu cionales
ambi ental
pes os
necesi dades
anti gua
cultura les
his pano
Pe tro
vel o
Bo gotÃ¡
investi gaciones
vien e
propi edad
exis tente
preci pi
dipu tada
Au tÃ³no
Hu esca
Ag encia
ade cu
rela vega
conta cto
principal mente
Des arrollo
particip antes
cuar ta
aco ger
reco ge
mÃ¡xi ma
Men orca
liban esa
modi ficar
constitu ye
defen der
Tor relavega
alem ana
caus as
mÃ© dicos
pis co
estruc turas
crÃŃ ticas
colec tivos
Gui pÃº
Fo mento
clasi ficaciÃ³n
cuad rados
ELE C
contem pla
patri o
satis fec
campe Ã³n
elimin ar
pad re
esfuer zos
grÃ¡ fica
prot esta
OlÃŃmpi cos
PN V
supuesta mente
Estu di
zco a
pers pec
consen so
Derec ho
venez olano
Pir ine
reiv indi
tÃºn el
Soci edad
periÃ³ dico
reÃºn e
Cab all
amis tos
AÃ± adiÃ³
Rad io
Austri a
Mia mi
Pino chet
Milosevi c
GuipÃº zcoa
0 4
0 8
7 9
B P
B ol
B ern
C P
C Ã©s
C ES
C NE
D avi
E se
I CA
L U
M AD
P ari
P esca
R en
R uiz
S ta
S erra
U P
V an
W il
a hor
b Ã³
e ar
e da
e cono
g ros
h al
i ra
j era
l Ã¡n
o cul
p istas
s ensa
v ante
x a
Â ¿
ĠF ia
ĠF it
de b
de man
de ja
ci tado
ci erto
Ã³ lo
ar do
as ig
in jus
re da
re curso
LO S
ti llo
di c
di fun
Ã¡ rez
ÃŃ z
ÃŃ ritu
do l
is a
su reste
ma z
li zaciÃ³n
ha cÃŃa
mo do
ĠVA P
ado ra
pro gres
pe tencia
res uel
des can
so lo
esta ban
fi j
me ras
com arca
ten emos
ex pul
im ismo
La tina
pre acuerdo
pre venciÃ³n
jo l
les ias
ni e
ali dades
for o
car ta
mu sul
ru m
can te
na ciÃ³n
gi cos
dis tas
ve dra
En erg
cre ado
lÃŃ ni
In di
ven ida
lla ma
Mar ina
ins tÃ³
CO R
fir mas
dar ia
hi cieron
ES ES
Uni do
direc to
direc tora
pri meras
hab lar
Ju zgado
Ar te
situ ada
Fran ces
Ci encias
trabaj an
hu mani
obje to
nego ciaciÃ³n
gue ra
Cor tes
Tele com
anti terrorista
dro gas
prof eso
estable ce
candida turas
efec tiva
comen zaron
dÃ© cada
cir cu
ciden tal
AD OS
publi cado
estadouniden ses
depor tivo
incre menta
insta laciÃ³n
continu ar
recono cimiento
rela cionados
sali r
Pu jol
selec cion
Des puÃ©s
cumpli do
particip ado
Gran ada
Aso bal
conven i
agra ria
apli caciÃ³n
regu lar
lÃ³ gico
Com petencia
parlamenta rios
abandon o
inaugu raciÃ³n
defini tiva
PÃºbli ca
intenta r
tema la
bom beros
docu mentaciÃ³n
desem pleo
financi eros
comba te
usu arios
competi ciÃ³n
cris ti
apar ca
satis f
campe onato
Aus tra
energ Ã©
sufici entes
denomin ado
inmedia to
guar da
conex iÃ³n
Ali anza
far ma
demostra do
Ala va
Del gado
madrile Ã±o
escen ario
colombi ano
sini estro
ejem plo
dificul tades
entrena miento
dÃ©ci ma
Constitu ciÃ³n
licen cias
Direc ciÃ³n
relacion adas
Sy dney
230 500
pÃ¡ g
Alejan dro
homena je
defi en
semin ario
comporta miento
Gua temala
Estudi antes
Bol sa
Pari bas
A RG
A hora
A tenas
C uevas
D os
E E
E Z
E pisco
H en
J ones
K a
L in
M AS
P ol
Q ui
R os
R ay
R ES
V ÃŃ
X X
b ec
c ador
d ina
f Ã³r
h in
h ÃŃ
i cos
n as
p lar
p ele
r Ã©s
t mo
u de
v ali
v ini
w ar
y un
z antes
ĠD T
de fici
en mi
en cial
la ridad
ci rÃ¡
ci ados
ci ertos
on e
er en
al lÃŃ
al ber
ar ti
an zas
in greso
re tras
re quisi
ent orno
IS RA
se cciÃ³n
di cta
Ã¡ ra
co pa
co ca
co legio
ca ble
ri tmo
ma tri
li tros
cu bano
Ã± ez
ha bido
tra tar
pro por
des pi
ter ÃŃa
par que
com pren
ec en
ba i
em baj
tor ce
im pu
uni Ã³n
va caciones
qui a
qui era
qui Ã©n
car tel
aÃ± adi
ver o
mu rieron
can ciones
dis puesto
dis minu
est Ã©
ob tener
pon encia
gra ciÃ³n
inter na
inter net
In vesti
posi tiva
tri cidad
ven ement
presenta das
Re presentan
bra no
acu dir
ab s
pen diente
cono cimiento
cons or
199 4
produ jeron
pla taforma
mes as
10 3
direc tiva
cor riente
cul tivos
deci dieron
deci siones
tre a
Mi cha
tran qui
CI AS
ori ental
jue gos
Di ego
hos pi
Cas tel
encuent ros
segui rÃ¡
conside ran
contin Ãºa
hay an
desarro llan
institu cional
auto pista
Pro du
efec tos
efec tivos
venta ja
Para guay
RI A
RI D
solici tud
tele comunicaciones
ampli a
depor te
sub ven
destin o
continu aciÃ³n
deber Ã¡n
opin Ã³
Mu Ã±o
ases in
ÃŃcu la
isi on
pare ja
exper im
correspon de
comp rar
ani versario
caus ado
ocup ada
Sal vador
quin to
Asi a
Jor di
inten si
OM S
oc tubre
Gi ro
benefi cio
Ti erra
obser vadores
mÃŃni ma
abo gado
indepen diente
incorpo raciÃ³n
logra r
portugu esa
itali ana
cli ma
grave dad
Za mora
edifi cios
nega tiva
confi Ã³
monta Ã±a
blan co
administra ciones
supe rar
agrÃŃ cola
consigui Ã³
histÃ³ri co
evacu aciÃ³n
galar dÃ³n
educa tiva
afron tar
protagon i
aten der
carac ter
agres iÃ³n
litera tura
agru pa
aero puerto
secu estra
tradi cional
Che venement
nues tros
tella no
BN P
Jer ez
fili al
Regi onal
Feli pe
sindi cal
espos a
tone ladas
noti cias
Bur gos
resis tencia
Seg unda
ofen siva
aplaza miento
implan taciÃ³n
empresari al
Mur cia
centen ar
Clu b
Zam brano
CÃ©s ar
Davi d
Austra lia
enmi en
ISRA EL
6 00
A fri
A meri
G re
G ay
H an
I M
K u
K re
M ara
N or
N ica
Q U
R FA
S us
T ES
U T
Y a
a j
a bu
a puesta
f l
g h
i ro
j ano
l las
l luvi
o mÃŃa
s alu
de a
de trÃ¡s
en seÃ±anza
ra mos
ER RA
al ban
al cÃ³
ar ma
ar mas
in ser
in fer
in cidentes
in cumplimiento
re ta
re parti
re fu
re visiÃ³n
re anu
ad ver
ad alu
ti ro
con fÃŃa
di rÃ¡
di jeron
Ã¡ reas
te a
te cimiento
li do
li qui
li mpi
mi da
ha ga
ha gan
tra tos
si da
mo ral
vi vir
vi gor
bi tro
bi ll
lo to
pres os
so cio
par i
El che
per ci
per der
per judi
em pren
ac tor
ac ceder
Ã¡n dose
tor mentos
man e
du da
ada p
pre ce
pre fer
pre via
les ion
for tale
ga ra
lu z
rec es
mu cha
lan do
au stri
can tes
gi ados
tan os
dis tri
dis pone
19 89
Co mis
ban ca
mis os
mis ta
cre o
ju gado
gen io
presenta ron
Re p
Re ino
contra tos
contra taciÃ³n
espe rar
mer ÃŃa
cent ra
Vi llar
hi dro
Par la
val do
hab la
cla ve
cri men
ON A
Val enci
situ Ã³
15 0
cam pus
asegu rar
As unciÃ³n
jue ga
op ti
via jes
reali za
reali zaciÃ³n
sos tuvo
sen si
sen ador
Gu adalu
hu mano
anun cio
Lu xem
regi onales
quier en
desta ca
fo ral
cuenta n
manif estado
len gua
vol viÃ³
ayu dar
Si ria
Lo zano
Esta dio
comer ci
Su Ã¡rez
comen zarÃ¡
tur ÃŃstico
dispu ta
dispu tado
solici ta
propi eta
trÃ³ leo
deba jo
depor tivos
depor tistas
cole gios
continu a
afec ta
tÃ¡ brico
jus ticia
comple ta
comple jo
participar on
seÃ±a lado
seÃ±a laron
particip Ã³
obli ga
veci na
MÃ¡ s
correspon diente
inaugu rarÃ¡
inclui do
gasol inas
encar gado
condu cir
inten sa
determin ar
acep tar
Gi jÃ³n
Gui ller
adop tar
preg unta
Bal les
May or
indepen den
Social ista
BI ER
patri monio
reser va
esperan za
impul sar
consul tas
refor mas
olÃŃmpi co
ofre ciÃ³
Ã³rgan os
regula ri
Bos nia
Te atro
materi al
ileg al
respal do
conces iÃ³n
Domin go
Tel lado
elabo rado
cic lo
cubri r
Cai xa
absolu ta
femen ino
Ecu ador
hon or
influ encia
Edu ardo
Flori da
Yugosla via
alrede dor
velo cidad
AutÃ³no ma
VÃŃ ctor
Representan tes
Nica ra
Villar real
Luxem burgo
Guiller mo
8 00
A M
A vila
B S
B U
B as
B ro
C R
C asta
C AS
C SI
D in
F P
F MI
G ri
G ales
I z
L I
L or
L AN
M ac
M au
N H
O T
O ficina
P len
R TVE
T erra
U ruguay
V a
X avier
a con
a Ã©
a quÃŃ
a gencias
c enta
d ÃŃan
e gue
f gan
f esi
h ue
h as
i al
i rÃ¡
k e
l istas
o cta
p ales
p Ã³si
t ti
t ÃŃas
de sig
de tec
de masi
la tino
on ado
er ras
in fec
re o
re ales
re ve
ad al
ti dades
con seguido
te vedra
pa c
ri l
li am
cu an
cu bier
mi c
mi x
mi cas
ro di
tu des
si len
mo bili
vi vi
bi les
bi lateral
no ticia
pro visi
po l
po demos
pres a
ter ren
fi ja
me can
par ciales
com par
ui dad
den al
pu ertas
per ten
ten a
ac tivo
im as
im pidiÃ³
im pacto
La bo
les iones
ali zar
Es t
min as
qui r
car io
sa que
mu si
lan te
lan zar
ru z
ru sa
au tores
dis ta
cer ti
ob tuvo
cre di
pli cÃ³
pli egue
medi terrÃ¡n
ju ven
In formaciÃ³n
ven ce
fer ia
qu ÃŃa
qu iso
Mar k
espe ciales
fa tura
An ti
fir me
pen siones
hi jos
199 2
comuni cÃ³
pue blos
produ cen
Uni da
bar cel
Par ma
jun tas
person ales
EN A
EN TE
elec tricidad
ini ciÃ³
cri pciÃ³n
reg las
Ar tes
Fran co
organi z
Ro mero
versi a
edi ciones
op ciÃ³n
conse jo
sos pe
Gu erra
compaÃ± eros
lib res
lib ros
200 3
contin ente
desta caron
nego cio
manif estaciÃ³n
abri Ã³
baj os
auto ra
Pro gra
Pro gresistas
Pro fesi
visi tantes
fon do
estable cido
dÃ© biles
tempo ral
gui r
termin Ã³
subi das
reti rar
solici tar
bel la
resi dentes
recu er
famili ar
contro la
Per e
asis tirÃ¡n
incre mentar
destin ado
destin ados
Ad ministra
afec tan
provin cias
Ag regÃ³
aca ba
funcion ario
jus ti
enfrenta mientos
nivel es
ig lesia
espa cios
dirigi do
ofer tas
prepara r
neces aria
ki los
defini tivo
heri do
gon Ã©s
jugar Ã¡
natura leza
volu cion
Ig lesias
Ber lÃŃn
mul tina
desem pe
concre to
pron to
acor dado
Depor tes
acompaÃ± ados
sufri Ã³
cru do
buen as
ofrec erÃ¡
delan te
ingres os
fru stra
logra do
cep ciÃ³n
autÃ³no mas
libera ciÃ³n
Fl ores
Ib ero
Pon tevedra
ami gos
futbol istas
carac teri
profes or
profes ores
comparec encia
crÃ©di to
crÃ©di tos
Rec or
comenta r
manteni miento
ap unta
explo taciÃ³n
liberali zaciÃ³n
vigi lancia
discip lin
Pue blo
pana me
investig adores
demÃ³cra ta
paque te
bombarde os
cue las
campes inos
Dani el
Transpor tes
Eri trea
MaÃ± ana
Latino amÃ©rica
consell er
operado ra
PolÃŃ tica
MAD RID
Wil liam
satisf acciÃ³n
infer ior
Guadalu pe
Iz quierda
Plen o
terren os
0 61
A Y
A ran
A gra
B M
B OL
C EN
C ruz
D ar
E ci
E gi
G AS
G OL
I maz
J i
L ER
M Ã©ndez
N os
P OS
P RE
R on
S au
T he
T RO
V EN
W all
X III
a guas
c adores
d ones
d ona
f era
i c
k g
m ent
p lu
s el
u m
u ma
v u
v encia
w s
de bu
de tuvo
de pÃ³si
en or
es tival
la tera
os ti
ra ga
ra je
er r
er es
er ror
or io
al tas
ar ri
ar ras
ar cas
que l
que daron
un e
as imismo
re des
re per
re vis
ad mitiÃ³
ti da
ent radas
con tenidos
pr Ã©sta
di arios
di ferencia
Ã¡ genes
do cum
is co
pa bel
ca t
ca fÃ©
to mado
su bieron
li dos
mi cos
ro vi
ro bo
tu to
tra tan
si ti
lo bo
pro hi
des te
des cen
pres en
pres cin
ho mos
ter res
fi cas
fi cos
fi jado
com pen
com posiciÃ³n
den as
per miso
man n
man es
man tuvieron
im Ã¡genes
ni dad
pi ensa
lu m
cas ti
aÃ± a
na ciones
na cio
gi do
gi das
ble mente
presi ones
est Ã©n
cer em
cer rec
cer can
En rique
ban da
cre ada
In forma
tin i
ces os
ven ir
presenta rse
bu ses
bra da
tien do
tien da
ay untamientos
Mar cel
espe cÃŃ
minis teri
cent ÃŃ
ES TA
pla ni
Pa tr
jun tos
equi pa
pri vada
pri vati
fe de
Na tura
hab rÃŃa
cla usu
actu ar
tre ce
ON AS
Car lo
Car men
gran de
Val ores
rÃŃ o
Ju lio
puesta s
reuni Ã³
bas es
tÃŃ an
estu vieron
mani fi
Le vante
erra di
fal lo
mon o
mon eda
ir regulari
reali zada
reali zadas
hu mana
EL A
anun ci
portavo ces
Ch ris
trans formado
contin uidad
resul tÃ³
conce pto
baj ar
auto mÃ³viles
auto buses
Si los
Ra to
Lo gro
Esta tuto
Me tro
permi tido
permi tiÃ³
fis calidad
comen zar
paci ente
fron teras
tempo radas
Fu enla
dispu tarÃ¡n
AD A
solici tudes
Ri valdo
opera dores
sub si
continu o
condi ciÃ³n
plo mo
Este ban
mostra r
judi ciales
demo ra
futu ros
Do Ã±a
Pre venciÃ³n
agra rio
enci ma
coin ciden
industri ales
reco gida
gol pista
fÃŃ sico
conden ado
elim ina
crÃŃ ticos
Ba ja
Ig nacio
oc tanos
onces to
mul ti
financi ero
Je fatura
acor daron
Depor tivo
Fo ral
Ja pÃ³n
hen es
sufri do
May o
pens amos
ingres ar
coordin aciÃ³n
Def en
categor ÃŃas
impli cados
Fuer za
Empres ari
peque Ã±o
guerri lla
especi ali
adelan te
Pla za
fÃ¡ cil
autÃ³no ma
GO BIER
sani tario
democrÃ¡ tica
refle ja
prot estas
Hi dro
cuy as
autonÃ³mi co
esp ÃŃritu
cami ones
Ele cto
magistra do
fronteri zo
galle go
Air tel
CD C
clÃ¡ usu
elÃ©ctri ca
adjudi caciÃ³n
Bel grado
Pad ua
Sol bes
chubas cos
fÃ¡bri ca
Tec no
acul tad
Pres u
mÃ¡xim os
mensa je
viaja ban
frances es
descan so
Energ ÃŃa
Investi gaciÃ³n
Micha el
caracter ÃŃsticas
inser ciÃ³n
Rep sol
Valenci ana
Casta Ã±o
Recor dÃ³
Eci ja
latera les
docum entos
homos ex
irregulari dades
Fuenla brada
GOBIER NO
A ri
A reces
B ri
B LE
C er
C AL
C AC
D IS
D ÃŃ
D ele
E A
E d
E conÃ³mi
E TI
F ron
F erre
F oro
F REN
G ra
G reg
G erar
H ur
M IN
N i
O c
P OL
P acto
R aÃ±a
S ch
S tre
S AN
U nos
a i
a conse
b ru
d ando
e h
e tÃŃ
e tario
e amiento
f Ã³n
f ÃŃas
i mi
k ari
k ÃŃn
l ina
m s
o to
p les
s Ãºper
u ch
u ts
v antes
y endo
z can
es ÃŃa
es iÃ³n
es cul
ci ano
ci entÃŃ
ra dores
ra ÃŃz
on el
on ista
ta men
er t
ue los
al qui
al imenta
ar chi
an uales
un ya
un ani
re tos
re vista
ti entes
con fer
con greso
con vento
di e
di g
di versi
ÃŃ ti
ÃŃ na
co lor
co razÃ³n
te cto
te atro
pa cÃŃ
ri llo
su ra
su fren
cu o
le t
le gi
le hen
da ble
da kari
Ã± ado
ro ga
si cas
mo der
vi deo
ones taciÃ³n
no c
pro ba
pro cla
po eta
pe trÃ³leo
pres ti
pres untos
Ãº e
esta fa
fi cha
fi cados
me tas
pu r
em is
em po
ten go
ac ha
ac ei
am ari
du os
du das
du raciÃ³n
tas as
tr Ã³n
ali zÃ³
Es a
Es tras
pi den
min or
rec alcÃ³
mu es
mu erto
lan dia
ru mpi
can do
can adi
na ciÃ³
bo li
gi ra
gi gan
tan do
mar car
parti culares
lÃŃ mite
ju bi
tal la
tal unya
tien de
fer ta
qu ero
infor mes
Mar tina
San to
fue go
dar Ã¡n
Vi entos
cons tante
199 0
199 1
us tro
Uni dad
pla zos
direc tas
pri vado
cor rec
cla ustro
ur gencia
Ca talunya
deci da
Car m
Car ta
De uts
Ju vent
14 4
expli car
Fran ca
vas cos
mayor i
tel es
cin cuenta
ciudad ano
reali zÃ³
reali zarÃ¡
Di visiÃ³n
celebra rÃ¡n
apro xim
CÃ¡ r
Cas tillo
regi ones
conside rado
17 0
desta cado
leg is
tali zaciÃ³n
director es
Cor te
Cor po
Can arias
auto pistas
Pro mociÃ³n
centro cam
To dos
segu ro
avi ones
lugar es
estable cimiento
estable cimientos
Pe kÃŃn
ofi cinas
Su pre
bal ear
domin io
tur istas
informa tivo
he co
RI O
compro bar
subi r
Or den
publi ca
publi caciÃ³n
ine da
depor tiva
CE I
pÃºblica mente
Mo ra
tÃ¡ culos
sali Ã³
Pi erre
esto y
esto cada
enfrenta rse
raz go
espa cial
kilÃ³ metro
aco gida
lÃ¡ s
solu cionar
habi tual
Ho landa
Alvar o
inf laciÃ³n
integra da
Cultura l
ESP AÃĳ
ide as
Dipu tados
enca be
prop Ã³si
Sal va
popu lares
britÃ¡n ica
ID AD
prÃ¡c ticas
oc cidental
comba tientes
universi tarios
tren es
persona jes
Ta i
hor ra
Qu aran
peque Ã±as
grÃ¡ fico
descar ta
individu al
Cha ves
DÃŃa z
Ã³s tico
interes ados
Bos que
Res ul
Sec re
renta bilidad
materi ales
futbol ista
numeros as
sini estra
telÃ©fon os
Mos cÃº
eco tasa
autonÃ³mi ca
mala gue
estatu to
poten cial
masi va
some tido
adqui ri
circuns tancias
compon ente
Industri a
lova quia
Joa quÃŃn
presupuesta rio
artÃŃ culo
mati zÃ³
lide razgo
Bon et
Eusk adi
sÃ© p
dibu jos
combusti ble
ASA JA
Pac heco
divis as
oposi tor
exam in
consumi dores
satisfec ho
war d
requisi tos
embaj ador
consor cio
MuÃ±o z
bill ones
propieta rios
Nicara gua
Lor en
quir Ãºr
Administra ciones
siti o
centÃŃ metros
Defen sor
DÃŃ ez
Dele gaciÃ³n
Stre et
unani midad
lehen dakari
Estras burgo
Deuts che
Quaran ta
1 13
A dec
B AN
C F
C ari
D OS
E D
E i
E mili
F ER
F RU
F estival
G RA
H on
H as
K ra
M el
M AR
N ue
O b
O tro
P U
P RI
P ineda
R ica
R osa
S ue
S pe
T res
T anto
U A
W ol
X unta
a pre
a lar
a porta
a tribu
b ados
e b
e os
e gra
e cido
h t
h Ã³
h erra
i lu
j ales
m bo
r ent
t Ãºan
v esa
w ork
de volver
de uda
es pi
es pal
ci ras
ra zona
an g
in mue
in certi
re b
re to
re Ã±o
re cau
re accion
ad mi
ent rÃ³
IS TA
con me
con gres
con tribui
se t
se tenta
di ble
di ag
di misiÃ³n
di eran
co ber
is tro
ca b
ca tÃ³
ca bal
ca paz
ri co
ri tual
su ma
ma te
ma to
cu er
le ve
le jos
Ã± i
si ente
vi ven
bi lle
pro me
pro fun
po cas
po deres
des pa
des nu
pres taciÃ³n
esta bili
esta rÃŃa
fi cial
par cial
com pli
vo tar
pu si
per fec
em iso
ten ista
ac ho
ex en
ex posi
ex cel
ex ceso
ex cesi
am p
am arca
im portaciones
gu lo
pre ocup
Es lovaquia
ras a
qui zÃ¡
car do
mu s
mu ertos
lan za
au di
can tante
can tÃ¡brico
cos a
dis para
cer ra
cer rada
ob tenido
Co operaciÃ³n
presiden tes
gra tu
In dia
In fan
tin g
posi tivos
tri bun
ven der
fer rovi
mas cul
cal cula
lla mada
Mar cos
Al ba
Al cor
Al ge
Al cÃ¡
ag ente
ins pi
An tena
ab sur
men su
cons enti
comuni tario
esti lo
pla ya
RA L
plan tas
hab lÃ³
cto ra
ini ciado
De mo
tran si
TA U
14 0
reci bieron
expli caron
Fran ce
organi zar
CI O
ren dimiento
Ro mario
servi r
Man zan
vin os
ori enta
alg uno
Po li
fuer tes
Gu terres
trabaj ando
fran ja
IN TER
Cas tro
16 0
afir mar
trans mi
previs tos
dor ra
Cu ar
Cu ando
Cu erpo
Inter gubernamental
cum ple
hacer se
int za
san ciÃ³n
conce jales
Mon t
Mon ti
To ja
Tele visiÃ³n
Ra im
visi tar
segu ra
especial istas
his tori
vel Ã³
OL AR
compro misos
ei ra
publi cidad
depen de
depen dencias
resi den
ampli o
finan ciar
exis tentes
Ri cardo
depor tes
convo cada
insta lar
tÃ¡ culo
Universi tario
Pu tin
mal os
sor presa
Ãºs tico
alcan zado
alcan zaron
enfrenta miento
movi mientos
preten den
Pal o
siste mas
seÃ±a lar
Gran de
cuar enta
Minis tros
pob laciones
her manos
recha zo
obli gÃ³
dirigi Ã³
confir mado
confir maron
deli bera
solu cion
reco ger
Ho y
Ho tel
ala vesa
oficial mente
curri r
celeb rÃ³
vuel to
defen diÃ³
bene fici
inclui das
amena za
brasile Ã±os
aque lla
pis o
prote ger
provo cÃ³
provo cado
crÃŃ tica
tÃ©r minos
confli ctos
financi era
carbu ros
Depor tiva
comien zos
abo gados
glo b
Bi en
super fici
elegi r
Cel ta
recla ma
vic emin
extran jero
aquel las
refor zar
desarrolla do
vent u
nega tivo
Ur ban
confi anza
nove la
esco lares
lig era
Cal le
Er n
Er tza
Ve ga
argu menta
convi erte
Ter esa
asi lo
Mag dal
navar ro
PAR TI
XI X
enferme dades
His pano
reli gi
abor dar
tx e
conces ion
Cris tÃ³
entrena mientos
descono cen
dÃ©ci mo
norm alidad
acerca miento
LIB ANO
sim ple
Vir gen
nues tras
estr ella
acel era
clara mente
circuns tancia
pala bras
Bara k
Fis cal
fundamental mente
Fre eto
cÃ© u
olÃ³ gicas
indemni zaciÃ³n
Sor ia
empa te
queri do
He in
cobra r
atenta do
Flor encia
yugosla vo
insu lar
Guer rero
ajus te
Parlamenta ria
amistos o
musul manes
pÃ¡g ina
defien de
Castel lÃ³n
ision eros
Bro wn
Din amarca
demasi ado
silen cio
provisi onal
juven il
GOL PE
depÃ³si tos
cerem onia
Patr onato
Logro Ã±o
Empresari ales
Electo ral
Presu puestos
homosex uales
boli vi
CÃ¡r denas
legis laciÃ³n
centrocam pista
Supre mo
propÃ³si to
Resul tados
siniestra lidad
Adec co
Sue cia
herra mi
incerti du
cober tura
tribun ales
Alcor cÃ³n
Alge ciras
AlcÃ¡ zar
Ertza intza
Magdal ena
Freeto wn
A ca
A ce
A be
A cera
A gus
B ER
B RA
B CE
B ellas
C hec
C lin
D RA
G E
G er
G ana
H or
H asta
I Ã±a
J U
J ac
J aca
K i
L la
L Ã¡
L am
M U
N M
N Ãº
N UE
O tros
O PA
P M
P ON
R S
R an
S te
S AL
S port
S Ã³lo
T ho
T Ãºn
T RAN
U PA
V el
V ER
V inos
Z e
a un
a para
a vis
c adÃ¡
d rio
e do
e cua
g ari
g adas
g eri
l enta
m Ãºlti
n to
o ra
o cur
p los
p si
p ado
u k
v ÃŃas
de mi
de ce
de cre
de tener
de jado
en as
en ga
en dario
es cuela
es cuelas
ci entes
ci siÃ³n
ci tadas
on so
ta ble
ta miento
ta ller
er ro
er ten
el ka
ar gentina
un dos
as terio
in es
in volu
re y
re vi
re tenciÃ³n
re almente
ti das
ent ona
con tÃ³
con tenido
pr u
pr isioneros
di ff
di vul
ÃŃ fica
do tado
te or
pa to
pa tro
por Ã¡n
por tal
ca torce
to ca
su ceso
su peri
su pondrÃ¡
li co
li cos
le ctura
da ra
Ã± ar
ro m
tu almente
tra mo
tra du
tra mos
si mo
si guen
mo tivos
vi era
vi drio
bi os
bi eta
bi laterales
lo cu
no venta
po dÃŃa
po tencia
res pi
res cisiÃ³n
des cubri
des pliegue
dad or
me d
com pati
ui r
den es
ec h
vo z
pu dieron
pu zco
ba Ã±
ten siÃ³n
ac ta
ac ce
ex hi
ex porta
tor os
tor ÃŃa
man te
go ber
im pe
im prescin
gu ardia
La va
ce te
za ba
mÃ¡ ticos
tr Ã¡n
tes is
ali za
ali ados
pi dieron
min us
car tera
lu jo
cas cos
pos ee
mu ro
mu leta
can egra
cos tas
gan ado
presi dida
dis min
dis fru
lar ga
cer cana
cer tamen
ban dera
gra dos
cre ciente
ber to
ces e
zar o
Re g
ja zz
cal endario
lle van
lle vÃ³
fa ena
bli o
Al ta
Al far
Al onso
ins k
An na
An dorra
An elka
don antes
cios o
ab on
cono ce
Vi ento
cen a
produ cirÃ¡
menta rio
il son
ul fo
cor d
cor to
cla se
dio vis
ur bano
ini ciada
Mi rÃ³
Car diff
reg reso
Ju liÃ¡n
situ arse
reci be
reci nto
reuni rÃ¡n
bas a
CI OS
Ci rugÃŃa
servi rÃ¡
edi torial
Barcel Ã³
hec tÃ¡
nor este
AN A
via bilidad
fal si
Di versia
Sa ba
Lu c
Cu enca
vil los
leg ales
COM UN
recor dar
int entona
manif estaciones
secre taria
Can al
auto mÃ³vil
Mon ta
decla rado
compe tir
ge o
RE A
Ser gio
permi tan
prof unda
Ã³r denes
bal Ã³n
informa ciones
Bo canegra
total mente
OL LER
gui puzco
Ma til
dese a
escri tora
escri bir
ine ras
depen diente
ampli ar
ley es
preci so
Comuni dades
Au gusto
difer ente
asis tieron
asis tentes
destin adas
Ad ri
continu arÃ¡
afec tada
iz quier
condi cion
Ã¡r bitro
llegar Ã¡
expres ar
expres ado
at le
Pal mas
entren adores
perman ecer
ocas i
ocas ion
her mano
obli gado
obli gaciÃ³n
pel ÃŃcula
regu laciÃ³n
Ha i
coti zaciones
viol entos
Men di
empe zar
integra do
Du ran
colo caciÃ³n
correspon dientes
trasla dÃ³
Sin ga
inclui rÃ¡
gasol ineras
peti ciones
condu ctor
mexi canos
bara ja
quin ta
registra das
ID A
PÃºbli co
crÃŃ tico
ejecu tar
madri dista
avan ce
figu ran
figu ras
Mer ce
cola p
comba tir
indepen dencia
lleva ba
comis iones
ocurri Ã³
ocurri do
hotel es
falle ciÃ³
falle cido
Cel u
impul so
comprome tiÃ³
dedi cado
dedi cada
pros e
invi tado
fren ar
olÃŃmpi cos
simi lares
Fin anzas
funda menta
legisla tura
legisla dores
Pas cual
gri e
And rÃ©s
madrile Ã±a
Ib ex
sac ar
MEN TA
ore ja
For maciÃ³n
reli gios
dificul tad
domi cili
Domin i
pregun tas
Be tis
Cris tina
incen dio
inicial mente
iden tidad
alterna tivas
flo jos
gobern ante
Constitu cional
az u
ascen diÃ³
semi final
CaÃ± ete
discrimin aciÃ³n
concer tados
cata lan
Blan co
gana deros
Patri monio
Fon do
IP C
republi canos
TÃ©cni ca
habili taciÃ³n
restau raciÃ³n
decen as
estan cia
exclu si
Monte video
efica z
trayec toria
Cala horra
GRAN OLLER
evalu aciÃ³n
asturi ano
puntu alizÃ³
Pirine os
expul siÃ³n
Frances c
seleccion ador
conveni ente
aparca miento
guarda meta
Episco pal
Pol onia
fÃ³r mula
intensi ficar
prece dente
fortale cer
distri to
Parla ment
mic s
mecan ismos
mediterrÃ¡n ea
multina cional
reper cu
pabel lÃ³n
compen saciÃ³n
privati zaciÃ³n
fede raciones
Greg orio
acei te
gigan te
Corpo raciÃ³n
Ei bar
atribu yÃ³
espi ritual
exposi tores
Alba cete
histori ador
CristÃ³ bal
incertidu mbre
Acera lia
Clin ton
Jac ques
TÃºn ez
cadÃ¡ ver
gari ta
hectÃ¡ reas
Matil de
GRANOLLER S
1 30
A U
A ma
A mi
A lo
A ber
A gen
A ur
A US
A fgan
B ay
B Ã©l
C B
C C
C Ã³
C ali
C reo
D y
D ER
D is
D EN
E H
E ti
E mer
F BI
G or
G ER
G as
G Ã¡n
G ine
H Ã©
I ni
J O
J ER
L RE
M ol
M ES
N ar
N et
O re
O ri
O ferta
P eri
P IB
R ulfo
S S
S on
S ER
S pa
S im
T R
T on
T im
T RE
T RI
V o
V IS
V ia
V ol
V at
a je
a parte
a tre
b in
b esa
c entes
c lÃŃni
d ue
e za
e ve
g es
g ones
g rÃŃa
h ero
h arÃ¡n
i mo
i zar
i zaciones
j ada
l d
m c
m ÃŃas
m ÃŃn
m undi
m lin
n Ã³
n Ã³stico
o lo
p Ã³
p las
r s
r er
r Ã³n
r roga
r Ãºstico
s ado
s tro
s uel
s ki
t ni
v ÃŃs
v ando
v uelos
w a
y n
z er
z caÃŃ
z obispo
de si
en e
en i
en cargo
en viÃ³
la b
os ci
ci encia
ra k
ta ri
ta tivo
er va
or qu
el le
el io
al er
al te
al ma
al ine
al lÃ¡
ar go
ar tes
ar mon
ar zobispo
que darÃ¡
an Ã³n
un d
as on
in er
in to
in ce
in sul
re velÃ³
ti us
ent ro
con for
con qu
se ca
Ã¡ tico
co lon
co cina
co lum
do ctor
do lor
te o
te z
is las
por centa
ca tÃ¡
ca yeron
to tales
su la
su erte
li p
le ma
le che
le ves
da ba
da ciones
ro la
ro jo
ro bar
tu ro
tu ales
tra to
tra li
si on
mo les
vi Ã©tica
bi tra
no via
pro to
pro pone
pro movi
po bre
po ll
po esÃŃa
res cate
dad as
me mor
com arcas
El lo
em ble
em isiÃ³n
ten Ã³n
ten fal
ac tiva
ex ac
ex tin
man tenÃŃa
go le
im poner
du ras
uni ver
za ra
va ciones
Es co
pi loto
cion istas
car i
lu char
pos t
rec ho
mu riÃ³
ru p
au diovis
bo de
tan tos
ch Ã³
gan e
ll ero
presi dido
seg undos
parti dario
dis capaci
sus tra
ÃŃs ticos
est rec
cer raron
gra fÃŃa
Con sul
inter medi
inter rumpi
ju z
ne u
tras lado
qu ina
qu erÃŃa
titu lada
lla do
lla mar
lle t
acu saciones
Mar garita
espe c
prÃ³ rroga
San t
An tes
An gulo
ab as
CO AG
fir mar
cono cida
Vi go
Vi ctor
Vi vien
hi po
esti ma
Pa olo
10 4
Par tenÃ³n
equi libra
pri ma
fe deral
il lo
cor on
ano che
EN E
cul pa
hab laron
ur gente
ini ciar
ensa yo
Val ent
Ar sen
15 2
estu dia
teni endo
organi za
Li onel
nacional ista
AR IO
tori ano
Po der
op ÃŃa
nor mal
via j
via jar
ir se
Di os
Sa mani
hu mor
Ex po
Cas as
trans curso
previs iones
AL U
AL ES
ÃŃn sula
desta cados
fo mento
fo mentar
tali cio
partici pa
PS C
ara gonÃ©s
recor te
int elec
manif esta
san idad
conce dido
auto bÃºs
decla rar
denun ciado
Tele comunicaciones
cis ta
RE TI
Ser bia
permi ta
sal e
TI CO
alcal des
Cam argo
dÃ© cadas
espera ba
he im
Ma ta
solici tÃ³
escri tores
Am al
Am ore
Am onestaciÃ³n
vien en
finan ciado
bien es
Ri es
Ri co
Ri vera
convo car
convo cados
Per son
CE OE
incre mentÃ³
pedi rÃ¡
autori dad
Hu mani
Hu manos
Hu gh
deber ÃŃan
recono cido
aca bÃ³
pren das
favor ecer
Mu jer
conta minaciÃ³n
jus to
llevar on
nar co
participar Ã¡
bor rador
Ru ral
perman ec
perman encia
norte americano
conven ios
obli gar
agra rias
rÃ© cord
aso ciados
manda to
ejer cer
Com Ãºn
afi an
coin fec
gol pes
Ho on
Men Ã©ndez
sÃ¡ til
inf antil
truc ciones
DI A
conclu siÃ³n
Cons trucciÃ³n
trasla dado
trasla dados
MI EN
modi ficaciones
ko vic
inclui da
conden ados
Organ izaciones
Pan americanos
mag n
NA VAR
vio laciÃ³n
popu laridad
registra ron
pis os
inten a
provo car
terri torios
natura les
Pau l
Fer ro
avan zÃ³
Ciudad ana
Rod ri
tecno logÃŃa
valo raciÃ³n
respec tivas
competi ciones
hen ia
andalu zas
universi dades
Angel es
inmi graciÃ³n
hotel eros
novi cias
contem plar
col mo
peque Ã±a
auton omÃŃa
reno vaciÃ³n
cÃ¡n cer
aspe cto
pros titu
desarrolla rÃ¡
experi encias
197 9
derro ta
derro tar
autÃ³no mo
fotogra fÃŃas
PI DE
ubi cado
refi ere
capi talizaciÃ³n
sani taria
sani tarios
democrÃ¡ tico
democrÃ¡ ticas
Fin almente
UL TI
victor ias
argu mento
consigui ente
proces ados
Res erva
ami go
art ÃŃstica
toma te
pasa jeros
His toria
ejem pla
mode los
mode rados
Estu dios
quer emos
pati zantes
Tel esp
iden ti
infra estructuras
valenci an
norm ales
magistra dos
alterna tiva
GI L
flo jo
sim patizantes
suscri to
consis torio
Cai ro
fronteri za
cro ata
semi finales
peru ana
acel erar
vÃ¡ lidos
compon entes
discrimin a
sindi cales
especta dores
testi gos
gÃ¼ edad
motiv Ã³
senti mental
extraordin ario
Eusk al
Ibar ra
poni endo
chiÃŃ tas
================================ ================
combusti bles
Esto colmo
equival entes
regres ar
favori to
plantea mientos
arqui tecto
previ amente
exigi r
Isa bel
prac ti
contu siones
pier na
tarje tas
verda dera
marroquÃŃ es
ELEC CIONES
perspec tiva
Caball ero
CP LRE
dol fo
llama miento
profeso rado
circu laciÃ³n
Ray o
bec as
disminu ciÃ³n
hospi tales
asesin ado
enmien da
Afri ca
Ameri canos
Gre cia
Kre mlin
alban eses
hidro carburos
rodi lla
mobili ario
Est recho
musi cal
Profesi onal
Egi pto
arras tra
presen ciar
plani ficaciÃ³n
manifi esto
elimina toria
Ferre ira
ai re
confer encias
Loren zo
Emili o
Nue vo
diag nÃ³stico
profun di
emiso ra
gratu i
mascul ino
Raim undo
glob alizaciÃ³n
superfici e
vicemin istro
concesion aria
Agus tÃŃn
Chec henia
LÃ¡ zaro
patro cin
ocasi onal
azu les
Aber chan
Aur elio
Afgan istÃ¡n
BÃ©l gica
Eti opÃŃa
GÃ¡n dara
Gine bra
HÃ© ctor
Ore ja
Vat tenfal
hero ÃŃna
memor ia
Arsen al
Amore bieta
Vattenfal l
3 40
A Z
A gru
A pari
B la
B EL
B AL
C M
C han
C CION
D an
D esta
D OLAR
E liÃ¡n
F AR
F acultad
H ER
H ay
H emos
I R
I m
I CION
I rak
J ara
J NE
K al
L V
L lo
M is
M ana
M AN
M oro
M ST
M insk
N UR
O ro
O RA
P hi
P reg
S ar
S por
S her
S lobo
T V
T es
T arra
V as
V AS
V OL
Z AN
a ma
a bre
a parec
c ros
c tivos
d ral
e Ã³
e vento
f as
f actu
f recu
f undaciÃ³n
g Ã©
g ona
g esto
h eli
i les
i das
i dio
j ana
l los
m adores
n is
o d
p sÃŃ
r eros
s mann
t se
u x
u tÃŃ
v ÃŃo
x e
y os
z u
de ras
de terior
de mostrÃ³
en ses
es cla
la c
la rÃ¡
la dor
ci dio
ci cl
ci erta
ci rugÃŃa
ta ra
el os
al erta
ar les
ar ena
ar mada
ar bitra
PER S
que dan
un tado
un daria
in venta
in capacidad
in compati
re tro
re baja
re bajas
re henes
ad u
LO R
ti era
ent ra
con tado
con cur
se cun
di men
di cciÃ³n
Ã¡ tri
co he
co ches
co raje
is to
ca i
ca pa
ca ja
to xi
to rado
su man
su ministra
su fre
cu i
cu ali
cu ban
Ã© ramos
Ã© tni
da m
da mos
Ã± Ã³n
ro mÃ¡n
tra uma
si erra
si mul
si quiera
mo vil
vi ar
vi ca
vi dad
vi Ã±e
vi zcaÃŃ
no vaciÃ³n
des trui
pres tar
so b
so por
par Ã³
par ro
com puesto
com patrio
vo taron
per tin
ba te
ran a
ran za
ten drÃŃa
ac h
ac os
ac re
ac tivas
ac cidentes
Ã¡n do
Ã¡n imo
ex ter
ex plos
man as
man cia
man tes
im pide
ce utÃŃ
ni c
tr in
Es qu
pi a
pi es
pi Ã©s
min a
qui e
qui o
car ga
car denal
sa be
cas so
cas tellano
ser bia
ver dad
ver na
rec er
mu r
lan zÃ³
ru sos
au tÃ³
au mentÃ³
can ta
can je
gi ar
gi tal
ch er
ll en
presi on
fu tura
dis curso
cer e
19 80
Co le
Co lon
En e
En desa
ban ia
cÃ³ p
Ã©n dose
ele vado
Con ver
inter nos
inter cambio
inter locu
ju dica
ne to
ne gro
mos o
tri ple
ven ido
Re volucion
titu lados
acu sa
acu dieron
infor mÃ¡tico
Mar ia
Mar ÃŃn
San tos
Al bania
An to
mer can
ab les
fir mÃ³
rar Ã¡n
pen i
pen al
pen dientes
pen insular
Vi ana
Vi ena
esti mÃ³
Uni Ã³
fec has
ase o
direc ta
il y
ul ti
cor do
Na cionales
indi can
cul tiv
ope rar
ini ciarÃ¡
Ca jal
deci dir
alu siÃ³n
consi gue
Mi x
Car les
Ju rado
mili cia
14 8
15 1
vas cas
bas tante
teni ente
organi zadas
labo ra
Li tera
eri tre
Le g
tel smann
Ci encia
sig los
sig nos
Man i
Po co
hec ha
op tado
nor oeste
mon i
mon u
mon ios
conse jeros
reali zan
sen o
fran ca
fran qu
apro pi
IN M
anun ciaron
lib eral
afir man
200 6
trans fer
AL TA
leg alidad
nego ci
nego cia
tiem pos
cum plan
gue t
apo ya
Cor rales
sur real
conce de
vesti r
Mon c
Mon tero
denun cias
inte gran
necesi tan
haber se
comi tÃ©s
visi tas
visi tÃ³
visi tarÃ¡
anti cip
anti gÃ¼edad
permi ten
permi tir
estable ciÃ³
Bra sile
sal va
Su per
comen zarÃ¡n
medio dÃŃa
Cam pe
bal oncesto
inver tirÃ¡
Fu ente
AC B
AC ER
AC NUR
RI L
fra ctura
ciden cias
Luis a
termin ado
Gen erales
jui cios
tele fÃ³nica
tele fÃ³n
inclu yÃ³
resi duos
depor tivas
Au tori
OR ES
difer encias
Extre me
cole gi
destin ada
Hu guet
afec tar
dele gados
dele gaciones
recono cer
funcion a
funcion ar
ordin ario
cali ficaciÃ³n
cali ficado
favor e
Mu rillo
ases ores
conta min
encontra ban
encontra ron
Pi casso
mejo ras
expres a
Bu da
enfrenta rÃ¡
programa ciÃ³n
tec tura
Do w
redu cido
norte americana
CON TRA
considera das
afi ciÃ³n
afi li
confir mar
VI L
utili zaciÃ³n
cate drÃ¡
garan tÃŃas
abier tas
recibi rÃ¡
subra ya
prepara do
conver tirse
Tor res
caus Ã³
ocup ado
ocup antes
mexi cana
Bru mas
inten ciones
electo rales
lon gi
intenta do
bur sÃ¡til
fuerte mente
bom ba
garanti za
avan zar
concent raciones
Ber telsmann
anali za
anali zarÃ¡n
comba tes
realizar Ã¡n
transpor tes
coinci diÃ³
acompaÃ± ado
andalu ces
conci encia
universi tario
consecu encias
aus trali
Bi ll
ning uno
Aleman y
clasi ficado
cuad ro
Villa franca
sustitu ciÃ³n
efectu ar
Za pa
alo ja
nombra mientos
Ãºnica mente
elimin aciÃ³n
impul s
denomin ada
finali zÃ³
individu o
adelan tÃ³
Pla ta
peli gros
nove las
nove dad
Ben ito
gre o
demostra r
capi Ã©
capi tales
Ala in
interes ante
legisla tiva
gin ia
argu mentos
Valle jo
histÃ³ri ca
galar dones
despla zados
navar ra
OlÃŃmpi co
Sec undaria
enla ce
interven ciones
Pos ible
agres iones
separa ciÃ³n
cami Ã³n
balan za
aero puertos
infra estructura
diplo mÃ¡tico
pers is
valenci ana
John son
bloque o
cic leta
some ter
gobern ador
Vir ginia
vincu lados
BN G
Jer us
Derec hos
EM P
chil eno
Industri ales
movili zaciones
UD C
cap tar
cata lana
sir ve
presupuesta ria
Pen al
inti mida
discip lina
varia ble
extraordin aria
Eu genio
acadÃ© mico
Espe ranza
rÃ¡pi da
rÃ¡pi damente
bancar ias
experimenta do
chubas co
Gala verna
Medi terrÃ¡n
bÃ¡ sicos
jurÃŃ dico
cine mato
extreme Ã±o
Hel guera
supri mir
Geor ge
Lan greo
agen da
bÃºs queda
ima gen
retra so
tarje ta
estratÃ© gica
precipi taciones
acoger Ã¡
perspec tivas
reivindi caciones
Sta nic
deb ÃŃa
progres i
humani taria
energÃ© ticos
farma cÃ©u
230500 18
hin capiÃ©
defici encias
propor cion
despi do
lluvi as
liqui daciÃ³n
tormentos o
austri aco
Comis arÃŃa
Balles ter
recuer da
William s
Agra rias
GAS OL
enor me
prÃ©sta mos
cercan ÃŃas
subsi dios
ÃŃti mos
canadi ense
Juvent ud
ESPAÃĳ A
encabe za
sÃ©p tima
quirÃºr gica
espal da
inmue ble
cab ezas
bille tes
pusi eron
excel ente
Infan ta
Manzan ero
delibera ciones
Fiscal ÃŃa
Hein z
herrami entas
Ran gel
Vel Ã¡zquez
mÃºlti ples
Lava piÃ©s
Mendi eta
Singa pur
Celu lar
porcenta je
NAVAR RA
ejempla res
ocasional mente
Apari cio
Preg untado
Slobo dan
Tes oro
Tarra gona
heli cÃ³p
psÃŃ qui
cohe tes
toxi cÃ³
interlocu tor
A de
A gui
A bon
A dolfo
B re
B ac
C es
C ri
C le
C lÃŃni
C NM
D H
D U
D am
D ia
E T
E co
F O
F ue
F as
F enos
F RAN
H aban
I C
I bi
I VA
J on
J UN
K e
L AS
L ino
L arre
M ER
M PE
N OS
O n
O cho
O sas
O ficial
P F
Q ue
R he
S h
S ui
T ar
T ay
T erri
U CE
V u
V era
X XI
Y A
a pa
a hÃŃ
b Ã³n
b ona
b eral
c r
c ÃŃan
c Ã¡l
f ch
f fon
g am
g entes
g Ã©n
i se
i ficaciÃ³n
i Ã¡s
j im
k s
l m
m y
m Ã©ri
n y
n ado
p ada
p tista
r ele
s ales
s ÃŃn
s enten
t ta
t Ã©n
u is
v uelo
w w
z Ã³n
de pu
de posi
de cano
de biÃ³
en ciales
en tiende
es encial
ci ca
ra o
on g
on mano
ta reas
er Ã³
er no
or gu
ER O
al co
al do
al im
al Ã©n
ar mados
PER U
an es
an ÃŃa
an der
in cu
in seguridad
in meta
re ra
re par
re fuer
re construcciÃ³n
re fren
re integraciÃ³n
re mate
ad s
ad vi
ti zaciÃ³n
con figu
con texto
di aria
di fusiÃ³n
di chas
Ã¡ u
ÃŃ do
co bre
do ra
te gra
te oro
del l
del incu
pa u
pa isa
pa dece
ca jas
ca lante
to maron
ri val
su ble
su pon
su ces
su fra
su puso
su ponen
ma tin
li za
cu Ã¡l
mi do
mi taciÃ³n
le la
le ctores
Ã© is
Ã© li
Ã© valo
da Ã±o
Ã± ol
ro t
ro mpi
ro tativo
tra fi
tra zado
si ma
si enten
vi al
vi miento
bi da
bi blio
para guay
po la
po damos
pe tra
des ma
des tro
des cubier
des estabili
Ãº car
ho lan
ho mÃ³
so be
so viÃ©tica
esta d
fi cada
fi jÃ³
me cÃ¡n
par quÃ©
com pi
com unes
ui en
El ena
pu dieran
per dieron
per tene
per noc
per petra
ran de
ran go
ran ual
em ana
em bajada
ten d
ten is
ex posiciones
ex cep
ex pondrÃ¡
RN E
FE NI
am or
am ista
im porta
im posible
pre fi
ni tratos
va ya
ali as
ali zada
Es calante
qui llo
qui eran
ga ta
car ece
lu ciones
lu ch
ser bios
bre ve
rec tor
lan tes
ru s
ru ral
ru mano
au tas
au mente
au diencia
au tÃ©n
can as
na cido
na mics
bo za
bo ur
cos o
cos to
mar cÃ³
mar cador
Ã©s tas
entre gado
entre garon
fu r
dis on
dis pon
dis cre
dis tancia
ve za
ve inti
lar Ã¡n
cer rado
cer veza
ob el
19 86
19 83
Co ll
ban k
ele var
Con su
inter cep
ona miento
In f
ven de
gen a
ari amente
tras paso
Re don
Re forma
Re uniÃ³n
bu l
bu enos
bra l
ja p
ja la
ja yun
Se Ã±
titu lado
lla mado
lle gan
Mar tini
Mar jayun
gar Ã¡n
espe rado
nue vamente
fa ma
Al g
Al fre
ins cri
ins trucciÃ³n
ins trucciones
An ne
An nan
mer s
ab soluciÃ³n
fr ÃŃa
Vi la
Vi ta
Vi cerrec
hi ci
199 3
teri os
comuni taria
us s
us ta
cen i
bar co
bar ri
Par do
il las
EN TA
plan a
plan taciones
Por t
ple ados
elec tos
ini ones
Ca fÃ©
Bar boza
gas o
Mi la
Mi eres
Mi quel
Car ro
Val e
mili tantes
respon de
respon diÃ³
Ar qui
Ar Ã©valo
situ adas
situ aciones
reci entes
reci ben
So m
So ge
So lana
cam peones
mani pu
Li bera
Li bro
Li beral
Le o
Le desma
Ci poll
seÃ± al
Ro ca
Ro ig
Ro land
asegu raron
13 5
edi cto
representa da
tem or
Man zano
ori dad
alg uien
op es
op ta
op iniones
fal los
fun dador
bol sas
Di gital
Sa ma
Sa porta
social demÃ³crata
encu esta
terior mente
trabaj ado
Ex tran
Ex plicÃ³
fran co
compaÃ± ero
18 0
EL N
anun cia
Cas tellano
Lu go
MÃ© dicos
Ch arles
regi r
regi dor
previs ible
contin Ãºan
AL I
Cu atre
desta car
cum pla
ara y
responsa bili
eta ria
resul tar
int entÃ³
abri rÃ¡
vol cÃ¡n
conce jala
baj aron
auto mati
auto movil
Mon toro
inte ranual
jug Ã³
cis mo
Ser na
Me dina
nÃº meros
venta na
domin i
tur no
tur nos
inver tido
Fu jim
Anton i
investi ga
Ã¡c tea
Min as
termin ar
solici tarÃ¡
bel ga
Am or
Am bos
Am Ã©ri
inclu yen
inclu yendo
propi os
gal l
deba tir
deba tirÃ¡
preci sa
estudi arÃ¡
estudi antil
convo cadas
contro lar
opera tivos
Gar ros
difer encial
asis tiÃ³
asis tir
cole ga
pedi dos
autori zaciÃ³n
Ad dis
afec tado
provin ciales
Ban comer
conta ba
villa no
llevar se
mal estar
encontra do
alcan zÃ³
comple to
comple tar
comple menta
Bu ffon
prÃ³xima mente
Pal encia
igu almente
vie ran
Gran des
parta mentos
Ru ano
perman ece
pin tura
desa pare
recha zar
recha zada
agra de
apli cado
ig no
ig ht
CON O
recupe rarse
ejer ce
lÃ³ gicas
Ha ya
VI H
utili za
garan tÃŃa
inf l
trÃ¡ mite
Navar ro
integra l
LE ONA
Ara bia
trasla daron
neces arios
inaugu rÃ³
rei te
conver tido
esca lada
modi fi
constitu ciÃ³n
constitu yen
ko m
inclui dos
At lan
VA LOR
encar gada
sex ta
caÃŃ do
vio lar
britÃ¡n icos
reso luciones
Bru to
pis to
sÃŃ mbo
acep tÃ³
Ba ptista
colec tiva
clas es
Gui rao
desem pleados
obser vaciÃ³n
obs tÃ¡culos
comien za
coinci de
respec tivos
universi taria
ofrec en
SI ERRA
ingres ado
ocurri eron
super Ã³
super vis
impli ca
impli car
clasi fica
cuad ros
Villa l
Qu ince
peque Ã±os
Za plana
apar i
nombra do
fort un
comprome tieron
consul ta
dedi car
Astu ri
inmedia tamente
descar tÃ³
197 4
tomar Ã¡
Ali cante
Ben i
Den ilson
olÃŃmpi ca
Cla ra
patr onato
cÃ¡ mara
aspi rante
aspi rantes
convi vencia
Valle cano
TU RA
Ter uel
galar don
meri cano
educa tivos
PAR LA
Sec ciÃ³n
acumu laciÃ³n
anu almente
asu mir
detal le
tifi cada
contribu tivas
cami se
estatu tos
bon os
conclui da
diplo mÃ¡ticas
land Ã©s
Che ca
otor ga
Air bus
Nu mancia
estr ellas
interpre taciÃ³n
Feli ciano
biÃ³ ticos
chil ena
venez o
envi ado
elÃ©ctri cas
precis amente
pie za
gesti ones
sui zo
aumenta ndo
priori dad
priori dades
Joa o
artÃŃ culos
consta tÃ³
varia ciones
TÃ©cni cos
indemni zaciones
acadÃ© mica
Espe cial
demÃ³cra tas
Ol mo
discu siÃ³n
denunci ante
favori tos
fÃ¡bri cas
Ce la
Hern Ã¡n
dej aron
feli z
feli ci
colabo rar
colabo radores
suce de
previ as
corre dor
asumi Ã³
Os car
ner vi
radi cales
presunta mente
produc tividad
Petro bras
Pirine o
ahor ro
hal la
injus tamente
nie bla
Indi cÃ³
cristi anos
arti cu
retras os
Ã¡ra be
tranqui lidad
Produ cto
Zamora no
secuestra dos
salu dÃ³
arma mento
limpi eza
opti mismo
opti mista
independen tista
BS CH
acon tecimiento
mix ta
Labo rales
vence dor
Anti biÃ³ticos
barcel onista
organiz ador
Progra ma
disciplin as
paname Ã±a
Sau dÃŃ
err ores
arri ba
Informa tivos
ministeri al
erradi caciÃ³n
Chris ti
clÃ¡usu las
Cer vantes
ETI OP
Hur tado
etÃŃ opes
cuo ta
presti gio
ficha je
amari llo
trÃ³n ico
mues tras
correc ta
Cari be
Mel bour
Spe ight
alar ma
catÃ³ lica
despa cho
lanza miento
consenti miento
Demo crÃ¡
transi ciÃ³n
Urban ismo
bolivi ano
Aca demi
Abe ba
IÃ±a ki
ocur re
imprescin dible
atle tas
Merce des
fundamenta les
cadÃ¡ver es
Alo mar
Dy namics
mundi ales
lab ores
exac tamente
Esco lar
Vivien da
coinfec ciÃ³n
================================================ ========
Spor ting
aparec en
viÃ±e dos
pertin entes
Conver gencia
Leg isla
Mani la
catedrÃ¡ tico
Jerus alÃ©n
Agui lar
Abon ados
CNM V
Dam asco
Fas sa
Fenos a
Ibi za
Larre ina
Osas una
Rhe inmeta
Sui za
teoro logÃŃa
sobe ran
FENI L
Alfre do
Soge cable
Libera ciÃ³n
Cipoll ini
Cuatre casas
Fujim ori
AmÃ©ri cas
sÃŃmbo lo
Melbour ne
Academi a
Rheinmeta ll
1 14
1 12
4 50
7 30
A b
A da
A pe
A ya
A bier
A RA
A bel
A VE
B O
B RE
B ID
C Z
C ay
C ambi
C RI
C ep
D ra
D al
D em
E O
E ta
E man
E ver
E jecu
E txe
F r
F erra
F UT
F raga
G an
G eta
G UN
G estiÃ³n
G RES
H un
H ol
H ab
I gu
I van
I AC
J au
K A
M ON
N ico
N adal
N obel
O PE
O riente
P D
P ra
P IS
P ES
P TA
P reci
P imenta
R ac
S to
S ha
S OL
S amp
T S
T ro
T ex
T au
T IN
T EL
T ara
V la
W i
X V
X II
Y u
Z Ãº
Z oto
a f
a go
a gu
a pren
a fri
a isla
a portaciones
a trÃ¡s
a ciertos
a vu
b ero
c le
c Ãºn
c Ã©n
c tivo
c tiva
d arios
e y
e mo
e des
e tas
e cimiento
e jÃ©rcito
f en
f la
f os
f am
f acul
g l
g ales
g amos
h ur
i ano
i rÃ¡n
i ficar
i mag
k in
k io
k istÃ¡n
l s
l Ã¡ctea
m mers
n am
o m
o ca
o ch
r elo
r culo
s so
s ados
s acer
t ch
v em
v Ã©n
v ana
w agen
w eb
x eo
y i
z i
z alo
de co
de fec
de dores
de voluciÃ³n
de valu
en con
en io
en marca
es Ã³
es con
es cas
es cal
es cru
la miento
os t
os os
os cense
ci ller
on Ã©s
ta no
ta na
ta leza
er s
er se
er tor
er ia
er ne
Ã³ men
ue ga
ER IT
al de
al mor
al zarse
al dea
ar res
ar ran
as al
as fi
in tra
in muni
in cidente
in estabilidad
re pres
re don
re mon
re mitiÃ³
re queri
ad vir
ti mo
ti les
ti rÃŃa
ti onal
ti erras
con ec
con tene
se ra
se mbra
pr or
di mi
di go
di ces
di cen
di ariamente
Ã¡ bi
ÃŃ es
ÃŃ dos
do te
te d
te cciÃ³n
del lo
ca o
to ral
su da
su mar
su ple
su puestos
su presiÃ³n
li ci
li dera
cu rios
mi len
mi edo
le al
le ti
le ales
Ã© tico
Ã± ido
ro de
tu ja
ha ch
tra er
tra tado
si rio
mo d
mo to
mo da
mo des
vi ra
vi das
vi ve
vi esa
bi das
no villos
pro ve
pro vis
para dos
para lizaciÃ³n
para lela
pe dÃŃa
res tantes
des ple
des cri
des plaza
des centra
des favore
Ãº o
ho landÃ©s
so lar
so ciÃ³
fi estas
fi anza
me la
par sor
com puesta
com partir
com ponen
ui g
El ber
vo le
pu ente
pu zano
ba la
ran cia
ran ch
em pla
ten or
ten siones
ac e
ac oso
ac larÃ³
ex ce
tor ga
tor siÃ³n
tor eo
im puso
im provis
du cto
du ctores
La ur
La mela
ce Ã±ido
pre ocupa
les iÃ¡s
ni Ã±o
ali ty
for m
for mÃ³
Es par
pi l
pi en
pi rena
min ente
tar ri
tar lo
ga la
ga ma
cion ero
car dio
car gas
lu co
cas co
cas tren
ser i
mu er
mu las
mu tu
lan destin
au l
au ri
paÃ± ÃŃa
na cionalidad
tan ques
ch al
ch ado
ch inos
gan adora
ll y
ll erÃŃa
presi de
ia t
mar i
mar ia
mar cada
fu madores
dis poner
dis ponen
ve cin
ve intena
lar se
est recha
est one
ob tenidos
19 85
Co ordin
Co lin
En seÃ±anza
En tidades
pas ando
pas tel
mis tas
gra bados
cre ciÃ³
je ras
vis a
Con ce
Con sor
Con chi
inter profesional
ju ris
ju gando
ona t
mill on
In dice
In cidencias
ne gado
tin tos
tri ces
gen o
Re d
Re co
contra di
bra zo
tien das
fer os
qu Ã©s
cal ma
cal cu
titu la
lla mados
lle gue
acu diÃ³
infor marÃ¡
gar o
mÃ³ du
San til
Al tos
Al merÃŃa
ag ricultura
ag rande
An uk
ab in
men cion
CO L
pen ÃŃnsula
cent rales
Vi d
Vi eri
pese ta
cons iste
hi ja
ES A
esti pu
Pa co
Pa is
mes tra
10 8
var es
Par que
Par ti
val le
equi para
equi vo
pri va
cor regir
person almente
person alidades
==== =
Na val
indi o
ton ia
Bar ros
ON CE
maÃ± o
Mi li
Mi cros
Car tuja
reg la
reg lamenta
reg lamento
tran do
respon den
Ar ro
Ar tur
Ar turo
14 5
14 7
reci Ã©n
Fran k
reuni eron
bas ado
So lid
So tron
mani fiesta
nu bes
CI D
Li gas
ren ce
Ro mÃ¡n
cho que
cho ques
servi rÃ¡n
As torga
Man ceÃ±ido
Po lo
AN TER
via jÃ³
fal lÃ³
mon d
reali zaron
Di ario
celebra rse
IN TEN
anun ciar
Cas cos
Cas agrande
pod ÃŃan
afir mado
segui miento
dor m
obje tos
contin ental
ÃŃn dices
Cu atro
mad u
gue ras
responsa bilidades
eta pas
of t
resul ta
dan za
manif estar
Cor bella
vol ta
san cion
san eamiento
secre tarÃŃa
ambi entales
pes o
conce jo
conce didos
Can cÃºn
Si empre
Mon tes
Mon etario
To do
denun ciar
Tele kom
Tele visa
jug ados
24 0
24 5
segu ros
especial ista
Lo uis
cis tas
Me teorologÃŃa
his pan
Ã±os as
estable zca
sal Ã³n
sal to
sal vo
Su mmers
TI L
TI CIAS
Cam p
Cam puzano
tur co
inver tir
informa tiva
informa tivas
dÃ© bil
Bo m
Bo ada
dispu tan
dispu tÃ³
AC U
Ma tt
fra g
fra ude
dese qui
publi car
gua tem
depen dencia
depen dientes
propi as
resi de
deba tes
Comuni caciones
Ri bera
UN I
UN ED
opera tivo
opera tiva
opera dor
opera rios
Per pi
sub venciÃ³n
sub comisiÃ³n
asis ten
destin arÃ¡
insta lado
Mo rales
Mo llet
dele gada
Em bajada
Ã¡r ra
Este ve
ases ora
Pu ente
sor teo
encontra rse
Pi e
Pi er
expres ada
posible mente
Gon zalo
movi lidad
plante Ã³
plante ar
proce dente
TE C
seÃ±a lan
carre ras
carre teras
plen amente
genera r
her encia
recha zado
conven cido
Ã©ri co
agra deci
exper to
CON S
CON SE
CON GRES
Com paÃ±ÃŃa
poner se
dirigi das
lin os
utili dad
coti zan
cate dral
presu puestos
ala ves
fÃŃ sica
fÃŃ sicas
Men acho
LE TICO
conclu ye
conclu yeron
trasla dar
inaugu ra
conver tir
esca par
NO TICIAS
defen sas
defini do
inclui r
conden Ã³
IB AR
Tor re
amena zado
Cata lana
brasile Ã±as
ocup Ã³
Sal Ã³n
caÃŃ das
vio laciones
terri torial
RAN TES
madri distas
determin ante
Ã¡l dez
liber tades
garanti zada
avan ces
avan zado
pl ena
mater nidad
Ti p
Ti gres
concre tamente
cola ri
carbu rante
obser vador
obser vaciones
Comi tÃ©s
valo rar
apun tan
apun taron
acor dÃ³
econÃ³mica mente
coinci diendo
Fo x
adop tada
adop tarÃ¡
competi tividad
acompaÃ± Ã³
acompaÃ± ada
conci ertos
consecu ciÃ³n
Bal za
atra ves
atra viesa
Pri eto
cuesti on
comis arÃŃa
fru tos
portugu eses
itali anos
falle cidos
Empres as
recla mÃ³
sustitu ye
esperan do
efectu Ã³
promo tor
extran jera
Alber t
campe ona
sue le
yen es
Tur quÃŃa
denomin aciÃ³n
inmedia ta
nega tivos
especi e
especi es
individu os
Pla taforma
invi taciÃ³n
papel es
construi do
Cla ude
UL AR
Ã³s ticos
refer ido
supe ra
consigui eron
regula dor
estructura les
TU R
art ÃŃsticas
REN FE
pasa por
interven ir
colombi ana
GU RA
Pos teriormente
ileg ales
reli eve
Mos sos
Mos coso
PN C
mode rado
sala ri
quer ellas
aprobar on
pregun tado
pati o
descono ce
comparec encias
conclui rÃ¡
bil ba
obis pos
consen su
valenci ano
alterna tivos
Ko eh
entrevis tarse
Nu estra
mue ve
cont un
cont ento
Ã¡mbi tos
peru ano
peru anos
Regi Ã³n
petrole ra
CaÃ± ellas
CaÃ± izar
Far land
arra i
levan tar
especta cular
movili zaciÃ³n
Bara jas
Ne w
Ne ws
Blan c
Ecu ality
gesti ona
exten siÃ³n
gana derÃŃa
Patri ck
SV K
republi cano
diseÃ± o
motiv ado
encabez ados
Bon o
FIN AL
Pue bla
km s
consoli dar
conjunta mente
divi den
investig ador
rati ficÃ³
paque tes
equival ente
renun cia
Hern Ã¡ndez
apos tÃ³
formu lar
sab ÃŃa
Mc Farland
efica cia
sola mente
compara ciÃ³n
distribui r
AT LETICO
gr Ãºa
remi tido
producir se
Parlamenta rio
Petro va
Bern Ã¡ldez
ahor ros
sensa ciÃ³n
sensa tez
reda cciÃ³n
fij adas
Frances co
circu ito
incrementa do
aparca mientos
energÃ© tico
Ray mond
dicta men
matri monio
impu tados
aÃ±adi eron
desarrollan do
Produ cciÃ³n
subven ciones
experim ental
tormentos os
mane jo
adap taciÃ³n
Balles teros
independen tistas
Gri Ã±Ã³n
LI FE
Va quero
acon te
octa va
cuan tas
Labo ral
organiz adores
sospe ch
guir re
caracteri za
Dar oca
Ji am
Ron da
debu t
revis ar
equipa mientos
Carlo ta
transformado ras
coinciden cia
Ed ward
FREN TE
Oc cidente
pacÃŃ fica
emis iones
acha cÃ³
Carm ona
Secre tarÃŃa
adquiri r
Defensor ÃŃa
Hon duras
contribui r
cerra se
inspi raciÃ³n
Ern esto
acelera da
ecua toriano
involu cra
teor ÃŃa
superi ores
Reg lamento
Saba dell
profunda mente
izquier do
catalan es
exclusi vamente
Net work
Via gra
Vol ks
vÃŃs pera
colum na
extin ciÃ³n
univer sal
bode gas
abas tecimiento
Samani ego
intelec tuales
RETI RA
Ries gos
MIEN TOS
Rodri go
Kal parsor
Phi lip
VOL U
factu raciÃ³n
nis tÃŃa
PERS ONAS
incompati bles
romÃ¡n ico
sierra le
simul tÃ¡n
parro qui
acre di
Revolucion ario
Litera tura
monu mento
anticip ada
longi tud
MediterrÃ¡n eo
toxicÃ³ manos
Cle mente
Haban a
mÃ©ri tos
alim entos
refuer zo
suble vaciÃ³n
matin ales
Consu mo
Redon do
jap onesa
Alg unos
Sama ranch
domini cano
infl ui
ETIOP IA
soberan ÃŃa
Ape laciones
Aya la
CZ E
Cep sa
Eta pa
Ever est
Fr ente
Geta fe
Rac an
Tro pas
Zoto luco
avu tar
fen Ã³men
fam oso
imag in
och enta
vem ente
ertor rique
ERIT REA
inmuni dad
descentra lizaciÃ³n
sociÃ³ logo
Consor cio
Santil lana
Micros oft
Solid aridad
Sotron dio
hispan ista
asesora miento
Koeh ler
CaÃ±izar es
Volks wagen
Kalparsor o
fenÃ³men o
1 25
1 18
3 50
3 28
3 35
3 80
4 10
5 70
7 12
9 22
A du
A na
A bo
A cciÃ³n
A DE
A eros
A venida
A ENA
A guirre
B adal
B rent
C in
C is
C las
C ro
C ur
C Ãºper
D ec
D ja
D eno
D entro
D ALU
E char
E CONO
F T
F la
F ra
F una
F ru
F ir
F rei
F ID
G ro
G ale
G rasa
H ar
H am
H ing
I si
I ru
I ber
I ES
I tur
I VI
J un
J unto
J onat
K en
K AL
L Ã©
L ac
L orca
M Ãº
M ori
M endo
M OS
M exi
N uevas
O O
O ce
O tero
P H
P RA
P ing
P aseo
R esta
R ena
S W
S ales
S indi
S UE
S OS
S indica
S emana
T al
T ON
T PI
U dal
U FP
V O
V ÃŃa
V ES
Y ong
Z AR
a pel
a parece
a venida
b ran
b rÃŃa
b ron
c ad
c tas
c lar
c emos
c landestin
d Ã¡
d antes
e as
e ciÃ³
e mociÃ³n
e labor
e vent
f p
f t
f v
f res
f ases
f actos
g n
g los
g Ã¡n
g adi
g nan
h ada
h emb
h ry
h esiÃ³n
h Ã¡bi
i ban
j m
j la
j Ã¡
j ante
k as
k oso
k eni
l is
l ero
l ing
m t
m Ã³n
m uno
n es
n ell
o a
o jos
o ponen
p ÃŃ
p Ã©
p ali
p ados
p sico
p lÃ¡s
r ino
s ano
s fp
t Ãºe
u p
u er
u ruguay
u pil
v m
v estu
v rati
v tse
w or
w rence
y s
z una
z adores
z tia
z mÃ¡n
de bilidad
de tuvieron
de muestra
en s
en za
en seÃ±
en emi
es en
es tros
es gri
es sel
ra t
on alizaciÃ³n
ta la
ta qui
ta mante
ta maÃ±o
er ts
Ã³ ri
Ã³ cra
ER OS
al d
al dad
al baÃ±
ar mado
ar resto
ar ries
PER A
que ra
que jas
que ts
an ex
an tenas
in ci
in Ã©
in dÃŃ
in existente
in minente
re por
re pe
re za
re ina
re val
re acciones
re producciÃ³n
re torno
re currir
re habilitaciÃ³n
ad misiÃ³n
ad junta
ad judica
ti ga
ti cias
con g
con tras
con teni
con tener
con ge
con virtiÃ³
con vali
con juntas
se villano
di ciÃ³n
di si
di cas
di cial
di ab
di rÃ¡n
di alo
di chos
Ã¡ cica
ÃŃ tu
ÃŃ tima
co razones
co yun
do bles
do centes
te me
te gi
te cho
te ctos
te atra
is ti
por cent
ca mente
ca fe
ca minos
to mÃ³
ri ch
su bido
su cesi
su ponga
ma t
ma tr
ma ras
ma der
ma gro
li cas
li fera
cu s
mi ro
mi tes
le var
le jan
le tÃŃn
Ã© se
Ã© ticas
ro ca
tu ta
tu vieran
ha med
tra mitaciÃ³n
si vo
si ga
mo linos
vi cerrec
bi cicleta
lo a
lo ga
lo gos
lo bos
ado les
pro puso
pro posiciones
pro lifera
para li
para caÃŃdas
pe i
pe or
res ca
res titu
des pren
des alo
pres er
pres tado
pres taciones
pres enten
Ãº en
Ãº menes
ho mi
ter dam
dos a
fi las
fi jar
fi cadas
fi char
me da
par os
par encia
com posi
com pensar
com bin
El or
ec ÃŃa
vo y
vo ces
vo taciones
pu g
pu ertorrique
per juicio
ba ta
ran da
em as
em pu
ten se
ten dencias
ten cioso
ac tores
ac cesi
ac tÃºan
io l
ex clui
ex ig
ex cepciÃ³n
tor ne
tor menta
man ÃŃa
man tendrÃ¡
man tenÃŃan
go la
am bu
am nistÃŃa
im pone
im pru
gu es
gu ine
gu erras
gu lador
du mp
La ud
La wrence
ce do
ce dido
za ga
pre vÃ©n
jo vtse
ni ca
va ja
ali can
ali zado
for esta
for mal
Es pin
qui ero
ga ba
car o
car di
lu ca
sa ben
ser io
ser ia
ser ÃŃan
ser rat
bre ra
pos teriores
pos esiÃ³n
ver se
rec lu
mu rales
lan des
lan Ã©s
lan zada
ru pciÃ³n
au r
au xi
can al
can tidades
na tal
na cimiento
na vaja
bo ico
gi as
gi eron
cos ta
ch ino
gan ando
ll Ã³
parti rÃ¡
parti darios
fu ga
dis mo
dis puesta
dis puestos
dis pondrÃ¡
dis paro
dis poni
ve ran
ve tta
sus tan
est ÃŃ
est ri
ob e
ob reros
19 87
19 81
19 67
Co razÃ³n
Co operativas
En cu
ban era
bier nos
pas i
pas os
pas adas
pas arÃ¡
pon encias
mis a
mis iones
ele va
cre Ã³
cre arÃ¡
cre emos
fin ca
lÃŃ mites
Con tin
Con cha
inter esa
inter vini
medi anas
tal Ã³
tal las
tal ban
In ten
In fra
In tx
In geni
tin os
posi bili
zar lo
ven cer
ven dido
ven osa
gen eran
gen erÃ³
der se
der Ã¡n
der rum
presenta dos
presenta rÃ¡n
Re gulador
contra tado
mas a
titu lares
titu laciones
Go les
Go lÃ¡n
Go biernos
lla mÃ³
lla marÃ¡
ay ana
lle ra
lle ve
acu dan
infor mÃ¡ticas
Mar u
Mar y
Mar bella
gar se
Al magro
ins pe
An tÃ³n
cios a
mer ece
ab sor
fir mantes
pen siÃ³n
cono cen
cono cimientos
Vi Ã±ol
cons tancia
cons elle
comuni car
ES TU
pue do
cen sura
produ zca
pla ta
Pa ola
bar es
bar ril
10 1
10 7
Par ra
val e
equi lib
pri vi
pri vados
pri vadas
cor te
cor rida
cor rupciÃ³n
EN CIA
EN CIAS
plan e
Na vrati
indi cios
indi cador
cur ren
forma to
Por que
Por zuna
prim as
ur gentes
elec tores
elec trÃ³nico
Ca tÃ³
deci mo
deci dida
deci dirÃ¡
Jos e
Jos u
30 3
Bar re
gas tron
Car denal
Val de
Val lÃ©s
Ju li
Ju dicial
TA S
TA MIENTOS
Ar gel
Ar mada
15 3
15 6
reuni do
reuni rse
vas cular
cam pos
Li jovtse
Le e
nacional ismo
Ci entÃŃ
seÃ± or
Ro ja
Ro ger
Ro ost
cin g
As mara
13 7
13 9
edi tado
representa ciones
tem pera
tis tuta
final istas
AN AT
AN DALU
AN TON
via ble
fal lado
fun dada
mon to
mon asterio
conse jerÃŃa
bol so
reali zados
Di da
Sa ra
sos teni
encu estas
Gu ar
Gu zmÃ¡n
Gu ayana
trabaj adora
Ex terior
Ex chan
IN D
IN G
IN O
IN AS
IN FOR
EL ES
anun ciada
Lu arca
16 3
16 4
van guar
segui dos
dor o
conside raron
17 1
17 5
17 7
ing les
leg almente
cum plen
recor rieron
secre to
11 1
institu cionalidad
pes quero
Pro yec
cl in
Mon talban
To mÃ¡s
To kio
To luca
inte gr
Ra miro
Ra banera
Ra cing
Lo gan
Lo cales
progra madas
anti dump
Ser vini
Me j
his pana
sal man
Cent er
Su deste
paci f
tur ÃŃstica
tur ÃŃsticas
Europe os
cir se
Bo w
OL A
gui rÃ¡
Ma pei
fra cas
reti rado
reti rarse
publi caciones
inclu ya
propi etario
resi vo
parec ÃŃa
emple os
trata ba
UN ION
pan talla
Au to
destin ar
continu ada
regis tro
Jo ana
Mo bil
Mo vimiento
Mo hamed
Ag ricultores
Ban k
acus ada
Universi dades
ell Ã³
rela to
rela tiva
rela tivos
Un as
cali ficar
favor ecen
sali do
vir tud
jus tas
Pu ertos
Des ay
alcan ce
alcan za
alcan zan
at s
mostra rÃ¡
plante ado
plante amiento
nubos idad
bor de
vie jo
periodis mo
Aso ciaciones
Ru manÃŃa
redu jo
ÃŃcu las
cuar tel
cuar teles
perman entes
pin cha
pin turas
plen aria
recha za
orden ar
obli gaciones
apli can
pel ÃŃculas
ata car
CON ST
recupe rado
aco ge
dirigi r
dirigi rse
MÃ¡ xi
afi cionado
utili zado
cili a
coti di
CA M
industri as
abandon ado
Men ores
enfer mo
empe zado
DI ARIO
recibi dos
colo quio
subra y
prepara ciÃ³n
prepara tivos
correspon den
MA CION
MA Ãĳ
rea tivo
vice consejero
vice presidenta
comp ras
neces arias
37 3
inaugu rado
conver siÃ³n
MI L
ki lo
constitu cional
constitu ida
conf esÃ³
defini tivamente
Fi yi
Fi gueras
ko vica
ko upil
enca min
jugar Ã¡n
IB EX
Institu cional
alem anas
dici endo
mag reb
Sal vati
encar gados
encar ecimiento
minu to
registra dos
mil lar
ID O
Rob les
Rob ert
Rob erts
provo caciÃ³n
provo caron
ejecu tado
determin ados
Ã¡l bu
acep taciÃ³n
gus ta
gus tarÃŃa
tÃ©r pre
intenta ron
quÃŃ vo
quisi Ã©ramos
Ba tistuta
concent raron
Gi bral
enten dimiento
mul ta
facili tados
facili tarÃ¡
tecno lÃ³gica
benefi cia
Mer ck
Tra volta
valo rado
transpor tar
pron osti
insis tir
Depor te
exi ge
ME IAC
abo ga
abo gÃ³
conci erne
sufri r
sufri eron
universi dad
consecu tiva
ejerci cios
Bi lateral
Ta jo
cuesti ona
tÃ³ri co
volver Ã¡n
ocurri dos
Segu ra
suspen der
suspen dido
Villa verde
Cel rÃ¡
Qu Ã©
contem porÃ¡n
col n
efectu adas
efectu arÃ¡n
SU B
SU I
apar tado
mÃº sicos
promo tores
AG I
consul tados
Tur ÃŃn
grÃ¡ ficas
inmedia ciones
197 8
finali za
finali zar
finali zarÃ¡
derro tas
individu ales
adelan tar
Cha ud
Ali mentaciÃ³n
Ã©xi tos
monta je
monta Ã±osas
Cla vero
Ga ma
Ga vÃ¡
Mil enio
blan ca
blan cos
fac tor
Ã³s to
refer ente
refle xi
refle jan
pagar on
Cal vo
convi cciÃ³n
histÃ³ri cos
evacu adas
TRA L
asi Ã¡tico
madrile Ã±os
educa tivo
Mag reb
Pon ce
Res pon
dal la
sac Ã³
sac as
despla zarse
mez cla
ganan cia
interven drÃ¡n
acumu lado
colombi anos
GU ERRA
Pos i
Pos ada
afron ta
ileg almente
protagon ista
abor darÃ¡
desarrollar Ã¡n
Trans parencia
eco log
deri vados
favora bles
urban izaciÃ³n
urban ÃŃstico
pregun tÃ³
incen diarios
adquisi tivo
tifi cados
contribu ciÃ³n
separa do
litera ria
Ac tualmente
Ac cionistas
Ele cciones
escu char
diplo mÃ¡tica
tradi cionales
bil tza
Rec reativo
anim Ã³
polÃ© micas
manteni endo
entrevis tÃ³
consis tente
Ge of
az ul
adqui riÃ³
aprovec hÃ³
clÃ¡ sica
clÃ¡ sico
conser vaciÃ³n
pala cio
pala bra
explo taciones
especta culares
Direc tor
Fis cher
espos o
come tidos
cap ÃŃtu
precis aron
cÃº bi
vari edades
sui za
sir ven
disco teca
geni alidad
Fon t
Fre estone
introdu cciÃ³n
introdu cido
republi cana
constru ye
CAR BU
FIN AN
consoli daciÃ³n
Seg undo
chiÃŃ ta
Bor bÃ³n
apor tar
jurÃŃ dicos
divis a
formu lado
sab emos
instru ctor
Guer nica
ocupar Ã¡
extreme Ã±a
extreme Ã±os
Sil va
exam en
mÃ¡xim as
Bus tamante
Bus quets
Ver ona
prac tica
radi cal
agre ga
estratÃ© gico
adecu ado
satisfec hos
reivindi caciÃ³n
Ren due
Serra t
Serra no
UP C
econo mÃŃas
lÃ¡n tico
Ã³lo gos
Indi vidu
COR ONAS
profeso ra
cristi ano
pÃ¡g inas
Lin coln
Ros ario
fÃ³r mulas
pele ar
agrupa ciones
enmien das
Han son
Kre mer
Mara gall
Nor uega
Sus an
aj enas
abu sos
lluvi oso
perjudi cados
lesion Ã³
austri aca
Comis iones
jugado ra
sensi bilidad
sensi bles
Bas auri
CSI F
Mau ri
reve la
pac tado
cuan tÃŃa
perten ece
frustra ron
Ibero americano
AY UN
POS ICION
PRE CIOS
kg s
anunci ador
Hidro cantÃ¡brico
clÃ¡usu la
Tecno logÃŃa
Ari ztia
Gerar di
POL I
aconse jÃ³
escul tor
cientÃŃ ficos
diversi dad
moder na
procla mÃ³
empo trÃ³
minor istas
Carm elo
mayori tario
aproxim adamente
malague Ã±a
conme mo
conme mora
cuer pos
perfec tamente
exen ciÃ³n
exen ciones
ferrovi aria
absur do
Cuar ta
Hotel era
Barak aldo
Lam pre
NÃº Ã±ez
SAL UD
apara to
enga Ã±o
toca mientos
rom per
exhi bi
dismin uir
Alfar o
COMUN ICA
guipuzco ana
MENTA RIA
Agen da
CÃ³ dice
Ini cia
Ton i
VIS ION
alma cen
anÃ³n imas
catÃ¡ stro
activa ciÃ³n
gole ador
post soviÃ©tica
audiovis ual
discapaci tados
estrec har
Consul tivo
juz gados
espec tÃ¡culo
Victor ia
coron as
Valent ÃŃn
manifesta ron
Hugh es
narco trÃ¡fico
magn ÃŃfica
ULTI MO
valencian istas
Llo dio
ZAN U
deterior o
cicl ista
secun daria
dimen siones
Ã¡tri co
cuban os
trauma tismo
sopor tar
compatrio ta
explos iÃ³n
cultiv adores
Mix to
moni tores
surreal ismo
Super copa
Autori dad
afili ados
Tay lor
apa tÃŃa
cÃ¡l culos
gÃ©n ero
senten ciÃ³
repar to
ads cri
delincu encia
trafi cantes
destro zos
holan desa
amista d
discre pan
Inf antil
SeÃ± alÃ³
Vicerrec torado
ceni za
Som port
automati zado
automovil ÃŃstico
Amor Ã³s
desapare cidos
Villal ba
Asturi ana
Christi an
Dal ton
Dem Ã³cra
Ferra ri
FUT BOL
Pra ts
Sto ck
Samp ras
Tex as
relo jes
devalu aciÃ³n
asfi xi
intra venosa
hach ÃŃs
modes to
Laur en
tarri cense
Coordin aciÃ³n
Parti ci
Naval moral
madu rez
Perpi gnan
TEC NO
CONGRES O
IBAR RA
aconte cimientos
involucra dos
RETIRA DA
Badal ona
Cis sÃ©
Cur ro
Dja kovica
Deno minaciÃ³n
FT SE
Funa i
Fru tos
FID H
Hing is
Jonat han
LÃ© rida
Mendo za
Udal biltza
event ual
pali ar
wor ld
albaÃ± il
reval ori
coyun tura
matr ÃŃcula
mader eros
prolifera ciÃ³n
composi tor
torne os
Laud rup
Espin osa
auxi li
Intx aur
ViÃ±ol y
equilib rio
Navrati lova
Argel ia
Lijovtse va
ANAT EL
ANTON IO
Exchan ge
antidump ing
Mobil vetta
CONST RU
MAÃĳ ANA
Salvati erra
Gibral tar
Chaud hry
CARBU RANTES
Rendue les
. /
1 10
1 17
2 25
2 90
3 16
3 98
4 22
4 40
4 77
5 40
6 14
9 00
A cu
A Ã©
A rar
A tencia
A tenciÃ³n
A segu
A MEN
A fortun
B Ã³
B is
B ana
B ena
B ella
B UL
C L
C en
C ER
C ÃŃ
C EL
C LA
C CA
C TO
C LU
D Ã¡
D ras
D imas
E lo
E jer
E van
E bro
E JER
F el
F al
F ON
F UN
F aus
F Ã©li
G AL
G abri
G ADOS
G iner
H uel
H OL
H UN
H OT
H yn
I L
I MI
I ker
I Ã±i
J R
K AR
L N
L en
L lu
L lan
L lor
M G
M es
M ano
M Ã¡r
N ari
N eu
N OR
N ie
O la
O ta
O tras
O PS
O tegi
P O
P el
P ob
P ag
P EN
P EL
P TI
P unto
P esos
P into
R esi
R Ãºa
S F
S ho
S tan
S ele
S mas
S IN
S IDA
T rias
T ei
U ELA
V M
V ar
V arios
V AL
V ara
V az
V entas
W e
W im
W eb
W ang
Y as
Z u
Z ar
Z ab
Z ala
a cia
a pu
a ga
a fa
a preci
a bajo
a prue
a terri
b ÃŃ
b Ã©n
b Ãºl
c z
c co
c res
c ran
c cero
d r
d y
d re
d rez
d ÃŃstica
d uelo
e d
e v
e ci
e al
e vo
e val
e amente
e usk
e vac
f na
f fe
f ano
f luvi
f acultad
g ni
g rante
g onesa
g mt
h no
h ado
h ÃŃa
h ui
h em
h Ãºn
i x
i lla
i bol
i gua
j ados
j adores
j anos
j aron
k is
l ones
l eros
l ine
l vÃ©
m my
n al
n io
n ados
o las
o jo
o ve
o ral
p est
p lÃŃ
p adas
p tica
p Ãºl
p ino
p Ã¡rra
r t
r indi
r erÃ¡
s enta
s ton
s tem
s ori
t tan
u ta
u se
u sa
u raciÃ³n
v or
v ad
w o
w an
w ell
w are
x as
x iÃ³n
x eira
y ente
y Ã¡n
z heim
z hemb
ĠF at
de u
de la
de du
de pre
de bili
de cep
de partamentos
en vas
en comen
en vÃŃo
es per
es pero
es colari
la ma
os as
ci tÃ³
ra ma
ra ba
ra lidad
on ÃŃa
on istas
ta ni
er io
er bai
or nam
el s
el u
el or
el li
al muer
ar rea
que tas
que Ã±os
que jÃ³
que hue
an e
an cianos
un den
un ista
as enta
as tres
as tron
in d
in al
in con
in mer
in vas
in ciden
in suficiente
in mobiliario
in quie
re os
re pri
re cur
re pÃºblica
re peti
re quiere
re voluciÃ³n
re portero
re afirmar
re txe
ad ra
ad ul
ad junto
ti ra
ti ble
ti Ã©r
ti ficaciÃ³n
ti zaciones
ti llero
ent eros
IS MO
con mi
con curri
con juntos
con tencioso
se y
se co
se mestra
pr inter
pr eliminar
di as
di mientos
di arias
di torio
di rola
Ã¡ vi
Ã¡ ticos
Ã¡ mica
Ã¡ menes
ÃŃ os
ÃŃ da
ÃŃ fico
co caÃŃ
do tar
do taciÃ³n
te ga
te lar
te men
is terio
is lÃ¡
pa ta
ca ba
ca bel
to pe
to mas
ri era
su ro
su gi
su mÃ³
su cur
su ministro
su maron
su ger
su mario
su deste
ma ta
ma ma
ma las
ma tar
ma qui
ma dera
li ti
li da
li mp
li toral
cu Ã¡
cu ento
cu entos
cu rador
mi ra
le os
da mni
Ã± ete
ro z
ro tura
tu de
tu raciÃ³n
tu viera
ha cha
ha ttan
tra da
tra ciones
tra tada
tra tarÃ¡
tra tarÃ¡n
si llo
si mula
si tÃºan
mo l
mo dos
mo tor
vi des
vi va
vi tal
vi amente
vi talicio
vi rus
ones es
ones taciones
lo gas
no l
no w
no ven
no villa
no mbres
pro puesto
pro pondrÃ¡
pro mesas
pro pug
po llo
pe raciÃ³n
pe dia
pe cta
res u
res tante
res trin
des o
des en
des per
des esti
des tru
des trucciÃ³n
des consideraciÃ³n
des ventaja
des composiciÃ³n
des Ã³rdenes
des articu
pres ta
ho l
ho gar
ter ia
ter ÃŃas
so mbra
esta tales
dos cientos
fi jos
me x
me tal
com parte
com pare
com pens
com pensa
ente mente
ui dos
El Ã©ctri
ec henes
vo caciÃ³n
vo cales
per t
per dÃŃa
per sigue
enta b
ba b
ba ya
ba Ã±o
ba talla
ba cco
em pi
tos a
ten ciones
ten cial
ten der
ac cesos
ex por
ex ha
ex teriores
ex puso
ex cesos
ex Ã¡menes
ex pecta
tor ero
man ta
man dos
man ente
man io
am Ã³n
am pa
am onestaciones
im os
im posiciÃ³n
im presiÃ³n
gu lar
gu err
du m
du ro
La ti
tas aray
uni lateral
pre ven
pre temporada
pre venir
pre dominio
ni lla
ni zaciÃ³n
tr zhemb
va torio
ali ado
ali anzas
for mas
for mada
for nia
for marÃ¡
Es p
pi ta
min imi
tar ra
tro fe
car ril
lu encia
sa bles
pos e
ver Ã¡
ver te
ver sa
ver edicto
ver ificar
mu Ã±e
lan zado
ru blos
can ciÃ³n
can tar
can cha
can ciller
na cion
na cidos
bo mb
bo om
gi dos
tan tas
cos tos
cos tÃ³
cos ur
cos tarricense
ch inas
ch echenes
gan i
gan as
gan da
gan adores
gan ade
ll ena
presi diÃ³
presi onar
mar cas
mar can
mar cado
mar ines
parti Ã³
dis positivo
ve da
ve lar
sus tenta
cer cano
cer rarÃ¡
Co pas
Co mentario
ban quillo
pas an
pas ados
pon drÃ¡n
son deo
gra da
gra bar
Ã©n do
Ã©n dum
ele vÃ³
cre en
je fes
Con o
Con si
Con ser
Con tre
Con tem
inter no
inter cambios
medi as
medi cam
medi cina
han do
ju l
In ca
In clu
In dependiente
In lac
In novaciÃ³n
In tÃ©rpre
ne do
ne garon
tin io
ces is
eron Ã¡u
Re u
Re cu
Re bol
contra rias
contra tiempo
fer tili
fer ias
cal zada
Se co
Se pÃºl
titu des
titu laciÃ³n
lla ves
lla madas
lle vada
sin ton
infor mÃ¡tica
Mar ta
Mar co
fa z
San i
ros o
Al cÃ¡n
ins tan
ins tancia
ins tancias
ins cripciÃ³n
ins talÃ³
An glo
dÃ³ j
dÃ³ Ã±ez
ez can
don osti
fue ran
mer ecido
ab ductores
ante ce
fir maron
pen e
cono ciÃ³
cent rarse
Vi cen
Vi talicio
hi to
comuni tarias
ES T
ES TE
us an
esti mu
cen dido
produ ci
produ ciendo
produ zcan
pla ca
Pa pa
Pa kistÃ¡n
bar rios
10 5
10 9
val ÃŃas
RA S
RA Z
20 19
20 10
20 15
direc tivo
il los
ul en
ul tra
ul tz
cor ren
EN T
Na iro
indi car
indi cadores
cul Ã³
cul min
cul tivo
cul turas
hab lan
hab rÃŃan
cla ves
prim aria
ini ciales
ensa y
Ca f
Ca cao
30 5
alu dable
Bar ro
Bar rio
tre gua
cri terio
cri terios
Mi k
Mi randa
Car dios
Car reÃ±o
De bido
reg ados
reg resivo
gran jas
rado ras
Val or
Val ero
Val lvÃ©
Euro copa
Euro vestir
Ar n
Ar ri
Ar ce
Ar bitro
Ar nedo
sÃ³ lido
situ ar
situ ados
14 9
reci ban
reci cla
expli caciones
reuni r
ria ga
So ccero
cam pado
nu cle
tru lla
proyec ciÃ³n
CI ER
eri fe
Le w
Le ica
ren dido
prin t
12 8
As tillero
13 8
tori ales
tori ana
edi c
adi lla
representa dos
representa tivas
tem plo
Man quehue
Man hattan
hora rio
tis h
atro p
bos que
AN ESES
fal la
arro jÃ³
arro jar
bol sillo
AS O
Sa va
Sa eco
sos tiene
sen adores
sen tir
zado ras
Gu tiÃ©r
hu ra
hu me
celebra ron
respe tar
Cas ares
Cas imi
Lu kas
200 7
200 8
Conse jero
sector ial
eli giÃ³
trans misiÃ³n
trans pirena
dor f
tera no
conside raciones
conside rarse
17 4
AL IA
ciar se
Cu brÃŃa
desta can
COM I
din ense
ocu pan
Inter nacionales
Inter valos
mad amente
apo yÃ³
len se
Cor ri
Cor ea
Cor tÃ©s
Cor nell
vol Ãºmenes
san gri
conce p
conce diÃ³
conce pciÃ³n
iste o
peri dad
baj ado
baj adores
auto mociÃ³n
Si mi
centro americano
Mon to
Mon eo
Mon tene
Mon asterio
Mon etaria
To ur
To bacco
log ÃŃstica
log ÃŃstico
28 6
Tele cinco
comi tiva
Ay er
Ay untamientos
progra mado
Esta m
Esta bilidad
RE E
RE AL
Ser gi
dro la
permi tieron
eu cali
comer cios
fis io
ses enta
estable cida
estable cidos
Pe te
Pe queÃ±os
sal sa
Su b
TI VA
TI ENE
comen zado
medio ambiental
Cam pos
bal onmano
tur ista
tur ismos
tur ÃŃsticos
inver so
espera ban
70 9
Anton ia
Bo erse
dispu tar
dispu tados
Fern an
Ma ia
Ma ffe
ciden tales
investi gar
Min us
termin ales
termin arÃ¡
AD PI
AD ORES
reti rÃ³
Or le
Or tega
Or dÃ³Ã±ez
bel leza
tele visi
publi carÃ¡
US O
ep isco
Am besa
propi ciar
ley en
Chi vas
finan ciarÃ¡
bien estar
preci sos
preci san
UN MI
convo que
contro ver
contro lada
Au la
Au ton
Au ditorio
Per manente
sub asta
sub secretario
asis tirÃ¡
cole cciÃ³n
cole giados
ale gaciones
ale grÃŃa
Ãºni cas
continu Ã³
regis tros
Fe deri
Mo faz
Ale mÃ¡n
ade cuar
Ins trucciÃ³n
Ban ca
aca ban
aca bado
Em pren
ordin aria
ell Ã³n
evi dente
cali fica
Mu si
sali eron
conta c
vir tual
Pu erta
mal o
mal lor
encontra dos
selec tivo
llegar Ã¡n
mejo rado
expres aron
nar d
comple tado
ameri canas
34 8
Bu ena
Bu levar
mostra ron
enfrenta n
enfrenta r
enfrenta dos
preten dÃŃa
plante ados
plante arse
proce de
proce der
proce derÃ¡
proce dimientos
Az Ãºcar
Az erbai
particip en
Gran t
embar que
embar caciÃ³n
Do koupil
Ru bÃ©n
redu ce
redu cciones
entren ado
pin tor
plen os
pob res
desa tÃ³
et z
her e
her mana
her moso
orden ado
orden ador
pel o
manda tos
manda tario
vÃŃ deo
aco me
premi ado
conocer Ã¡
dirigi dos
enci ada
confir mada
confir maciÃ³n
Ha as
pal os
utili zan
coti zaron
local mente
jal ÃŃa
mb Ã³
reco giÃ³
reco gidas
habi taciones
inf an
celeb ran
DI O
DI DA
prepara dos
correspon sal
Ara gonÃ©s
MA X
trasla darse
37 6
ide o
tab la
inaugu rar
Rey nard
defini Ã³
defini ciÃ³n
defini rÃ¡
Fi ra
Fi del
Fi lo
ko va
Organ o
Pan aria
Pan tani
ani maciÃ³n
amena zÃ³
igual dad
alem anes
mag isterio
95 6
NA CION
alum no
ocup adas
Centro amÃ©rica
pÃ©r tiga
encar ga
condu ce
condu cido
Pala u
mÃ© todos
mÃ© dica
pis cina
prote gido
ck ey
lon dinense
madri d
determin aciÃ³n
determin adas
acep tado
intenta n
volunta ria
quÃŃ micos
CH I
sigui Ã³
Fer mÃŃn
Lon ja
oc cidentales
Ber man
enten der
docu menta
extra Ã±a
Andalu z
financi eras
benefi ciar
36 6
Je fes
Je ff
Mer cosur
Tra bajadores
anali zÃ³
concre ta
transpor tado
transpor tistas
pron Ã³sticos
obs tÃ¡culo
Ja fna
adop ciÃ³n
competi rÃ¡n
acompaÃ± an
hen ko
universi tarias
Bal oncesto
cru ce
accion ari
aus pi
char la
Pri maria
SI ON
indepen dientes
tex tos
tex til
incorpo rarse
signi ficar
volver Ã¡
super Ã¡vi
hotel era
criti cado
criti caron
Ã¼ n
nota ble
Villa lobos
falle cimientos
Cel estÃŃ
Qu inta
contem plan
col isiÃ³n
recla mar
sustitu yÃ³
sustitu ido
SU P
extre madamente
extran jeras
Sala zar
sue Ã±o
dirig ÃŃa
comprome tido
refor mar
pros i
pros peridad
desarrolla da
FC AC
Ram bla
vent or
descar tar
197 3
finali zada
especi alidad
Pr ensa
Ur da
invi tados
nove dades
negociar on
FI C
ubi cada
refi eren
libera r
libera dos
sani tarias
democrÃ¡ ticos
Ala meda
Cla ro
Del hi
Fin landia
Mor Ã³n
UL T
blan qui
fac tura
fac torÃŃa
refer idos
refer irse
refer Ã©ndum
supe ran
Cal der
Cal dirola
Pas tor
cÃ¡ maras
cÃ¡ pita
aspi raciones
histÃ³ri cas
evacu ada
Ter cer
Ter cera
gri ego
And rÃ©
hubi eran
ocupa ba
educa tivas
Hi erro
escen a
escen arios
despla zaron
navar ras
navar ros
significa tivos
OlÃŃmpi ca
resta ble
expedi ciÃ³n
expedi entes
For tÃºn
aplicar Ã¡
tx a
deri vadas
urban ÃŃstica
aprobar Ã¡
09 4
BB V
esp ada
incen tiv
litera rio
descono cido
agru paciÃ³n
EX POSICION
Ele c
Gal isteo
PRO BLE
PRO GRA
bon i
escu ch
infra cciÃ³n
conclui r
conclui do
secu estros
tradi ciÃ³n
poten ciar
bloque os
Ko uch
LIB ANESES
Rec tor
otor gado
anim ales
manteni da
gobern adores
consis tirÃ¡
vincu lado
vincu lada
galle ga
estr eno
adqui rido
fili ales
aprovec har
RUS IA
absolu tamente
asegurado ra
transpar ente
sorpren dido
sorpren didos
Ne vada
fan tas
envi ar
arte factos
caden as
liberali zadoras
femen ina
femen inos
Blan ca
Da x
Da ily
Pab ellÃ³n
cÃº pu
dÃŃ mir
vari ante
sir viÃ³
har d
lide rado
senti mientos
encabez Ã³
encabez ado
pronun cia
pronun ciÃ³
AÃĳ O
AÃĳ OS
CAR CEL
Eu ros
Ibar rola
Ibar retxe
Pad res
divi de
dibu jo
ement erio
acadÃ© micos
bancar ia
restau rar
Gala tasaray
Ol ga
Ten emos
Ten erife
TELE DIARIO
bÃ¡ sica
decen a
fabri car
fabri caciÃ³n
renun ciÃ³
renun ciado
Consell erÃŃa
Consell eria
Pac ÃŃfico
Sil vio
vul n
arqui tectura
recomen daciones
suce dido
supri mi
cua trimestre
trayec to
acla ra
pensa ba
corre dores
Transpor te
Bus h
SO BRE
asturi ana
contu siÃ³n
fil traciones
formar Ã¡n
frances as
adecu ada
adecu adas
patrio terÃŃa
Caball eros
amistos os
UP NA
econo mista
ocul tÃ³
deb emos
asig naciones
progres ista
resuel to
resuel ve
nie tos
nie ga
rum bo
COR P
EZ LN
EZ UELA
Hen rique
Hen ry
Qui to
hin chas
bai le
interna cion
abs uel
tranqui la
hospi tala
subven cion
experim entos
protagoni zaron
Afri cana
Gay arre
Gay sso
QU ES
abu lense
fl m
fl ores
alban esa
reparti das
refu gios
refu giados
reanu dar
reanu daciÃ³n
mane ja
prefer enciales
comerci antes
Bas so
LAN D
Mac hito
OT R
octa vo
latino americano
infec ciÃ³n
rodi llo
compar ten
Est her
musi cales
credi ticia
vence dores
Franco is
Progra mas
Profesi onales
temporal mente
desempe Ã±
desempe Ã±ar
frustra do
Ibero americana
apunta lamiento
paname Ã±o
conseller ia
BOL SA
Dar ÃŃo
VEN EZUELA
dona ciones
enor mes
prÃ©sta mo
prohi bi
especÃŃ fica
especÃŃ ficos
ministeri os
Natura l
clausu ra
anunci adas
Bri tish
DIS IP
EconÃ³mi ca
Fron tera
Fron teras
Sch ultz
aconse ja
bru tos
etÃŃ ope
oto Ã±o
escul turas
alqui ler
die ci
dig nidad
cuo tas
legi ti
proba ble
emis or
minor ÃŃa
jubi laciÃ³n
Carta gena
mayori taria
Salva tella
malague Ã±o
adquiri dos
examin arÃ¡n
Has baya
Ob ser
aporta ciÃ³n
razona blemente
ISTA S
congres ista
cabal lo
prome tido
excesi vo
amp lÃŃ
preocup ados
quizÃ¡ s
mensu al
transmi tir
Mont serrat
Palo ma
solucion en
ligera mente
PARTI DO
religi oso
Gana deros
Hor st
NUE VA
psi qui
pato logÃŃa
pato logÃŃas
respi ra
disfru tar
Alfar erÃŃa
falsi ficadas
geo grÃ¡fica
guipuzco ano
ocasion ado
colap so
prose guir
grie ga
grie gos
religios os
Domini que
repercu siÃ³n
Cali fornia
Nar bona
clÃŃni ca
orqu esta
armon izaciÃ³n
insul tos
confor me
colon os
robar on
cari Ã±o
intermedi arios
equilibra r
equilibra do
ENE RG
viaj arÃ¡
Person al
Humani dades
discrimina torio
profundi zar
Agru paciÃ³n
Desta cÃ³
Im puesto
Sher ry
escla recer
entra Ã±a
capa ces
cui dados
Ã©tni co
vizcaÃŃ no
sob res
acos tu
ceutÃŃ es
Esqu adra
autÃ³ c
canta u
Cole gios
Colon ia
Ene dina
Anto Ã±ete
peni ques
Cajal Ã³n
labora torios
Monc loa
Campe onato
ACER ALIA
telefÃ³n icas
Extreme Ã±o
Buda pest
Zapa tero
intimida torios
progresi vo
GASOL INAS
helicÃ³p tero
Ces ar
ClÃŃni co
ET B
IVA M
Ke vin
Ocho a
Tar rÃ©s
rele vantes
sÃŃn tomas
orgu llo
refren dado
advi erte
configu raciÃ³n
pau tas
paisa je
rompi Ã³
paraguay o
mecÃ¡n ica
autÃ©n tico
fur gon
Port land
Mila gros
Vale dor
trabajado ras
Extran jerÃŃa
agrade cer
pisto la
apari ciÃ³n
Beni dorm
PARLA MENTARIA
venezo lan
felici tar
DemocrÃ¡ tico
======================================================== =====
Abier to
Cambi o
Eman uel
Ejecu tiva
Etxe barri
Hun grÃŃa
Igu almente
Jau me
Vla dÃŃmir
ZÃº rich
cÃ©n tri
facul tades
sacer dote
encon trÃ³
escas ez
escru tinio
repres alias
advir tieron
leal tad
mod alidad
desplaza miento
seri es
Conce jalÃŃa
Conchi ta
mÃ³du los
alaves es
pasapor te
arrai gada
sospech oso
parroqui al
Cin co
Clas ificaciÃ³n
Cro acia
Echar te
ECONO MI
Frei xas
Gro up
Iru reta
Iber drola
Ken ia
MÃº sica
Mori entes
Oce anÃŃa
Resta uraciÃ³n
SW E
Sindi cal
Sindica tos
apel Ã³
taqui llas
conteni das
porcent uales
cus to
lejan ÃŃas
homi cidio
reclu tas
boico t
disponi bles
veran ie
sustan cial
intervini eron
Inten sos
Infra estructuras
CientÃŃ fica
sosteni ble
Proyec to
Mej ÃŃa
salman tino
Desay uno
MÃ¡xi mo
Ã¡lbu m
Ã³sto les
Respon sables
capÃŃtu lo
cÃºbi cos
catÃ¡stro fe
discrepan cias
DemÃ³cra ta
asfixi ar
Intxaur raga
CONSTRU CCION
Afortun adamente
Bana mex
CLU B
Dras kovic
Elo y
Ejer cito
EJER CI
FÃ©li x
Huel va
Hyn de
IÃ±i go
Nari Ã±o
Sho w
Tei xeira
Yas trzhemb
Zab alza
igua lado
rindi eron
depre ciaciÃ³n
almuer zo
astron autas
inciden cia
conmi go
cocaÃŃ na
suro este
limp io
novilla da
expecta tivas
muÃ±e ca
Contem porÃ¡n
medicam entos
IntÃ©rpre tes
Rebol lo
fertili zantes
SepÃºl veda
AlcÃ¡n tara
donosti arra
Nairo bi
Cardios aludable
Soccero os
GutiÃ©r rez
Casimi ro
Lukas henko
Montene gro
Maffe i
episco pales
UNMI K
Federi co
Azerbai yÃ¡n
superÃ¡vi t
PROBLE MAS
PROGRA MACION
Kouch ner
Gaysso t
Yastrzhemb ski
0 50
1 23
2 10
2 20
2 15
2 24
3 20
3 60
4 25
4 80
4 60
4 36
5 50
5 27
6 23
6 30
6 35
6 40
6 45
7 10
8 15
8 35
9 70
9 111
A F
A f
A po
A me
A tan
A ven
A fe
A zÃ³
A soci
A gua
A pare
A VI
A MA
A UT
A quel
A mur
A llen
A zarlo
B R
B ent
B asÃŃ
B iz
B ell
B CR
C K
C ui
C ada
C lar
D B
D R
D ju
D AN
D ino
D AD
D anza
D INA
D ADOS
E v
E ra
E di
E li
E qui
E ber
E CI
E hu
E AD
E MT
E GURA
F N
F SP
F IS
F Ã¡
F ri
F il
F Ã³r
F resi
F iat
G im
G au
G ros
G ab
G EN
G AR
G OR
G IA
G lobo
G usta
H A
H I
H O
H r
H al
H era
H of
I V
I X
I r
I gor
I CIO
I wan
J al
J uiz
K O
K as
K ro
K ur
K avi
K at
K far
K aran
K ily
L EN
L arrea
M eta
M US
M ale
M Ãºni
M CD
M Ã³stoles
N ve
N AR
O cu
O tra
O bi
O este
O pen
O DE
O BS
O UA
P in
P fi
P rado
P AS
P ID
P isto
R T
R ue
R as
R Ã©
R ese
R ol
R onal
R amos
S G
S Ã©
S hi
S AD
S TE
S chu
S chil
S emin
S ward
S abin
S ampa
T H
T u
T os
T an
T rÃ¡
T ren
T ura
T all
T LAND
U Z
U l
U DA
U UA
U sera
V es
V II
V ella
V iol
W o
W alter
W ander
X os
X abier
X fera
Y I
Y ES
Z vo
Z ac
Z im
Z ag
Z EL
a a
a in
a is
a ver
a ves
a guar
a cierto
a condicion
b r
b ÃŃa
b Ã©s
b eli
b ris
c em
c rÃ³
c ÃŃo
c uevas
c recer
c ementerio
d sa
d ante
d ing
d alo
e au
e das
e dores
e fici
e volu
f el
f ol
f lujo
f Ã©rico
g bo
g han
g ber
g rÃ³
g eta
h el
h un
h uir
i d
i ran
i ese
i bero
j i
k t
k on
l def
m pa
m pe
m ba
m bri
m ueva
m berto
n s
o k
o li
o le
o mo
o va
o ver
o pon
o ds
o ane
p s
p ra
p ciones
p ing
p uig
r b
r q
r los
r ÃŃas
s te
s amente
s terdam
t c
t to
t le
u g
v ales
v ina
v adi
w eal
y l
y bo
y entes
y gor
z or
z io
z go
z ur
z ell
Â ¡
ĠF t
ĠF aa
de os
de vo
de je
de teni
de sil
de dica
de gus
de comis
de tecciÃ³n
en gan
en ve
en fa
en rique
en clave
es sa
es condi
es casa
es lova
es cÃ©
es quina
es printer
la ri
la ber
la zos
la ck
os ÃŃ
ci e
ci ma
ci les
ci ru
ci fr
ci adas
ci tados
ci nos
ci gal
ci entas
ci ertas
ci elos
ra te
on y
on za
on eta
ta lib
ta mil
er ca
er tan
er gen
er ros
ĠP X
or ent
or bi
or tÃºa
el ten
el son
ER V
ER TE
ER RIL
al le
al bano
al titud
ar d
ar o
ar que
ar ch
ar reg
que de
an on
an fi
an teri
an din
an Ã©c
un ciÃ³
un dÃ©cima
as amble
in ad
in du
in era
in cor
in cul
in unda
in tel
in tera
in cau
in Ã³s
in cÃ³mo
in movili
in geni
in mobili
in novaciÃ³n
in muno
in clin
in vadi
re j
re para
re pu
re tor
re ce
re ga
re pos
re tros
re tario
re van
re afirmÃ³
re pul
re acciÃ³n
re estruc
re comien
re presiÃ³n
re conducir
re plicÃ³
re pliegue
re volucion
re cepciÃ³n
re bajar
ad rado
ad hesiÃ³n
LO GI
ti os
ti on
ti as
ti fica
ti ficar
ent rarÃ¡
IS R
MIS ION
con tenciÃ³n
con fron
con vir
con cien
con cili
con cursos
con glo
con formado
con gresistas
con tienda
se la
se os
se mej
pr elimin
di al
di li
di lu
di gan
di vor
Ã¡ in
Ã¡ ez
Ã¡ tica
ÃŃ no
ÃŃ menes
ÃŃ simo
co di
co pi
co pas
co bro
co pia
co operativa
do v
do tada
do taciones
do cencia
te j
te mÃ¡tico
te cario
te Ã³ri
is es
is as
is tar
pa te
pa ga
pa gÃ³
pa gados
pa tente
pa teras
pa decen
pa cense
pa pele
por e
por quÃ©
ca y
ca ma
ca za
ca cere
to me
to ras
to logÃŃa
to litros
ri d
ri gu
ri ale
su po
su ya
su ena
su yo
su avi
su poner
su pl
su frÃŃa
ma de
ma el
ma tu
ma cha
ma estro
li di
li mÃŃ
cu b
mi de
mi ta
mi el
mi to
mi lÃŃ
mi torio
mi lanÃ©s
las h
le a
le cciÃ³n
le onesa
le ÃŃda
Ã© ticos
da je
da via
Ã± al
Ã± Ã©s
ro v
ro to
ro ck
ro mana
tu s
ha m
ha gue
tra na
tra je
si ento
si am
si gan
si lla
si lia
si onado
vi ta
vi ces
vi entos
vi vÃŃa
vi vencia
vi gÃ©
vi tude
bi tros
bi rÃ¡n
bi zu
bi elor
lo h
no vas
no mb
no vio
no ches
pro pa
pro pin
pro poner
pro mul
pro mesa
pro hÃŃ
para do
para ble
para cai
para dÃ³j
po lio
po Ã©tica
po table
po emas
pe a
pe ras
pe fa
pe raturas
res a
res tos
des bor
des enca
des control
des mor
des viar
des pedidos
des cabel
des campado
pres cripciÃ³n
dad ura
ho o
ho mb
ter na
ter cio
ter cios
ter loh
so y
so bra
esta tura
dos o
fi la
fi ce
fi jo
fi cciÃ³n
me rado
me tÃ¡
me dalla
par d
par ten
par mes
par cel
com b
com ando
com prÃ³
com paÃ±a
com posiciones
El isa
El vira
den e
den se
ec an
ec lesiÃ¡s
ec retario
vo t
vo tantes
pu ero
pu diera
per fil
per misos
enta r
ba co
ba ch
ba mos
ba ty
ran cÃ³n
em erg
00 5
ac ero
ac tiv
ac ari
ac arre
ac eras
ac tÃºe
ac titudes
ex propi
ex presiÃ³n
ex presiones
ex torsiÃ³n
tor tura
tor ear
man ga
man tendrÃ¡n
man tenga
FE MPE
FE NOS
go vic
am es
am ores
am paro
im parti
im bra
im plante
im pedido
im pidieron
im presion
im parable
gu ÃŃa
gu Ã©s
gu esa
gu cigal
du pli
du ques
du reza
La basti
uni da
uni rÃ¡
ce la
ce ras
za je
mÃ¡ r
pre ma
pre val
pre domin
pre cep
pre juicios
ni cara
ni tud
ni geri
tr iste
tr Ã³nica
va rado
ali e
ali ce
ali zaciones
ali viar
for ia
for taleza
Es tÃ©
Es cra
Es tonia
pi el
pi Ã©
pi cas
pi diendo
min erales
qui m
qui ta
qui da
qui jo
qui gas
qui rÃ³
tro pi
ga be
ga iz
cion ista
cion ario
cion amiento
car ia
car est
car dia
car ios
lu p
lu es
lu las
lu jos
lu chas
lu cro
lu xem
sa ca
ser lo
ser bio
bre ga
rec ru
mu estre
mu seos
lan s
lan co
lan zaron
lan zadores
ru mana
au las
au tos
au mentos
can ce
das oa
na dero
bo ca
bo xe
bo bank
bo xeo
gi ro
gi ya
tan que
cos tu
cos tarÃ¡
ch Ã©
ch Ãº
ch ica
ll Ã³n
ll stro
mar cos
mar ido
mar chÃ³
mar ÃŃtimos
mar quÃ©s
entre gar
fu ero
fu sion
dis tor
dis tante
dis posiciones
dis parÃ³
ve a
ve terano
sus to
sus tancias
ob Ãºs
ob tendrÃ¡
ob tuvieron
19 5
19 6
19 65
19 53
19 47
19 84
Co pen
Co lÃ³n
Co llado
Co imbra
En ton
En tren
pon drÃŃa
mis ible
son deos
gra du
gra va
xi bilidad
ele vados
cre a
cre ciendo
je cimiento
je ux
fin cas
fin alidad
fin dustri
vis tas
Con ta
Con tra
Con findustri
inter ista
inter gubernamental
inter vino
inter cambiar
inter secciÃ³n
medi cinas
tal mente
In dones
In tegra
In landes
ne tos
ne tas
ne gra
tin as
sobre vi
tiv ales
ber g
ces iÃ³n
mos qui
mos traba
ven den
ven diÃ³
ven port
gen as
ari Ã±os
der ri
adri o
Re i
Re bos
Re cursos
Re tiro
Re cuer
Re molinos
contra r
contra ban
contra ria
contra ataque
bra er
bra zos
fer ial
qu ini
mas as
ja bal
Se is
Se Ã±o
Se at
Se oane
Go ld
lle to
lle guen
acu dirÃ¡
acu dirÃ¡n
Mar im
Mar tin
Mar cano
Mar ÃŃtimos
Mar gani
Mar silla
cional mente
mÃ³ s
fa kis
San kt
ros a
ros as
ros tro
Al da
Al bri
Al bor
Al zheim
Al bizu
Al varado
ins iste
An th
An gola
ez ca
don ado
don ia
rio janos
mer cad
ab un
ab arca
ante proyecto
men ciÃ³n
men cionados
men cionado
tÃ³ pi
fir marÃ¡
pen Ãºltimo
cono cÃŃa
cent rada
Vi e
Vi al
Vi tal
Vi cario
cons tar
cons tarÃ¡
cons truc
cons ciente
hi pÃ³
teri al
comuni cadas
ES TRA
us os
us ar
us te
esti los
Uni ted
bar cos
var Ã¡
Par ques
Par ker
menta no
20 30
20 21
20 33
direc trices
cor ta
cor ri
cor tes
cor ona
cor tÃ³
cor dia
ano taciones
EN ES
EN TO
EN FREN
EN TRE
plan tes
Na via
Na th
Na dej
Na tional
indi os
indi fer
indi caciÃ³n
cul pÃ³
cur vas
hab lado
forma tivas
cla ys
actu arÃ¡
actu aba
ur des
ur ismo
ur gencias
ur nas
ope ran
ton o
elec trÃ³nica
ini ciaron
tres cientos
Ca bo
Ca pital
Ca torce
Ca vero
Bar clays
be d
be bidas
consi g
gas es
gas trÃ³n
Mi d
Mi ra
Mi rac
Car doso
De i
reg alo
reg ÃŃmenes
gran a
Ju ven
Ju ergen
Ju govic
respon der
Ar mentano
Ar bed
sÃ³ lida
14 2
14 3
pun te
15 8
25 6
25 8
Fran cesa
bas Ã³
bas tos
bas adas
So u
So lans
CI G
CI NE
CI UD
Li g
Li z
Li ber
Li lia
Li quigas
diÃ³ cesis
Le i
Le al
Le dez
Le one
AR B
AR ES
AR ENA
Ci bel
Ci viles
Ci ty
seÃ± ores
Ro che
Ro ura
Ro cÃŃo
Ro gber
cho cola
servi do
asegu ran
As is
sig na
edi tada
representa tiva
tem ores
tem peraturas
Man ches
Man ises
vin ho
ori lla
ori zon
alg eci
Po ll
Po lack
Po elten
Po lanco
jue gan
hec tolitros
bos o
AN OS
AN TEN
fal so
fal larÃ¡
fun erales
mon tado
mon weal
conse jos
ir regular
reali ce
AS ES
AS EGURA
Di jo
Sa raje
Ã³mi ca
sen das
hu yÃ³
celebra das
respe cta
compaÃ± era
CÃ¡ novas
IN F
IN S
IN CEN
IN VER
hos tili
18 97
EL GOR
anun ciarÃ¡
Cas tella
Cas illas
lib ras
16 1
16 7
16 8
16 87
200 5
regi onalizaciÃ³n
cambi a
trans ferencia
trans bor
trans curri
trans mitiÃ³
bri llan
van ia
van dÃ¡
segui rÃ¡n
dor mitorio
obje tor
ron do
ing ui
contin Ãºen
ÃŃn tegra
Cu al
Cu per
Cu entas
vil Go
fo lleto
COM O
COM PRA
Inter Ã©s
hacer le
ara gones
ara gonesa
resul tante
recor dado
int entos
len guas
abri eron
Cor respon
diri ge
vol vieron
ambi ciÃ³n
pes ca
pes ado
pes imismo
conce didas
Can tina
Can navar
Can tÃ¡brico
Can cionero
Can seco
iste ma
auto vÃŃa
Si ete
Si cilia
To da
To ura
decla rada
compe tentes
denun ciaron
inte gro
log re
log ros
28 0
Nacional ista
Ra bobank
comi da
visi ble
visi tante
visi taron
24 4
Lo ck
Lo ygor
Lo urdes
cis Ã©is
progra mados
drÃ¡ u
anti ci
Esta mos
RE GI
RE UNION
RE YES
Ser Ã¡
dro ga
Me tu
permi tirÃŃa
eu foria
his torias
Ã±os a
prof undo
fis ura
estable cidas
22 9
Bra vo
Bra silia
Pe d
Pe pe
Pe ter
sal en
sal ones
sal tar
sal tÃ³
sal vado
sal drÃ¡n
sal vador
Su bra
Su be
Su giya
TI A
alcal dÃŃas
venta jas
venta nilla
inver nadero
70 3
tempo rales
Bo eh
Bo zell
he w
dispu so
dispu taron
gui Ã³
AC CION
AC ESA
EU S
Ma i
Ma to
Ma tÃŃas
RI AS
RI AG
fra caso
dese en
dese os
dese an
ei rÃŃn
reti ro
solici taron
publi ci
escri tos
escri be
ine quÃŃvo
Am sterdam
Am puero
depen den
ampli ado
ampli aciones
gal erÃŃa
emple ar
emple an
27 5
Chi pre
finan zas
trata mientos
exis tan
estudi ando
estudi ante
Ri ta
Ri vas
Ri char
Ri gober
UN A
UN ES
pan cartas
pan eles
depor tista
contro les
contro versia
opera dos
Gar bel
Gar rido
Per u
sub delegado
sub terrÃ¡n
asis tan
incre mentos
destin os
destin an
autori zado
Ad ventu
ale da
ale gÃ³
ale gando
continu arÃ¡n
afec te
afec tadas
regis tran
Jo han
Jo erg
Mo ca
Mo za
Mo vilGo
iz ador
condi cional
Ag Ã¼
recono ce
recono cieron
aban dona
vos otros
Em braer
No val
LA CION
evi tÃ³
Ã¡r qui
cali fi
cali ficaciones
opin ar
favor ece
Mu let
Mu gabe
jus tificada
Pi ta
Pi lo
Ãºs ticas
Des jeux
diver sa
expres an
PA M
PA IS
nar ra
comple mento
34 67
enfrenta rÃ¡n
enfrenta ron
plante ada
igu ales
proce den
TE KA
vie ja
Is mael
cau telar
valor Ã³
Do rado
Do adrio
redu cen
entren ar
cuar ent
perman ecido
perman eciÃ³
pin as
pin tada
pob lado
desa fuero
genera li
norte Ã±a
et h
et ti
her man
her encias
Pre cio
Pre cios
Pre dicciÃ³n
orden aciÃ³n
orden anza
obli gue
obli gada
obli garÃ¡
agra ma
apli que
pel u
pare des
pare jas
pare cidas
recupe rarÃ¡
ejer ciÃ³
lÃ³ gicos
lÃ¡ gri
capaci dades
Com peticiÃ³n
Com monweal
enci ados
confir ma
confir madas
Ha made
lin dados
utili zada
solu cionado
chi ÃŃs
cti on
habi tante
habi tualmente
viol enta
Ho lly
Ho over
ficar se
abandon Ã³
abandon aron
Men em
Men chÃº
enfer merÃŃa
inf lama
empe zÃ³
empe zarÃ¡
integra dos
DI OS
DI CE
DI CION
LE B
LE Y
vuel ve
recibi rÃ¡n
Du rÃ¡n
TO RIA
colo cado
prepara ndo
fiscal ÃŃa
Ara gones
MA XI
terror istas
trasla darÃ¡
trasla dada
ide al
ide ado
tab las
tab ro
anterior mente
conver tirÃ¡
conver saciÃ³n
ki c
modi fica
baja ra
constitu yÃ³
constitu ido
defen dida
defen sores
Fi li
Fi go
Fi orent
ko v
gon o
vado ra
jugar ÃŃa
IB ER
Pan ason
Tor Ã¡cica
Tor desil
acer car
acer tÃ³
amena zar
gasol inera
Institu ciÃ³n
At lÃ¡ntico
dici dad
caus ar
caus ando
mag nitud
Sal gado
encar gar
encar garÃ¡
real ista
condu cciÃ³n
condu cta
sex o
quin as
registra da
mil las
ID ENTE
Jor dan
Jor nal
PÃºbli cos
sÃŃ mil
ejecu tivos
determin e
determin Ã³
determin ado
prÃ¡c tico
acep te
acep tarÃ¡
intenta rÃ¡
quÃŃ micas
Servi Ã¡
garanti ce
Fer rer
oc cidente
concent rados
oport uno
extra di
facili dad
desem pate
financi an
tecno lÃ³gicas
Je bel
Mer c
SE C
SE VIL
Ti llstro
Tra pero
mor tales
til las
concre tos
concre tas
obser var
obser vÃ³
valo ran
valo rados
acor dar
insis tido
insis tieron
aprob adas
comien ce
comien zan
Ambi ental
Fo ra
Plan eta
adop tÃ³
adop tadas
perÃŃo dos
exi giÃ³
competi tivo
sufri endo
consecu tivo
Muni ch
Muni cipales
Muni cipios
atra cos
atra ctivo
nomin al
pens Ã©
delan teros
ingres Ã³
coordin ar
coordin ado
Bi dasoa
Ta rancÃ³n
fes tivo
fes tivales
fle xibilidad
incorpo ra
incorpo rar
incorpo rarÃ¡
EspaÃ± olas
signi ficÃ³
Rio jana
fru ta
fru to
fru tas
ocurri r
super mercados
super ficial
mantener se
impli cadas
elegi dos
clasi ficados
clasi ficarse
Ã¼ s
novi llo
novi llero
falle cieron
pedir le
Empres arios
Cel ia
PR D
PR EN
cli ente
col ores
patri monios
sustitu ir
sustitu yan
esperan zas
efectu ado
efectu ada
efectu aron
SU PER
Za bala
apar tados
eva cuar
promo tora
promo cionar
extre mismo
satis fac
Alber ca
AG ORA
Don ges
gobier na
comprome te
ITA L
TER O
TER RA
cÃ¡n tabro
dra buena
dedi cÃ³
elo gi
descar tadas
derro tado
adelan to
Cha o
Cha de
Pla ybo
Ur dan
Ur gencias
Ur quijo
invi tÃ³
invi erta
nove dosa
construi das
negociar Ã¡n
FI L
FI YI
olÃŃmpi cas
demostra ciÃ³n
capi teles
particular mente
triun fos
monta Ã±as
libera ron
Cla u
Ga z
fac tores
fac sÃŃmil
Ãĳ A
refer ÃŃa
administra r
administra tivo
administra tiva
coste ar
legisla tivas
Er re
Pas trana
Ve cinos
argu mentÃ³
aspi ra
aspi ran
convi erta
difÃŃ ciles
Valle cas
Valle dor
Valle hermoso
And re
And rei
meri cana
meri canos
menor quÃŃn
Cara vana
TAN DER
hubi ese
ocupa ban
golpe Ã³
Hos pi
Her mos
Her mida
Mag ariÃ±os
Te gucigal
ami gas
art ÃŃstico
despla zarÃ¡n
MEN TE
futbol ÃŃstica
interven ido
acumu ladas
buscar Ã¡
buscar Ã¡n
For d
GU ERRIL
His tÃ³rico
emi tirÃ¡
anu laciÃ³n
protagon istas
respal dÃ³
ejem plar
Mal donado
eco lÃ³gico
tx u
conces iones
sala rio
agres or
urban os
autonÃ³mi cos
Cos lada
Cris ti
POR TLAND
incen di
adquisi ciones
tifi can
tifi caron
estatu as
comparec er
agru padas
Ac ciones
EX TRE
Gal erÃŃa
Gal lup
PRO CES
elabo rada
fÃ© mur
iden tificados
conclui rÃ¡n
diplo ma
poten ciales
trabaja ba
valenci anos
magistra da
LIB ER
Mas a
Mas jÃ¡
Mundo IT
otor gar
anim al
anim ados
entrevis tas
entrevis tarÃ¡
suscri bieron
suscri birÃ¡n
Vir riale
vincu laciÃ³n
fronteri zos
galle tas
galle gos
Lle dÃ³
Nu estro
dÃ³n de
ascen dieron
cont entos
peru anas
interpre ta
aprovec hando
EM PRES
Far ina
Far inÃ³s
ascien den
conser var
conser vador
conser vad
levan tamiento
absolu to
producto ras
Fis as
Ly on
fan s
envi ando
envi dia
adjudi cado
concer tada
concer tadas
come ten
come tido
precis ar
Da venport
dÃŃ rs
gesti on
sui ci
sui cida
exten derÃ¡
testi monio
testi monios
geni tal
Joa quim
relacion ada
reiv indica
CAN TA
Fon seca
Sy stem
cÃ© lulas
gÃ¼ enza
tt ler
vac as
vac antes
taba cal
are la
inti mi
diseÃ± ado
diseÃ± ada
limi tar
olÃ³ gico
olÃ³ gicos
constru ctora
senti miento
chet ti
periÃ³ dicos
encabez ada
pronun ciado
FIN UL
Kar el
pÃº gi
reÃºn en
habili tar
empa tado
Espe ciales
rÃ¡pi do
bancar io
bancar ios
experimenta r
experimenta ron
figura ba
restau rantes
Edu ca
Fa mili
Fa inÃ©
Medi a
Ten go
TELE FON
apla zar
apla zado
apla zada
bio grafÃŃa
exclu siva
jurÃŃ dicas
empresari ales
regres Ã³
INA U
denunci ados
PRES ENTA
PRES IDENTE
bombarde ar
DES AYUN
Hern ani
Oli va
Oli ve
cue ra
ua ga
yugosla vos
origin al
Monte dison
CHA VES
CU B
Mc Mana
Sil via
Sil vinho
recomen dÃ³
recomen dado
trayec tos
acla raciÃ³n
mensa jes
pensa miento
ONG s
ofreci do
ofreci da
ofreci das
Alex ei
Alex ander
exigi do
Geor g
Geor gia
AB C
Isa ac
Os terloh
SO CI
mp son
verda dero
agre garon
produc tivos
puntu alidad
precipi tada
Van essa
econo mi
lÃ¡n tica
deb ÃŃan
asig natura
difun dir
resuel va
fij ada
expul sado
rum ores
COR ONA
conveni encia
farma cia
farma cias
defien den
Episco pales
Ka tius
Lin da
Lin dsa
vali do
defici encia
alber gue
arti llerÃŃa
retras ar
requisi to
dicta min
matri z
compren de
aÃ±adi do
Castel ldef
MuÃ±o a
asesin ar
experim ento
atender Ã¡n
ISRAEL IES
Ameri can
Ku cera
Nor te
Sus cripciÃ³n
abu so
fl ui
gh t
jano vic
adver sa
adver tido
pari ciÃ³n
perci bir
empren dedores
adap ta
lesion ados
fortale cimiento
distri tos
lengua je
honor ÃŃfica
FP OE
Gri d
aÃ© rea
aÃ© reas
aÃ© reos
centa vos
pales tinos
desig naciÃ³n
desig nado
latino americanas
mix to
vivi do
mecan ismo
perten ecen
credi bilidad
firme za
controla ba
acaba ba
justi fica
multina cionales
caracteri zado
Aran a
Aran txa
Agra ria
CEN TRAL
Egi bar
Ron cal
plu s
debu tar
prohi bir
descen diÃ³
Marcel lo
Marcel leti
ESTA DO
equipa miento
Natura les
clausu rÃ³
manifi este
erradi cado
especiali zado
especiali zada
especiali zados
Tecno lÃ³gica
CAL PIS
EconÃ³mi co
EconÃ³mi cas
Gerar do
MIN US
Oc cidental
SAN TANDER
alimenta ciÃ³n
archi vos
die cisÃ©is
diversi ficaciÃ³n
pacÃŃ ficas
moder nizaciÃ³n
proba bilidad
pur ines
mues tran
canadi enses
Juvent us
aproxim ada
RIO JA
Tai landia
sÃ©p timo
Has an
Kra us
Kra uss
Spe ed
Wol ff
apre ciar
hÃ³ licas
ilu stra
razona ble
recau dar
reaccion ar
reaccion ario
congres ual
desnu da
audi torÃŃa
absur da
mensu almente
consenti das
Demo cracia
Poli tÃ©cnica
Poli deportivo
residen cial
residen ciales
argumenta ndo
religi Ã³n
Ace bes
BER TA
Gana derÃŃa
Lla ma
NÃº ria
Ste fano
Tho mpson
geri Ã¡trico
taller es
revi se
superi oridad
respi ro
descubri eron
exporta ciÃ³n
impe dÃŃrs
minus valÃŃas
Luc chetti
Monta Ã±a
Adri ana
Hai der
Hai ka
prose guirÃ¡
religios as
domicili os
catalan as
intensificar Ã¡n
AU TO
Ami gos
CB F
DEN UN
Emer son
Ori gen
Peri co
Spa ce
Spa dea
Sim Ã³n
TR OL
Vo z
mÃŃn imas
suel do
desi erta
tari fas
aline Ã³
armon ÃŃa
anÃ³n ima
ason ada
tius as
conqu ista
conqu istar
catÃ¡ logo
moles tias
proto colo
promovi do
pobre za
rup tura
audiovis uales
discapaci dades
hipo cres
Expo vacaciones
Humani dad
narco traficantes
permanec erÃ¡
afian zada
Ferro l
prostitu ta
prostitu ciÃ³n
identi ficar
valencian ista
verdadera mente
profundi dad
gratui ta
patrocin io
AZ NAR
Agru con
Bla ir
DOLAR ES
Jara ma
Mana gua
Vas cos
frecu ente
idio mas
lac tancia
arbitra je
inventa rio
cai ga
vizcaÃŃ na
exter na
Esqu erra
quie bra
autÃ³ logas
Ene agrama
peni ten
cordo besa
labora torio
eritre as
franqu ista
negoci ando
Brasile Ã±o
colegi al
australi ano
aloja miento
aloja mientos
someter se
intimida ciones
cinemato grÃ¡fica
GASOL EO
helicÃ³p teros
psÃŃqui ca
Ade ga
Bre uer
JUN TA
JUN IO
Terri torial
Vu janovic
ww w
depu raciÃ³n
alco hÃ³licas
supon drÃŃa
sufra gio
descubier ta
homÃ³ loga
estad ÃŃsticas
pertene cientes
tend remos
dispon gan
Coll ins
intercep tÃ³
Vita tene
Vita minas
hici era
uss ell
gaso il
gaso ducto
Arqui tectura
Arqui tectos
Leo pard
opta tiva
responsabili zÃ³
complementa rios
reite rar
Atlan ta
Atlan tis
implicar ÃŃa
clasifica toria
camise ta
camise tas
Ada ise
BID ASO
Dra ke
Nico lÃ¡s
PD GE
PES ETA
Preci samente
SOL DADOS
TS JA
XV III
aisla dos
emo ciones
gl ori
gales es
defec to
alde as
redon das
remon tada
contene dores
pror ro
dimi tir
lici taciÃ³n
desfavore cidas
vole ibol
exce derÃ¡
Espar za
pien san
cardio vascular
castren ses
mutu o
chal Ã©
vecin ales
Colin dres
Reco ba
contradi ctor
calcu lan
equipara ciÃ³n
Mili tar
INTEN TO
sancion ador
Montes eirÃŃn
Matt hew
desequi lib
guatem alte
asisten ciales
Pie drabuena
Pier ce
CONSE JER
cuestion Ã³
salari ales
bilba ÃŃno
Philip pe
VOLU MEN
sierrale onÃ©s
simultÃ¡n ea
avutar das
imagin aciÃ³n
Fir st
Itur gaiz
Jun tas
Mexi cana
Rena to
Tal let
bron ce
clar os
clandestin idad
elabor e
ft ware
gadi tano
koso vares
keni ana
ling Ã¼
pÃŃ vot
uruguay o
indÃŃ genas
cong regados
dialo gar
sucesi vos
vicerrec tor
adoles centes
accesi bles
exclui do
exig encia
ambu lancia
impru dencia
guine ano
Contin ente
derrum be
conselle ra
CatÃ³ lica
Barre tt
tempera tura
Sara h
INFOR MA
pacif istas
Bow er
Auto vÃŃa
pincha zo
magreb ÃŃes
pronosti cÃ³
Posi bilidad
Individu al
Mauri cio
conmemora tiva
COMUNICA CIONES
Inicia tiva
adscri to
revalori zaciÃ³n
auxili ar
Asegu rÃ³
Bena vides
Cen almor
CÃŃ rculo
CCA E
Llor ell
Mes quida
Resi duos
Smas hno
Zar rÃŃas
apu Ã±a
aprue be
eval Ãºe
evac Ãºan
fluvi al
pÃ¡rra fo
wo od
deu dores
ornam ental
inal Ã¡
incon gru
suger encias
liti gio
cuÃ¡ les
bab ue
exha laciÃ³n
guerr ista
Lati f
Esp ÃŃritu
trofe o
Contre ras
Inclu so
eronÃ¡u tica
sinton ÃŃa
antece dentes
Vicen c
produci rÃŃan
RAZ ON
Caf Ãº
Mik el
Arri ortÃºa
recicla je
nucle ar
Sava ge
hume dad
transpirena icas
Cornell Ã¡
sangri entos
Estam bul
eucali pto
fisio tera
controver tida
mallor quÃŃn
infan cia
ideo logÃŃa
Fira Gran
auspi ciada
FIC NI
Calder Ã³n
hard t
vuln era
absuel to
amplÃŃ e
cantau tor
furgon eta
EJERCI TO
Af anas
Aven tis
Afe work
AzÃ³ car
Apare jadores
AVI MES
Amur rio
Azarlo za
BasÃŃ lica
Bell puig
Dju kic
Eber hardt
Ehu d
EAD S
FÃ¡ tima
FÃ³r mula
Gros so
Gusta vo
Hr baty
Kavi edes
Karan ka
Male fakis
MÃºni ch
Obi ang
ODE PA
OBS ERV
Pfi zer
PID EN
Pisto iese
RT VA
Rue das
Rese arch
Shi rov
Schu essel
Schil y
Semin ario
Sward t
Sampa io
Tos sa
TrÃ¡ fico
UUA A
Viol encia
Wo ods
Xos Ã©
Zvo gbo
Zim babue
Zag he
ais lado
cem ento
oli va
zur do
enve jecimiento
enfa ti
osÃŃ mil
cifr Ã³
talib Ã¡n
anteri oridad
anÃ©c do
asamble as
inad misible
inmobili aria
repul sa
confron taciÃ³n
concili aciÃ³n
conglo merado
prelimin ares
dili gencias
dilu ci
matu tino
milÃŃ metros
vices ecretario
nomb rÃ³
paracai distas
desenca den
parmes ano
parcel istas
emerg encia
FEMPE X
FENOS A
Labasti da
nicara gÃ¼
Escra vitude
cardia ca
luxem bur
Copen hague
Enton ces
Entren adores
Confindustri a
Indones ia
Integra l
Rebos io
jabal ina
SeÃ±o ra
Marsilla ch
Albri ght
Albor ch
Alzheim er
Anth ony
hipÃ³ tesis
ENFREN TAMIENTOS
Nath alie
Nadej da
gastrÃ³n omo
Mirac le
CIUD AD
Ledez ma
Cibel es
Rogber i
Manches ter
algeci reÃ±o
Saraje vo
INCEN DIOS
ELGOR RIAG
vandÃ¡ licos
ÃŃntegra mente
Cannavar o
Toura ine
Loygor ri
REGI ON
salvador e
Sugiya ma
Richar d
Rigober ta
Adventu res
AgÃ¼ era
lÃ¡gri mas
Commonweal th
Holly wood
Fiorent ina
Panason ic
Tordesil las
SEVIL LA
Tillstro m
Playbo y
Tegucigal pa
MasjÃ¡ dov
conservad urismo
McMana man
Katius ha
Lindsa y
Castelldef els
CALPIS A
impedÃŃrs elo
hipocres ÃŃa
BIDASO A
Smashno va
ELGORRIAG A
' s
0 86
0 48
1 16
2 23
2 16
2 70
3 10
3 30
3 12
3 21
3 70
3 75
3 37
3 99
4 30
4 18
4 35
5 16
5 28
5 95
6 50
6 24
6 21
7 20
7 18
7 11
7 89
8 25
8 87
9 50
9 27
A h
A vi
A man
A les
A lan
A gi
A ll
A ero
A je
A lle
A CO
A vil
A lio
A UN
A hor
A guas
A isa
A puestas
A eronÃ¡utica
B H
B r
B ec
B ran
B io
B ras
B au
B uel
B ase
B ola
B OS
B alcan
B IA
B ego
B ry
B Ã¡s
B reta
C S
C res
C ho
C ÃŃs
C est
C alidad
C RE
C ELE
C PR
C SU
C GT
C UR
D S
D V
D ue
D un
D Ã³n
D jor
D eli
D OR
D ami
D Ãºo
E G
E P
E c
E dad
E ni
E je
E tien
E CO
E us
E dica
E vora
E DO
E CD
E gara
E liza
F U
F en
F AL
F abri
F igu
F raz
F ala
F RUS
F alcÃ³
F rent
F eira
F ALTA
G in
G is
G ras
G aÃ±
G era
G ob
G ur
G raz
G ENTE
G aray
G Ã¼n
H B
H L
H M
H ad
H IS
H ini
H OM
H art
H AY
H ace
I K
I on
I li
I na
I bo
I EN
I AS
I OR
I Ãĳ
I COS
J ar
J EFE
J OS
J US
J IA
J OV
J ames
K U
K on
K el
K ER
K ad
K is
K em
K ol
K ab
K ara
K ofi
K ris
K FOR
K amis
L al
L li
L una
L ec
L endo
L IN
L ola
L Ã¡c
L ares
L ler
L uiz
L TH
M M
M Ã³
M ad
M am
M ali
M ul
M of
M isiÃ³n
M Ã³nica
M elo
M ulti
M usta
N al
N ina
N ig
N DI
N ego
N unca
N acho
N elson
O a
O h
O z
O di
O mar
O ur
O FI
O pera
O IT
O CM
P J
P ales
P ru
P ista
P AN
P UE
P AC
P TO
P erales
P OP
P Ã¡ra
P LAN
P ADA
P lÃ¡s
P uig
P LEN
P residencial
R ER
R in
R eli
R eno
R SA
R aul
R abin
R Ãºsticas
R ussell
S as
S co
S ri
S tu
S tra
S esta
S vo
S ac
S tar
S ob
S ando
S ES
S tÃ©
S EN
S AS
S ura
S US
S OR
S uelo
S eles
S ERA
S ELEC
S ach
S Ã¡ez
S istema
T Z
T x
T am
T za
T OR
T are
T ude
T xe
T hura
U M
U s
U RG
U ES
U RA
U CA
U MT
U CR
U CK
U mberto
V P
V ent
V enta
V ele
V ini
V ino
V arias
V amos
V Ã¡s
V arela
W est
W ei
W emble
Y O
Z IN
Z ubi
a er
a las
a pres
a ho
a como
a ble
a ber
a bra
a zo
a cam
a bur
a vent
a testi
a fgan
a tiende
a ventu
a partamentos
a compaÃ±a
b Ã©
b ine
b lues
c s
c rec
c ron
c leo
d p
d den
d Ã¡n
d ales
d je
d ana
d ÃŃo
d ÃŃsticas
d rusos
e ti
e pi
e gi
e ber
e ventu
e ers
f ui
f este
f esti
f Ã©r
f anos
f ÃŃo
f Ã¡r
f amos
f lash
g is
g enta
g ina
g adores
g unas
g rasa
g aseo
h y
h im
h art
h arÃŃa
h leti
h orizon
i A
i j
i k
i er
i lÃŃ
i tin
i vos
i dÃ³n
j ona
j ario
j amÃ¡
j cz
j amÃ³n
k y
k ar
k ro
l y
l esta
l lu
m pu
m eli
m ÃŃo
m enten
m brico
n ad
n ex
o t
o di
o per
o pone
p unta
p ts
p hen
p aliza
r d
s ten
s tan
s ana
s tran
t te
t ona
t he
u t
u do
u ten
u alidad
u grana
v am
v ÃŃn
v entÃ³
v emos
w i
w ol
w ig
w ide
w ee
x is
x ia
x aca
y u
y as
y ano
y mpi
y orqu
z en
z man
z ana
z evi
z uela
z ima
z Ã¡ndose
z nio
SP OE
de t
de v
de x
de los
de tra
de dos
de can
de mar
de tri
de us
de ciÃ³
de terio
de canos
de jan
de presiÃ³n
de jara
de volviÃ³
de cepciÃ³n
de tenciones
en ce
en can
en Ã©r
en jui
en nadi
es s
es que
es me
es pu
es for
es pon
es tras
es caso
es casos
es tren
es panyol
es sey
es print
la go
la ble
la raciÃ³n
la gÃ³n
la gunas
ci era
ci ana
ci alidad
ci elo
ci alidades
ci llerÃŃa
ra la
ra mas
ra tivos
ra dica
ra ki
ra dios
ra cistas
on o
on era
ta ran
ta ur
ta ts
ta tivamente
ta lante
er rÃ¡
er ista
er ques
er ense
er tza
er naciÃ³n
er tizaciÃ³n
er mita
Ã³ rico
Ã³ ptica
ue co
or s
or todo
or gÃ¡n
ER IA
al mi
al zas
al leg
al teca
ar me
ar tifi
que t
que ta
que ja
an s
an in
an ia
an tÃŃ
an cho
un istas
as ti
as alto
as ain
in do
in ista
in ario
in hu
in cum
in defini
in genio
in habilitaciÃ³n
in conveniente
in elu
in documenta
in ventor
in capaces
in condicional
re h
re p
re en
re te
re ras
re pi
re qui
re porta
re ino
re curri
re fuerza
re elecciÃ³n
re caer
re cayÃ³
re pÃºblicas
re produce
re tini
re empla
re conversiÃ³n
re construye
re activaciÃ³n
re punte
re basÃ³
re integro
re conciliaciÃ³n
ad je
ad versario
LO T
ti z
ti ras
ti cÃ³
ti ese
ti rado
ti dores
ti Ã©ndose
ent u
ent ros
ent erra
ent ino
IS TE
IS ION
con es
con min
con fec
con jun
con tiene
con dado
con fusiÃ³n
con lleva
con currir
con seguidos
se cos
se ÃŃs
se cano
se amos
se ts
se mestre
se cciones
se quÃŃa
pr ÃŃn
di er
di ales
di je
di ese
di bles
di mir
di mitiÃ³
Ã¡ mico
Ã¡ Ã±ez
ÃŃ so
ÃŃ das
ÃŃ genes
ÃŃ micas
ÃŃ feros
co b
co pla
co bar
co loc
co ben
co ger
co her
co lin
co logÃŃa
co plas
do m
do men
do zo
do tados
do ctores
do cente
los a
los of
te u
te os
te as
te za
te mera
te ko
te mÃ¡tica
te jÃ³n
is os
is po
is tan
is mes
is torio
pa is
pa ter
pa cial
pa cional
pa ul
pa deci
pa gado
pa gos
por teros
ca la
ca ÃŃa
ca tas
ca ras
ca bles
ca tÃ¡n
ca tone
ca bida
to que
to le
to rales
ri z
ri ca
ri ado
ri fi
ri cas
ri fe
ri zado
ri ge
ri ego
su lar
su je
su bas
su ben
su ceder
su marÃ¡
su yos
ma cu
ma mÃŃ
ma cÃ©u
ma deras
ma giar
li os
li Ã³
li an
li bi
li zar
li gado
li cita
cu ra
cu po
cu sa
cu adri
cu anti
cu ida
cu chil
mi e
mi os
mi ti
mi ras
mi das
mi tri
mi zar
mi llo
mi th
mi graciÃ³n
las ia
le en
le tras
le Ã±a
le gios
le erÃ¡
le um
Ã© pocas
da ma
da Ã±ado
Ã± es
Ã± Ã¡in
ro pa
ro man
ro za
ro bos
ro bado
tu vi
tu Ã¡n
ha ras
ha miento
ha bilidad
ha cien
ha bilidades
tra e
tra de
tra ciÃ³n
tra cas
tra tÃ³
tra bas
tra tarse
tra mpa
si o
si t
si to
si enta
si der
si mas
si bles
si rias
si vos
si onar
si mbÃ³
mo ciones
mo tiva
mo tores
mo deraciÃ³n
vi ti
vi ado
vi ento
vi vo
vi tr
vi tz
vi uda
vi vero
bi as
bi endo
bi anin
ĠVS M
pro cu
pro xi
pro greso
pro bado
pro cesa
pro pagar
para l
para r
para das
para militares
po le
po dio
po pul
po tente
po tentes
po etas
pe d
pe da
pe aje
pe uta
res tone
des as
des pre
des min
des ban
des titu
des gar
des men
des tre
des cuenta
des precio
des pidiÃ³
des infec
des contento
pres as
pres bÃŃ
Ãº na
Ãº til
Ãº rico
Ãº tiles
ho ja
ho ckey
ter s
ter ceras
ter inario
so le
so cia
so cor
so porta
so bera
esta bles
fi lo
fi chado
me o
me teor
par on
par ques
par lamento
com poner
den ciales
ec har
vo d
vo tÃ³
vo tada
pu los
pu ro
pu tado
per e
per fu
per ros
per mercados
per seguido
per secu
per judica
per juicios
ba a
ba h
ba t
ba ran
ba je
ba tÃ³
ba tir
ba raz
ba tallas
em plaza
em baraz
tos amente
tos cana
tos trade
ten encia
ac ces
ac tÃºa
ac cÃ©
Ã¡n s
Ã¡n don
ex cur
ex puesto
ex acto
ex poner
ex ponen
ex pusieron
tor re
tor res
tor ena
tor turas
man u
man so
man ia
man che
man tengan
man eras
go te
am as
am onestaciÃ³n
im pi
im presi
im peri
im preg
im pensa
im puestas
im piden
im potencia
im previsible
gu er
gu Ã©
gu eros
du rÃ³
La gos
La ura
La far
uni r
uni vers
ce i
ce diÃ³
za in
za pa
mÃ¡ quina
mÃ¡ quinas
pre ver
pre vio
pre ocupar
pre olÃŃmpico
pre potencia
jo vic
ni as
ni Ã±as
ni kova
va yan
ali a
ali ada
ali zarÃ¡
23 2
23 7
23 34
23 59
23 71
for Ã¡n
for zar
for zado
for mados
Es cri
Es taciÃ³n
Es pec
Es cuelas
Es trada
Es pacial
pi ra
pi da
pi laciÃ³n
pi ern
pi tÃ¡n
pi taciones
pi tosamente
min g
min ia
min ero
min ori
tar des
tar les
tar dÃ³
qui bo
tro lu
tro fes
tro mba
ga bine
car d
car n
car ica
lu sa
lu ces
lu aga
sa f
sa las
sa ques
sa bor
sa ud
cas tel
ser ias
bre cha
bre vemente
pos io
ver t
ver Ã¡n
ver tidos
mu erta
mu ertas
lan cha
lan zarÃ¡
ru ta
ru tas
ru fe
ru he
ru rales
can cel
can cionero
paÃ± as
na taciÃ³n
na cida
na cieron
na talidad
na tional
bo les
bo das
bo tel
bo letÃŃn
gi c
gi r
gi endo
tan as
ble don
ch Ã³n
ch era
gan Ã©s
gan ados
gan aron
ll Ã¡n
ll ense
presi da
mar ch
mar Ã©s
mar cal
mar cadas
mar gin
mar tÃŃn
mar ÃŃtima
entre meses
entre gÃ³
entre gados
entre garÃ¡
parti di
parti das
parti daria
fu siones
fu giados
dis pen
dis tensiÃ³n
dis confor
dis torsiÃ³n
dis paros
dis curren
ve la
ve ras
ve terinario
lar d
lar de
lar en
lar lo
cio cho
cio laboral
cer canos
cer teza
ob tenciÃ³n
19 2
19 8
19 10
19 60
19 75
19 69
19 61
19 68
19 66
19 82
19 88
19 58
ya cimientos
ya yun
Co laboraciÃ³n
Co aliciÃ³n
Co mando
Co operativa
Co tizaciones
Co marcal
En her
En ciclo
ban das
ban chel
pas iÃ³n
pas eo
pas illos
pas torales
pon gan
pon Ã©s
pon entes
pon gamos
mis i
== =
cÃ³ ticos
cÃ³ mics
cÃ³ mpu
son idos
gra no
gra das
gra tis
gra van
gra toria
gra baciÃ³n
gra fÃŃas
gra vando
gra vemente
gra tificaciÃ³n
ele vada
cre ÃŃ
cre ÃŃa
cre ador
cre cientes
je une
fin a
fin i
vis mo
vis ce
Con de
Con ven
Con gres
Con curso
Con dal
Con federaciones
inter puesta
inter puesto
inter cambi
inter medio
medi ar
medi ca
medi aciÃ³n
medi ador
In em
In ser
In Ã©s
In bar
In tera
In formÃ³
In dependencia
In sular
In macu
ne ario
ne vada
ne gros
sobre todo
sobre vivir
posi tivas
posi tivamente
ces ar
mos ca
tri z
tri pu
tri bus
zar reta
ven ÃŃa
ven ciÃ³
ven cimiento
ven derÃ¡
ven daje
gen ia
gen eros
gen Ã©tica
gen ere
tras cendido
presenta ra
presenta ba
Re us
Re gas
Re gui
Re col
Re tena
Re fugiados
bu tz
contra tar
contra tÃ³
contra tados
contra dice
contra tadas
contra partida
contra ctura
contra venir
contra golpes
bra za
tien es
tros ur
qu eros
ja ponÃ©s
Se bas
Se ara
Se gre
Go mbri
lla da
Madri gal
lle fer
lle vados
lle vamos
lle vando
acu dido
acu are
acu ÃŃferos
sin gu
sin tÃ©
sin ki
Mar c
Mar x
Mar ch
Mar esme
ol vi
espe cu
espe jo
espe rada
fa cial
fa be
San ti
San gre
San eamiento
ros aleda
Al de
Al ca
Al go
Al fa
Al rede
Al costo
Al coben
ag ui
An im
An don
An unciÃ³
ez tu
cios os
rio jano
rio jana
mer en
mer ecen
ab ad
ab uela
ab onar
ab domen
fr isos
men go
men ia
men udo
men tiras
CO RAZON
fir mada
fir mados
fir st
pen ales
cono zcan
cono cÃŃan
empres arias
cent ran
cent rado
dar o
dar le
dar les
dar merÃŃa
Vi va
Vi labo
cons tan
traba je
hi jas
hi drÃ¡u
hi permercados
teri za
comuni cados
ES O
ES TER
ES GO
ES CRI
us to
us ados
us sen
esti maciÃ³n
cen cias
produ cidas
produ cciones
pla cent
Pa vel
Pa paso
Pa trulla
bar ra
bar se
bar ro
bar ran
bar rera
bar dier
10 2
var io
Par ece
Par edes
Par kin
Par odi
menta lidad
val en
val las
val ÃŃa
RA T
20 23
20 12
20 11
20 51
direc tos
fe teros
ul las
cor tas
cor tar
cor onel
cor eÃ³
cor rerÃ¡
ano don
pero ferta
person adas
person alidad
person arse
rÃ¡n dose
EN DA
plan taciÃ³n
plan ea
Na ran
Na zar
forma ba
forma tivos
cla ras
cla ridad
cla vados
actu Ã³
actu arÃ¡n
Por ras
Por tilla
bili zar
bili zÃ³
jer ÃŃas
jer Ã¡rqui
prim ario
dio la
ur ÃŃ
ur nikova
porta ba
porta ban
cel es
cel eri
ton alizaciÃ³n
ensa yos
Ca fu
Ca jas
Ca brera
Ca jario
Ca feteros
deci den
deci miento
deci diera
30 4
alu des
Bar ca
Bar rena
Bar rufe
tre intena
be u
be th
be gic
nos tÃ¡
consi go
consi guen
gas tar
Mi r
Mi ert
Mi chal
Mi llÃ¡n
Car re
Car rillo
Car dozo
De mir
De bate
De usto
gran ada
gran ito
gran eles
rado ra
rÃŃ cola
Ju ana
Ju gadores
Euro bank
TA C
TA L
TA R
mili tante
respon da
cele bre
Ar en
Ar ga
Ar quÃ©
Ar mando
Ar isti
Ar ganda
Ar genta
Ar jona
Ar menia
14 1
14 6
reci tal
15 5
15 9
15 00
expli can
expli cada
expli carÃ¡
25 328
reuni da
reuni ficaciÃ³n
bas ura
tÃŃ cola
tÃŃ mido
So to
So le
So lar
So ftware
So bianin
So ciolaboral
estu pefa
cam paÃ±as
organi zados
organi zarÃ¡n
nu tri
Las a
tru m
proyec tan
proyec tado
CI P
CI NA
Li bra
eri e
Le tras
Le tonia
Le ganÃ©s
Le jeune
ren s
ren ac
ren ego
tel erÃŃa
tel Ãºrico
nacional istas
seÃ± ales
Ro t
Ro jo
Ro mano
Ro gel
Ro jas
Ro chel
Ro vira
12 1
12 4
12 00
DE Z
DE US
DE BA
cin ado
As en
ciudad ana
ciudad anÃŃa
13 1
13 2
edi tor
edi les
edi ficaciÃ³n
adi cionales
representa das
Man ga
Man resa
vin cular
Po esÃŃa
Po well
jue za
hec has
yo ta
nor oriental
nor deste
AN ZA
AN PU
via jero
fal sean
fun dÃ³
fun eral
fun cionales
mon ar
mon as
mon etaria
arro z
arro ja
conse jera
conse jerÃŃas
ir re
ir rumpi
reali cen
reali zando
AS TU
Di ce
Sa tse
Sa id
sos tenido
social mente
sen ci
zado ra
Gu ine
Gu are
Gu apor
Gu revi
Gu ennadi
trabaj ador
hu y
hu rac
hu yeron
Ex tra
Ex pedi
fran qui
celebra dos
respe ten
IN EM
IN DRA
hos til
18 8
50 6
EL AS
Cas ar
Cas cante
Cas tejÃ³n
Lu po
Lu cas
seman ario
lib rando
pod remos
16 2
16 6
16 50
16 89
Ch unta
Ch erie
eli te
cambi ado
cambi aba
trans acciones
trans formaciÃ³n
trans formar
trans fusiones
proble mÃ¡tica
previs iÃ³n
UE X
bri ca
van guardia
segui da
dor mir
Juan e
soli tario
17 2
17 50
17 25328
ron das
AL TO
AL FAR
ÃŃn as
Cu enta
Cu erno
Cu adrado
euro diputada
vil las
fo menta
fo rales
fo bia
leg al
leg ÃŃtima
nego ciado
din Ã¡mica
che v
che gui
OE VP
tali zas
Inter no
Inter ina
Inter venciÃ³n
Inter national
PS OL
PS IM
apo de
eta no
desarro llen
recor tes
recor tar
recor daron
recor riÃ³
recor rer
recor daba
dan esa
Cor o
Cor rec
Cor ia
Cor ona
Cor cuera
san cionado
eros iones
ayu de
ayu dado
sur giÃ³
sur tidores
institu tos
ambi ciosa
pes as
Can cho
Can aria
peri fÃ©rico
baj ista
baj adas
baj arÃ¡n
auto golpe
auto mÃ¡tico
Pro ble
Pro greso
Pro fes
Pro tecciÃ³n
Pro curador
ben ep
ben edic
vesti do
Si eso
Mon ter
Mon ica
Mon teros
To yota
ves pa
decla rados
denun ciada
ura dÃ³
28 8
necesi tarÃ¡
haber lo
jug adas
Ra iner
Ra fel
Ra bat
ge me
visi ones
24 6
24 8
Lo ba
Lo terÃŃas
progra mada
perio dÃŃstica
avi aciÃ³n
avi oneta
anti les
RE SP
RE FOR
RE CHA
RE PSOL
Ser Ã¡n
polÃŃtica mente
Me ana
Me ismes
Me trosur
fis cali
estable zcan
22 2
Pe w
Pe Ã³n
Pe trÃ³leo
efec tivo
efec tivas
efec tividad
ofi ciarÃ¡
sal do
sal ve
sal var
sal drÃ¡
sal sas
nÃº cleo
habÃŃa mos
Cent en
Su ker
Su dam
Su dÃ¡n
Su peroferta
TI K
TI VI
TI CA
TI TU
TI DO
TI ZA
TI VAS
TI EMP
def ra
Cam bo
Cam pus
tur cos
vel la
inver sa
inver sor
inver osÃŃmil
informa tivos
tempo ralidad
cir co
cir cular
Bo xeo
Bo letÃŃn
26 0
26 9
sil bar
sil vania
dispu tada
gui aba
gui onista
AC E
AC USA
EU iA
Ma h
Ma t
Ma tra
Ma tas
Ma jada
Ma kro
Ma lagÃ³n
Ma teu
Ma lasia
Ma haras
Ma eztu
RI CO
RI AL
RI TO
RI ESGO
dia ga
investi gan
investi dura
termin e
termin al
cual quiera
reti ran
reti rados
reti cencias
solici tados
solici tada
solici taba
Or ban
Or tea
Gen darmerÃŃa
publi cÃ³
publi cada
lamenta r
lamenta ba
35 6
escri ta
mejor e
Am bas
inclu siÃ³n
resi dente
ampli as
ampli ando
bus cÃ³
bus cando
emple a
emple ado
emple ada
27 4
27 8
recu ento
mujer ie
tÃ¡n ico
deba tiÃ³
deba tieron
trata ra
trata das
trata ban
exis tir
exis tÃŃa
exis tiendo
exis tÃŃan
exis tiese
Ri va
Ri era
UN IDO
ger ia
ger unden
pan carta
pan tallas
opera rÃ¡
opera rio
Au tostrade
Gar y
Gar zain
Per io
Per eira
CE PTO
difer ida
difer enciada
sub delegada
destin aron
Hu se
ale ga
insta la
insta lada
continu as
continu ado
afec to
afec taciÃ³n
consu mÃ³
regis trando
Jo e
Mo tor
Mo der
Mo ore
Mo delo
Mo yano
tÃ¡ menes
Ag rÃŃcola
recono cida
recono cidos
recono cidas
Ins tancia
Ban cos
Ban esto
aca demi
aca tamiento
aban dera
pren da
acus ar
Universi taria
funcion an
funcion aria
90 48
No or
No vas
No ticias
rela tos
rela tÃ³
rela tivas
seis cientos
evi ten
Ã¡r boles
cali za
undi dad
Este pa
Mu sa
Mu chos
sali rse
ases o
conta mos
llevar ÃŃa
llevar Ã¡n
Pu bli
Pu yol
sor dera
internacional mente
Pi tiusas
selec ciones
selec tiva
selec cionados
selec cionado
selec tividad
selec cionar
Des astres
lor ia
diver tido
diver gencias
mejo rarse
expres amente
tili dad
comple tos
comple tarÃ¡
comple tarÃ¡n
34 6
Bu eno
Bu carest
at mÃ³s
at lÃ¡ntica
mara villa
mara villos
movi Ã³
preten der
plante en
plante arÃ¡
plante aron
igu anodon
Az cÃ¡
Az eve
Az uaga
TE M
particip ada
distin ta
distin ciones
distin guir
Gran da
Gran das
Is landia
demo cra
demo cristiano
tec tÃ³n
cau ces
embar ques
Ru di
Ru bi
Ru lo
cÃ©s ped
gor ta
entren arse
Minis terial
pin os
pin tan
pin tado
pin tores
pob la
desa tada
desa fÃŃ
desa pariciÃ³n
desa fÃŃo
genera do
genera da
genera cional
45 7
et y
et ta
et ton
et nias
her manas
recha zaron
recha zan
Pre visiÃ³n
Pre viamente
orden Ã³
orden ada
conven cer
agra rios
agra vado
apli cÃ³
apli cable
ig lesias
espa ciales
aso ciadas
ata cantes
regu lan
pare cido
CON FI
CON TIN
aco b
aco gido
lÃ¡ cito
pul co
poner lo
tribu taciÃ³n
conocer se
conocer Ã¡n
dirigi rÃ¡
enci erro
sol venta
Ha ar
Ha in
VI A
VI DA
VI TORIA
pal o
utili zados
coti zarÃ¡
deli cado
deli ctivos
augu rÃ³
chi cos
defin ir
reco gen
reco gido
reco gidos
reco pilaciÃ³n
habi tada
viol Ã³
viol ento
presu mir
Ho gar
ala ban
abier tos
fÃŃ sicos
oficial ista
abandon e
abandon arÃ¡
Men daro
inf le
inf antiles
empe Ã±ado
empe zaba
celeb ren
celeb rando
integra rse
98 4
98 5
DI AN
DI AS
DI RE
LE ON
LE ALES
tia o
recibi das
Du ero
Du ques
Du crÃ³
TO MA
TO RAL
colo cÃ³
correspon der
correspon dieron
correspon derÃŃa
correspon sales
MA PF
rea pertura
Cons istorio
trasla dos
ESP ERA
inaugu ral
inaugu raron
rei tera
Dipu taciones
jar din
ki butz
esca la
esca Ã±o
baja ba
constitu tivos
constitu cionalidad
85 2
conf luencia
defen sor
defen diendo
77 91
Fi to
Fi estas
Fi tch
Fi restone
mbra do
jugar se
Organ izador
Pan americana
Tor neo
Tor ellÃ³
Tor tosa
Tor rens
acer tada
acer caron
amena zaron
Institu te
Institu cionales
At las
At hleti
caus an
caus ados
Cata lan
86 6
86 94
NA TU
presentado ra
alum nado
Sal tillo
ka a
ka ya
real ojo
condu cÃŃa
condu ctas
sex to
vio lÃŃn
bara ta
quin cena
Pala ce
britÃ¡n icas
registra r
aque llo
militar ista
Bru guera
Jor nada
Jor nadas
mÃ© todo
pis ar
prote ja
prote gidas
33 89
crÃŃ menes
acep ten
acep taron
gus tarÃ¡
volunta rios
volunta rias
bur g
quÃŃ mica
Ba hÃŃa
CH E
CH O
CH AS
bom bas
sigui endo
99 1
Lon g
Lon don
concent rado
estre pitosamente
corpo raciones
confli c
confli ctivos
Ber mejo
Ber gara
Gi sela
Gi dden
oport unas
enten dido
enten demos
extra Ã±o
facili tadas
desem bar
tecno lÃ³gico
tecno lÃ³gicos
Je fe
Jus to
Mer catone
SE GUN
Ti me
Ti empo
Ti ene
Ti rana
Tra tado
Tra jano
VE Z
mor ro
mor tal
mor talidad
anali zarÃ¡
concre tar
concre tÃ³
concre tada
concre tarse
cola ria
valo rarÃ¡
valo rarse
realizar se
usu ario
pron Ã³stico
portu aria
acor demos
obs trucciÃ³n
Depor tivos
Depor tivas
coinci dido
Ja zz
eo ence
adop te
adop tado
exi gen
exi gencias
exi gida
competi tivos
ME TRO
hen dra
Ã³pe ra
andalu za
Bal onmano
Bal lesta
atra co
cru za
cru zar
cru zÃ³
accion ar
accion ista
char las
pens ado
SI L
SI T
ingres ada
lleva ban
Bi blio
FA PA
Ta mil
Ta rango
incorpo rado
incorpo rados
cuesti onado
EspaÃ± ol
signi ficado
volver ÃŃa
68 2
hor talizas
logra ron
hotel ero
impli caciÃ³n
impli quen
gios a
elegi da
elegi rÃ¡
Segu ros
NE GO
cris tal
Ã¼ ttler
cuad ra
suspen diÃ³
calle jera
falle cimiento
Fuer tes
BI O
PR ISION
Qu ÃŃmicas
labor ista
alter ne
alter cado
alter cados
contem p
col ina
col ision
reser vadas
recla mado
recla maron
recla mando
efectu ados
39 2
59 328
87 3
Za fra
extre ma
extre mista
extre mistas
satis fecha
reno vado
locali zaciÃ³n
locali zado
locali zaron
apoy os
apoy an
apoy ado
elimin Ã³
elimin ado
AG RO
Aus ente
Don antes
edu cadores
sue co
gobier nan
dirig ÃŃan
comprome ta
comprome ten
comprome tida
consul tadas
consul tora
TER RITO
elo giar
pros pera
neo yorqu
milita ba
Ram on
grÃ¡ ficos
cara vana
guar di
ller s
197 2
197 6
nega tivas
derro tada
buena zo
PaÃŃs es
individu almente
Cha m
Cha morro
Gali lea
Pla ya
Ur diales
Ur chegui
Ven us
fÃ¡ lico
sent ÃŃa
sent encias
sent enciados
confi esa
tomar Ã¡n
libre mente
construi rÃ¡
gasÃ³ leos
negociar se
fotogra fi
Ali que
Ben edicto
Ben etton
GO A
ubi car
ubi cÃ³
ubi carÃ¡
demostra da
esco ger
capi tÃ¡n
norma tivas
libera do
libera les
Cla ussen
Fin an
Ga ran
Ga tes
Ga ber
Ga zz
fac eta
fac hada
refle jar
refle jada
refle xiÃ³n
administra tivos
administra dores
patr onales
pagar Ã¡
supe rado
interes adas
interes antes
66 4
Er roz
Pas to
Pas ser
Ve la
Ve larde
aspi raciÃ³n
aspi rar
convi erten
prot estan
regula dores
estructura l
evacu Ã³
evacu ados
JA P
JA RAN
Ter rÃ³n
TRA BA
TRA LI
cÃŃ vi
hn essey
asi lado
proces ar
And ina
And ino
And rea
Cara banchel
hubi esen
ocupa cional
golpe Ã¡ndo
FRA VM
Hi raki
Her mano
Her moso
Her wig
Her minia
Ib ca
Ib Ã©rico
Mag enta
Mag na
Pon s
Pon tifi
Te jan
Te tuÃ¡n
ami ga
sac aron
escen as
despla zÃ³
significa tivo
significa tiva
significa tivas
tribui do
XI V
pano rama
renta s
enla ces
ore jas
rique za
materi as
resta ura
interven idos
acumu la
acumu lando
crimin ales
colombi anas
For um
GU AR
GU AY
Pos t
afron tan
afron tarÃ¡
emi tidas
ileg ÃŃti
protagon ismo
protagon iz
respal dar
abor da
convoca torias
aplicar ÃŃa
Trans redes
Bag dad
Lis a
Mos trÃ³
Mal partida
PN TR
SA BER
aten dido
deri var
deri van
despe dida
sala rios
quer ella
BB C
Be asain
Be kaa
Cris to
demos trando
incen tivo
tifi cadas
contribu ye
contribu yentes
pati ale
pec tiva
estatu illa
comparec erÃ¡
Ac tu
Ele ction
Gal le
Gal lo
Gal indo
bon ito
elabo rar
elabo rarÃ¡n
huel las
escu do
escu dos
escu cha
diplo mÃ¡ticos
resol viÃ³
respuesta s
mÃ¡tica mente
consen sos
trabaja ra
trabaja ban
norm alizar
afirma ba
afirma ciones
Che baa
John ston
permanente mente
Ko o
Ko urnikova
LIB RA
LIB ERA
flo ra
flo ta
otor garon
otor garÃ¡
anim ar
rebel de
comenta rios
manteni das
vers arios
entrevis tado
entrevis tados
suscri tos
suscri bir
suscri biÃ³
Vir tual
consis tencia
consis tirÃ¡n
BÃ¡r cena
CD U
Nu boso
Nu zman
mue ven
mue lle
radio fÃ³n
ascen der
semi in
acel eren
vati os
vati cin
distribu yan
interpre tÃ³
aprovec hamiento
Provin cia
apoyar la
circuns cri
Bale ar
Far ell
Far macÃ©u
vÃ¡ ez
conser va
licen ciado
levan ta
compon drÃ¡n
Industri as
COO PERA
producto ra
asegurado ras
sorpren der
sorpren diÃ³
sorpren dente
movili zarÃ¡
abandonar lo
bombar deo
Bara Ã±Ã¡in
Fis co
sar las
elem ento
adjudi car
adjudi caron
concer tado
come tiÃ³
come tieron
cap tura
pie dra
liberali zar
favorable mente
Bel trÃ¡n
Gil berto
aran celes
gesti onar
gesti onado
hon da
vari Ã³
sir va
vigi la
exten diÃ³
aumenta do
aumenta rÃ¡n
aumenta ron
Patri a
asesor ÃŃa
PARA GUAY
CAN DIDA
Pen ÃŃnsula
Pen silvania
fre y
tenta tiva
vac ÃŃos
taba co
artÃŃ fice
introdu cir
diseÃ± ar
lide rar
limi ta
limi tado
limi tÃ³
limi taciones
limi tadas
noti ficado
constru ya
constru yÃ³
varia bles
Soci ety
extraordin arias
pronun ciaron
pronun ciarse
TÃ©cni co
Eu la
Eu genia
Ibar rondo
Kar in
Kar ina
Kar ls
Pad rino
Sor dera
divi dido
divi dir
dibu jante
habili tado
habili tarÃ¡
resis tencial
paro v
poni ente
ofen sivo
antigu os
restau rante
Bor retini
Fa bi
Fa bra
Medi os
Ol za
Ol ympi
TELE COMUNICACIONES
Uno first
apor tados
apor tarÃ¡
ape laciÃ³n
bÃ¡ sico
bÃ¡ sicas
rati ficar
rati ficado
cobra rÃ¡n
exclu yÃ³
implan tar
Esto y
discu siones
jurÃŃ dica
fabri ca
fabri cante
fabri cantes
renun ciar
favori ta
acabar on
atenta dos
PRES UP
Ce quera
Flor entino
Oli te
Oli vi
Tec h
apos tado
apos tarÃ¡
apos taron
tz ale
yugosla va
zz i
dej arÃ¡
tale t
insu lares
insu laridad
formu lada
sab rÃ¡
instru mente
instru mento
instru mentos
instru ye
campes ino
origin Ã³
origin ales
origin alidad
busca ban
Alejan drÃŃa
lÃ³gica mente
Hel sinki
ee v
oposi tores
vul ne
arqui tectÃ³n
recomen daciÃ³n
recomen dadas
compara do
chos os
distribui das
distribui dores
viaja ba
ofreci endo
consumi dor
Alex and
Flori ano
asumi do
asumi da
AB RIL
AP V
AP ELA
AP DH
Lan ka
MaÃ± ueco
OP AS
Yo landa
Yugosla va
agen das
apare cido
apare jado
apare cidas
ds p
prac ticas
alrede dores
remi ta
remi tir
retra to
contu sion
prolon gaciÃ³n
prolon gÃ³
prolon garon
prolon garÃ¡
prolon garÃ¡n
Ãºr gico
fil me
fil tros
Latino americano
pier de
pier da
verda deras
produc tiva
estratÃ© gicos
Petro leum
AutÃ³no mas
acoger se
acoger Ã¡n
ELEC TORAL
reivindi can
Bern ers
Bern ard
Ese quibo
LU CHA
Ren au
Ren fe
Ren aul
UP V
ahor rado
econo mistas
hal lado
hal lados
deman das
deman dado
deman dados
asig nÃ³
injus to
reda ctora
dic tado
dic tÃ³
dic cionario
difun dido
maz Ã¡n
resuel ta
fij ados
musul mana
musul mÃ¡n
humani tario
continuar Ã©
seleccion Ã³
conveni entes
cristi ana
satisf acer
230500 16
Ka erques
Ka pitÃ¡n
Pol ti
bec ados
dina mizar
hÃŃ gado
pele a
vali ente
one ador
alber garÃ¡
dicta dura
Ã¡ra te
Ã¡ra bes
matri cu
propor ciÃ³n
compren der
compren didas
bai lar
embaj adores
impu ta
cartel es
aÃ±adi r
disminu yÃ³
abs tuvo
consor cios
Micha il
subven cionado
intensi dad
clima tologÃŃa
protagoni zÃ³
protagoni zado
protagoni zada
caracter ÃŃstica
secuestra r
secuestra dor
sindical ismo
Gre ens
Han s
Ku erten
Ku wa
Mara diaga
Nor berto
QU IMI
Ya hoo
aj ena
aj enos
reparti eron
reparti rÃ¡n
refu gio
liqui daciones
limpi as
bill Ã³n
perci be
perci ben
perjudi car
empren didas
prece dentes
prefer ido
lesion ado
asegurar nos
comerci alizado
solicita ban
propieta ria
obliga tori
honor is
Nicara gÃ¼
AM AN
Din Ã¡mico
LAN ZA
Mac hado
Mau reen
aÃ© reo
ke ting
octa vos
detec tar
detec tado
latino americanos
reve lado
cubier to
pol do
fija ciÃ³n
compar Ã³
compar tÃŃan
perten ecer
mediterrÃ¡n eas
juven iles
Mark t
Mark us
Anti ch
barcel onesa
sospe chas
sospe chosos
justi cial
justi ficÃ³
Ibero amÃ©rica
comentar ista
comentar istas
disciplin ar
conseller s
Ji ri
Ji van
Nos tra
PRE CIO
Sau quillo
TRO PAS
VEN TA
dona ciÃ³n
sel vÃ¡
sel dorf
vu estra
ws ki
reper torio
pabel lones
descen der
descen dido
presen ciales
compen saciones
casti gada
casti gados
cercan as
Informa tiva
Marcel o
Marcel ino
especÃŃ fico
ESTA L
fede rales
Natura leza
mono poli
mono grÃ¡fica
mono polio
transformado ra
subsi diaria
elimina torias
multi media
multi laterales
fÃ¡cil mente
Tecno com
DIS TRI
Fron teriza
Gra cias
Gerar d
Hur ley
MIN I
Ni geria
Sch Ã¼ttler
uch al
cientÃŃ fico
alqui ladas
archi piÃ©
confer enci
die ciocho
dig amos
diversi ficar
sura mericana
noc tur
Franca ise
Todos port
comprobar on
Orden aciÃ³n
Mora le
ESPAÃĳ OL
Tai llefer
quirÃºr gicas
ED UCA
FER IA
MAR TIN
Ob ispo
PRI MA
PRI VA
PRI MER
Wol de
apre ciÃ³
ilu stran
espal das
razona bles
inmue bles
recau daciÃ³n
admi ten
admi tido
contribui rÃ¡
cabal lero
Ã±i ga
bille te
despa chos
estabili zar
estarÃŃa mos
excesi va
preocup ado
preocup ante
mus lo
mus cular
mus culares
audi encias
dispara do
ferrovi ario
mensu ales
orienta r
orienta das
Castro pol
transmi tirÃ¡
segura mente
solucion e
benefici ada
benefici arios
Bien estar
Bien venida
reclama ciones
Ern st
argumenta n
PARTI DOS
acelera do
cobrar la
bolivi ana
herrami enta
Aca pulco
Ace a
Ace uchal
BRA SIL
DRA GADOS
Ger ona
Hor taleza
IÃ±a qui
JU ICIO
Ki la
Lla uradÃ³
NUE VO
Ste phen
Tho mas
Ze is
apara tos
avis o
avis os
lenta mente
psi cÃ³
decre tada
involu c
divul gado
divul gadas
descubri dores
acce de
acce diÃ³
exporta ble
gober nar
imprescin dibles
trÃ¡n sito
minus vÃ¡lidos
minus valorar
dismin uidos
disfru ten
Alta dis
Alta mira
abon os
abon ados
falsi ficaciÃ³n
Luc y
Monta no
Monta gni
Adri Ã¡
condicion arÃ¡
atle tismo
ocasion Ã³
Hai tÃŃ
colap sados
colap sarlas
Domini cana
exclusi vidad
intensificar Ã¡
repercu siones
Ama deus
Agen das
AUS TRALI
Bay o
Bay ern
CÃ³ digo
Emer gencias
Gor don
Gor tari
Gas par
Gas tos
Ini ciaciÃ³n
Mol inos
Mol davia
Nar vÃ¡ez
SER VI
Ton y
Tim es
nÃ³ mina
suel dos
vÃŃs peras
wa ter
osci la
aler tar
aline ar
artes anos
into le
robar le
moles to
proto colaria
univer sali
zara go
bode ga
sustra jeron
sustra ÃŃdos
interrumpi Ã³
neu tra
neu mÃ¡tica
neu mÃ¡ticos
hipo te
culpa bles
iniciar se
Valent ina
intelec tual
RETI RAN
Ries s
Person as
Mujer es
permanec ÃŃa
permanec ÃŃan
afian zar
MIEN TO
Ferro vie
contemplar se
ULTI MOS
identi ficado
discrimina torias
arrastra do
gratui tamente
patrocin ado
BAL E
CM B
Chan d
Chan dro
Dan ny
FAR MA
IR PF
Jara ÃŃz
Llo brega
Mis tura
MAN TIENE
Moro zevi
Vas ca
iles o
idio ma
llos o
deterior os
adu anas
dimen siÃ³n
suministra r
cuban a
destrui das
compatrio tas
cere ales
Colon ya
mercan cÃŃa
mercan cÃŃas
ulti mar
cordo bÃ©s
Mix ta
eritre o
franqu istas
transfer encias
transfer idos
surreal ista
Monc lova
Autori dades
Extreme Ã±a
colegi ales
australi ana
Zapa ta
impuls arÃ¡
peligros o
persis tirÃ¡
someter Ã¡
EMP LE
cinemato grÃ¡fico
progresi va
farmacÃ©u ticas
farmacÃ©u ticos
proporcion e
quirÃºrgica mente
psÃŃqui cos
Bac rot
ClÃŃni ca
Dia blos
On cologÃŃa
Ocho torena
Vu jovic
Vera no
cr Ã³nica
gam ento
depu radoras
orgu lloso
advi erten
ÃŃdo lo
suces or
suces iÃ³n
Ã©is bol
rot undidad
biblio teca
paraguay os
pola rizado
desestabili zadora
mecÃ¡n ico
pernoc tar
pernoc taciÃ³n
perpetra do
tend rÃŃan
excep cionalmente
importa ciÃ³n
veinti cinco
Vila seca
hici eran
Mila gro
manipu lado
Leo poldo
Extran jera
anuncia ba
previsible mente
complementa rias
agrade ciÃ³
reite rada
modifi caron
implicar se
fortun ado
PARLA MEN
venezo lana
nervi os
nervi osa
DemocrÃ¡ tica
Legisla tura
Legisla tivo
Ada ms
Cay etano
CRI MEN
Hol ding
Hab rÃ¡
MON TERO
OPE P
Preci pitaciones
Sha ug
Tara zona
Tara jal
Yu catÃ¡n
af ro
agu an
afri cano
fla grante
gales a
zi begic
deco raciÃ³n
escal onamiento
arres tados
arran ca
asal taron
redon da
requeri da
conec tarÃ¡
contene dor
suda fri
suda mericanos
suple mento
lidera to
milen io
milen aria
moto cicleta
descri p
improvis ado
preocupa ciones
lesiÃ¡s tica
form almente
castren se
mutu a
mari que
Colin as
juris dic
juris dicciÃ³n
millon ario
geno ma
contradi cciones
Vid riera
estipu le
regla mentos
reglamenta ria
Arro ws
ANTER IOR
245 7791
Bom beros
Bom bardier
frag mentaciÃ³n
desequi libra
guatem alteca
UNI FIL
agradeci do
CONS TITU
Torre Ã³n
campeona tos
salari al
bilba ÃŃna
consensu ar
consensu ado
contun dentes
contun dente
dividen dos
Network s
VOLU CION
sierrale oneses
simultÃ¡n eamente
avutar da
Abo gado
Aeros patiale
Dec laraciÃ³n
Fla mengo
Fla marique
Gale go
Gale ga
Isi dro
Lac alle
glos an
jm v
psico lÃ³gico
plÃ¡s ticas
vestu ario
vestu arios
enseÃ± ar
enemi go
esgri mido
inci dido
repor teros
repe tir
repe tirse
adjudica tarios
convali daciÃ³n
disi dencia
teatra l
teatra les
cafe tero
restitu ir
despren derse
desalo jo
preser var
combin ado
Elor za
Elor riaga
puertorrique Ã±o
bata llÃ³n
alican tina
foresta l
foresta les
cardi acos
estri ctas
obe dece
Encu entro
Encu entros
Ingeni erÃŃa
llera to
absor ciÃ³n
absor ber
ESTU DIA
ESTU DIAN
privi legios
gastron Ã³mica
Valde torres
Lee ds
Guar diola
IND US
vanguar dista
ingles a
integr ista
cotidi ana
subray ar
subray ado
encamin adas
cuestiona ba
cuestiona ble
contemporÃ¡n ea
SUB IDA
factor ÃŃas
ecolog ista
ecolog istas
Geof frey
FINAN CI
POLI TICA
Partici paciÃ³n
TECNO LOGI
477 7
614 376
Acu Ã±a
AÃ© rea
Arar teko
AMEN A
BÃ³ dalo
DÃ¡ ger
Fel gueros
Gabri el
HOT ELES
Llu ÃŃs
MÃ¡r keting
Neu er
Nie ves
Ota Ã±es
Pag e
Sele znio
Wim bledon
Zu luaga
bÃºl garo
cran eoence
eusk ald
hui da
sori ano
dedu cirse
inmer sa
invas iÃ³n
inquie tud
repri mir
adul tos
semestra les
pata tas
sucur sales
mata dor
maqui llar
damni ficados
simula cro
noven a
propug na
resu men
hogar es
preven tivo
pose ÃŃa
nacion alidades
bomb ona
ganade ro
Consi derÃ³
Reu ters
Recu peraciÃ³n
Anglo ma
pene traciÃ³n
ultra nacionalista
ENT REN
culmin ar
ensay ista
reunir nos
Lew is
atrop ellos
COMI CIOS
Corri ere
Simi an
Monto lio
inverso ra
Orle ans
leyen da
Auton omÃŃa
Musi mundo
Buena hora
procede remos
NACION ALES
beneficiar ÃŃa
accionari ado
significar ÃŃa
prosi guiÃ³
Urda ci
blanqui verde
AndrÃ© evo
Elec trolu
boni ficaciones
fantas ÃŃa
cÃºpu las
suprimi rÃ¡n
internacion alizar
hospitala rio
dieci siete
legiti midad
Obser vatorio
ENERG IA
Sherry world
autÃ³c tona
venezolan os
cÃ©ntri ca
custo di
veranie ga
sustancial mente
ContemporÃ¡n eo
Ame ij
Asoci ado
AMA DEUS
FN C
Fil ms
Gau lle
Hof fa
Ir landa
Jal isco
Kas parov
Kur t
Ocu pacional
RÃ© gimen
Ronal d
Tall eres
Wander ley
acondicion amiento
bris as
efici ente
geta les
iran ÃŃ
kon do
ole ada
eslova ca
ciru jano
orbi tal
arque olÃ³gicas
anfi tri
incor por
inunda ciones
incÃ³mo da
inmovili zado
rej oneador
repos o
retros pectiva
revan cha
reestruc turaciÃ³n
recomien da
revolucion Ã³
concien ciar
copi as
papele tas
rid ÃŃcu
rigu roso
supl ente
limÃŃ trofes
siam esas
vigÃ© simo
bielor rusa
prohÃŃ be
paradÃ³j ico
desbor da
descabel los
homb ros
impresion ante
precep tiva
nigeri ana
EstÃ© vez
quirÃ³ fanos
tropi cal
recru decimiento
gradu al
contrar res
contraban distas
quini entos
Gold man
mercad illo
abun dan
tÃ³pi co
Vie ques
construc tiva
corri entes
Liber tad
Lei bo
Poll ensa
ANTEN A
INS TA
INVER SION
hostili dades
transbor dador
brillan te
Cual quier
Metu lla
Subra yÃ³
Boeh m
EUS KAL
Mai te
inequÃŃvo ca
UNES CO
subterrÃ¡n eos
califi caron
Pilo tes
generali zada
colocado ras
Aragones ista
Fili pinas
Clau dio
Hospi talet
Cristi ano
PROCES O
LIBER ADOS
gestion adas
suici darse
System s
tabacal eras
pÃºgi l
TELEFON ICA
INAU GURA
PRESENTA RA
DESAYUN OS
Olive tti
CUB REN
MINUS IL
Perico t
glori eta
guatemalte co
inalÃ¡ mbrico
incongru encias
fisiotera peuta
OBSERV ADORES
anÃ©cdo tas
CIUDAD ANOS
Aman ecer
Agi Ã±a
All ÃŃ
Aje drez
Avil Ã©s
Alio u
Ahor ros
Bau tista
Buel na
Balcan es
Bego Ã±a
BÃ¡s quet
Breta Ã±a
Cres po
CÃŃs car
Cest ona
CELE BRA
Due Ã±as
DÃ³n de
Djor dje
Deli bes
Ec lesiÃ¡stica
Eje a
Etien ne
Eliza beth
Figu eres
Fala zca
FRUS TRAN
Frent zen
Gis pert
Gras s
GaÃ± Ã¡n
Gera is
Gob ernaciÃ³n
Gur rea
GÃ¼n ter
Had zibegic
Hini esta
Ibo vespa
JIA M
JOV EN
Kon is
Kel me
Kad una
Kem pes
Kab bah
Kamis ese
Lal ÃŃn
Lli erca
Lec tores
Lendo iro
LÃ¡c teas
Ller ena
Mam paso
Mali aÃ±o
Mul ta
Mof tec
Musta fa
Nal Ã³n
Nig el
Oa xaca
Oz ores
Odi sea
Our ense
Opera dores
Pales tina
Pru dencia
PUE DE
POP ULAR
PÃ¡ra mo
PLEN O
Sesta o
Svo rada
Sando val
SELEC TIVI
Sach s
Tam poco
Tza vella
Tude la
Txe ma
Thura m
URG ENCIAS
UMT S
Vent ura
VÃ¡s quez
Wei z
Wemble y
aer ona
aho gado
crec erÃ¡
cron o
epi centro
eventu almente
fÃ¡r ma
gaseo ducto
idÃ³n eo
jamÃ¡ s
llu via
meli llense
wol rd
wee k
zima bu
detra ctores
detri mento
espon tÃ¡n
espanyol ista
errÃ¡ tica
ertza inas
almi rante
alleg ados
inelu dible
indocumenta dos
repi tan
requi riÃ³
conjun ciÃ³n
seÃŃs mo
prÃŃn cipe
losof ÃŃa
temera ria
paul ista
libi din
roman ce
hacien das
simbÃ³ lico
vitr inas
proxi midad
procesa miento
popul ista
desmin tiÃ³
destitu ido
presbÃŃ teros
sobera no
persecu ciÃ³n
embaraz adas
accÃ© sit
Ã¡ndon os
excur siÃ³n
imperi al
Lafar ge
Espec tÃ¡culos
piern as
saud ÃŃ
cancel Ã³
botel las
dispen saciÃ³n
disconfor midad
Enciclo pedia
cÃ³mpu to
Conven io
Congres os
Intera mericano
Inmacu lada
Regui lÃ³n
Sebas tiao
Gombri ch
acuare las
Alrede dor
Alcoben das
Andon i
Vilabo a
hidrÃ¡u licos
Papaso i
Parkin son
coreÃ³ gra
jerÃ¡rqui ca
celeri dad
Cajario ja
Barrufe t
nostÃ¡ l
Aristi de
Argenta ria
renego ciaciÃ³n
Rogel io
Rochel le
DEBA TE
irrumpi eron
Guine a
Guare Ã±a
Guapor Ã©
Gurevi ch
hurac Ã¡n
Expedi ciÃ³n
ALFAR ERIA
Profes ores
benep lÃ¡cito
Sudam Ã©rica
TIZA CION
TIEMP O
Majada honda
Maharas tra
mujerie go
abandera das
atmÃ³s fera
AzcÃ¡ rate
Azeve do
desafÃŃ os
CONTIN ENTE
DucrÃ³ s
TOMA TE
MAPF RE
Fitch Ibca
Athleti c
NATU RAL
Gidden s
Biblio teca
PRISION EROS
59328 8
TERRITO RIAL
neoyorqu ino
Gazz etta
Pontifi cia
FarmacÃ©u ticos
Karls ruhe
PRESUP UES
APDH A
Renaul t
Greens pan
Kuwa it
DISTRI BU
archipiÃ© lago
Montagni er
Llobrega t
Morozevi ch
Shaug hnessey
CONSTITU IR
Felgueros o
Seleznio v
craneoence fÃ¡lico
Electrolu x
Ameij ide
Djordje vic
SELECTIVI DAD
+ .
/ /
0 25
0 12
1 19
1 000
2 19
2 14
2 13
2 180
3 11
3 90
3 85
3 89
4 14
4 15
4 21
4 34
4 31
4 85
4 86
4 32
4 39
5 14
5 13
5 24
5 26
5 45
5 65
5 68
5 62
5 72
5 73
5 63
5 2334
6 10
6 20
6 25
6 11
6 80
6 75
6 32
6 62
6 46
6 348
7 14
7 50
7 70
7 86
7 95
7 44
7 43
7 82
7 155
8 19
8 10
8 20
8 24
8 22
8 33
8 48
9 30
9 35
9 40
9 75
9 77
9 61
9 68
9 46
9 64
A E
A K
A V
A p
A in
A mis
A lÃŃ
A mer
A parte
A TA
A pun
A gos
A Ã±o
A vin
A compaÃ±
A bri
A leg
A iz
A PA
A manda
A quÃŃ
A PE
A gencias
A PI
A POR
A nia
A EM
A TEN
A cree
A xa
A BIER
A edo
A ene
A firmÃ³
A quita
A signa
A HM
B C
B E
B n
B y
B in
B ad
B lo
B ente
B EFE
B lu
B ul
B esa
B ron
B eta
B Ã³r
B ris
B US
B OR
B RO
B at
B et
B ala
B lon
B OM
B UR
B reda
B ADOS
B ADA
B ats
B lindados
B RICO
C ra
C los
C Ã¡n
C au
C ero
C ag
C CO
C ano
C rÃŃ
C Ã³mi
C ei
C lÃ¡
C rÃ©di
C FOR
C TOS
C MAS
C acha
C acho
C REA
C LAS
C TURA
C VM
D C
D D
D G
D J
D P
D Z
D j
D Ã³
D or
D ro
D ay
D ol
D ario
D AR
D ori
D AS
D ade
D ell
D abo
D ech
D ARIO
D YA
D PH
D ats
D Ã¼s
E C
E V
E t
E y
E ras
E tan
E ros
E vel
E OL
E CA
E MI
E BA
E chan
E dison
E GUN
E CTO
F ay
F ur
F eri
F AS
F AD
F at
F erri
F DA
F RIA
F rom
F und
F iol
G R
G y
G el
G io
G am
G Ã©n
G ari
G us
G ON
G AN
G avi
G RE
G RI
G ris
G ueva
G eles
G ELA
G ALI
G loria
H C
H U
H ara
H at
H ID
H erri
H all
H UR
H IT
H ORA
H ACER
H dp
I E
I le
I ro
I DE
I tz
I CU
I fil
I zaga
J E
J G
J en
J avi
J EX
J olÃ³
J ason
J arrai
J ulen
J urÃŃ
K I
K R
K la
K er
K or
K in
K ing
K ei
K oro
K INTER
K ulti
K ong
K now
K ess
L es
L este
L AR
L LE
L liber
L uego
L are
L illo
L empi
M R
M V
M n
M un
M Ã³n
M ÃŃ
M esta
M em
M ada
M uro
M us
M ase
M EL
M AL
M ÃŃn
M ura
M OL
M undi
M ental
M erre
M erri
M PI
M alta
M asi
M ERC
M eles
M BLE
M NOS
M SF
M Ã¼n
M HI
M ecan
N is
N ada
N aciÃ³n
N ag
N ador
N AN
N AS
N ing
N SI
N all
N arra
N ASA
O C
O por
O ma
O le
O vi
O ran
O FE
O ni
O je
O bel
O port
O VA
O tx
O dÃ³n
O GA
O CU
O brera
O peraciÃ³n
O ZEL
O tto
P un
P ent
P Ã¡
P is
P le
P si
P io
P ia
P uno
P AD
P UN
P CE
P LA
P aso
P LE
P GO
P UL
P sico
P UT
P raga
P ISTA
P INO
P adilla
P ISTAS
P ITAL
R R
R ado
R Ãº
R us
R ON
R OS
R MA
R CH
R UL
R yan
R CP
R ERO
R ÃŃos
S M
S w
S ORG
S el
S tr
S ali
S era
S ay
S uro
S ab
S ul
S AR
S ing
S he
S RI
S chi
S char
S hor
S osa
S tone
S agre
S cario
S elle
S MAN
S ny
S TIL
S MISION
S Ã¼s
S mith
T W
T Ã³
T as
T is
T em
T ru
T ab
T esti
T ul
T estu
T op
T anos
T his
T OL
T at
T rac
T ala
T ide
T ello
T eo
T abo
T ej
T XI
T SO
T uma
T empo
T OLAR
T ORES
T PH
T DV
U B
U rÃŃa
U mbra
U IB
U IP
U BS
U lm
U riz
V on
V in
V ali
V ista
V ano
V ei
V aco
V ERA
V arri
V ELES
W en
W al
W ar
W TA
W ern
W OM
W ap
W AP
W ind
X ep
Y S
Y i
Y en
Y am
Y aÃ±
Y au
Y acu
Y CA
Y ENES
Y ECTO
Z O
Z o
Z an
Z han
Z ona
Z ena
Z edi
Z AS
Z iz
Z ZA
Z agre
Z LOT
a to
a tas
a va
a tes
a ras
a gi
a xi
a der
a gar
a fue
a val
a partamento
a prueba
a hon
a parecer
a vedra
a ventaja
a vecin
a mol
a vales
a Ãºna
a huy
a tribuido
a fortunado
b ada
b ari
b asta
b bar
b ena
b adores
b tel
b ori
b Ã¡l
b lindados
b Ã©isbol
c c
c q
c lo
c esta
c les
c rÃ¡n
c teles
c br
d g
d le
d Ãº
d ras
d ve
d rÃŃan
d algo
d remos
d Ã¡ndose
e f
e ma
e las
e ado
e ter
e us
e Ã±a
e fe
e ano
e gos
e dor
e ves
e cida
e cidos
e pide
e volucion
e quÃŃvo
e tarra
e donia
f s
f ta
f ter
f ras
f arro
f acciones
f asis
f rida
f lor
f acto
f eno
f Ã©rica
f red
f Ã³si
f osis
g g
g ha
g em
g ras
g mas
g asta
g ador
g eli
g ÃŃan
g amente
g ris
g naciÃ³n
h k
h ad
h Ã©
h ones
h ex
h man
h tin
h adas
h ase
h tÃ©
h undi
h uela
h ler
i ar
i des
i ros
i zÃ³
i zado
i zada
i ger
i gente
i licita
j j
j el
j ad
j mi
j una
j antes
j igu
j ito
j erar
j ic
k or
k ur
k nec
k et
k ore
k onia
k um
k uma
k uch
l c
l una
l ce
l entes
l lido
l und
l isto
m m
m la
m para
m ales
m son
m ori
m ellos
m ale
m knec
n m
n au
n ch
n us
n ino
n Ã³r
n ense
n Ã¡u
n autas
n ace
o x
o ÃŃ
o cio
o raciÃ³n
o don
o fici
o vie
o presiÃ³n
o vaciÃ³n
o mÃŃas
p te
p ones
p so
p per
p tos
p io
p Ã¡n
p uni
p pi
p cio
p han
p ina
p hi
p tico
p anos
p he
p ale
p ell
p lÃ©
p tana
p timo
r c
r in
r ri
r ones
r Ãº
r ui
r entes
r ista
r ina
r ini
r eri
r erÃŃa
r culos
r uidos
s po
s ÃŃa
s adas
s tica
s antes
s aron
s ello
s heim
s print
s kaya
t l
t ones
t ko
t une
t Ãºen
u que
u ti
u los
u dos
u ble
u cos
u ante
u fici
u sur
u mbra
u arÃ¡n
u ff
v on
v ele
v ÃŃan
v sesi
v insk
v ski
w Ã¡n
w ay
w art
w ic
x o
x io
x eno
y ra
y er
y ca
y eso
y llan
y ud
z e
z y
z Ã¡n
z za
z pi
z ador
z ambi
z amos
z ego
z ore
z iat
SP A
SP PU
ĠD E
de y
de re
de do
de te
de za
de ban
de cÃŃa
de finan
de vuel
de tengan
de dora
de clin
en en
en er
en el
en ado
en so
en dos
en ba
en em
en cio
en cer
en ven
en men
en zo
en comi
en sal
en cau
en tista
en idad
en tiendo
en marcar
en cerra
en cerrada
en cendido
en claves
en berg
en nense
es por
es ter
es bo
es tran
es cultura
es Ãºs
es plen
es cep
es cultores
es quir
es enciales
es comb
la la
la no
la va
la rio
la dar
la yo
la deras
la dr
la pso
os ca
os cu
os au
os tenta
ci er
ci an
ci tos
ci tas
ci tar
ci tan
ci ero
ci gar
ci val
ci antes
ci arios
ci erra
ci fran
ci ego
ci tando
ra ca
ra mi
ra le
ra dar
ra cionalidad
ra tificada
ra tificaron
on ario
on alidad
ta p
ta se
ta cu
ta mo
ta res
ta par
ta ban
ta tiva
ta bles
ta mb
ta remos
ta nia
ta miles
ta chÃ³
ta jante
ta xis
ta yud
er ma
er mo
er vi
er vo
er ÃŃas
er emos
er gias
Ã³ leo
Ã³ dico
Ã³ leos
ue t
ue las
ue le
or g
or os
or gi
or ista
or gas
or illas
or ÃŃgenes
el in
el les
ER AL
ER TOS
ER ANZA
al ti
al los
al mo
al istas
al tru
al zado
al cista
al fabe
ar co
ar cal
ar gel
ar mario
ar isco
ar rÃ³n
ar teria
ar cÃ³ticos
PER I
que den
que ras
que be
que dando
an si
an tro
an era
an dor
an dan
an ciano
an illo
an gular
an dadura
un de
un en
un er
un Ã©s
un der
un dar
un ismo
un ei
as s
as tro
as tado
as ag
as entÃ³
as estÃ³
as trum
in un
in tu
in ho
in tes
in dis
in son
in sin
in ol
in tran
in fo
in sur
in vir
in curri
in undaciÃ³n
in acep
in actividad
in discrimin
in explica
in directamente
in mensa
in suficientes
in calcula
in interrumpi
in cidencias
in ductores
in supera
in curren
in consistente
in constitucionalidad
in convenientes
in descrip
re f
re un
re Ã±
re ver
re presi
re ya
re pli
re parte
re tener
re tienen
re venta
re partir
re vÃ©s
re tribu
re integra
re paso
re tenidos
re patri
re cep
re peticiÃ³n
re estructura
re inicio
re considerar
re bajada
re elegido
re pasÃ³
re construir
re vivir
re admi
re organizar
re marcÃ³
re caÃŃdo
re mol
re compens
re baÃ±o
re incorporarse
re aseguradora
re equilibrar
re pintada
re orientar
ad ina
ad ÃŃo
ad quiere
ad versarios
LO N
LO VEN
LO GIA
LOC UT
LOC KER
ti c
ti t
ti la
ti me
ti cial
ti miento
ti ros
ti rar
ti rÃ³
ti Ã±o
ti zada
ti cidad
ti ches
ti cismo
ti lly
ti vistas
ent rado
ent raron
ent Ã¡ndose
con e
con sa
con cul
con fun
con segui
con tienen
con desa
con tenÃŃa
con tarÃ¡n
con gre
con solid
con vienen
con jugadas
con decoraciÃ³n
se f
se des
se cado
se vil
se cta
se parÃ³
se quio
se diciÃ³n
se cesiÃ³n
pr ia
di dad
di enta
di ser
di ur
di estro
di soluciÃ³n
di Ã¡lisis
di vino
di secciÃ³n
di zaje
di visiones
Ã¡ ci
Ã¡ ticas
Ã¡ bamos
Ã¡ gono
ÃŃ en
ÃŃ si
ÃŃ bal
ÃŃ rez
ÃŃ seo
ÃŃ geno
co pro
co tos
co jo
co lla
co fra
co cales
co pios
co ck
co giÃ³
co existencia
co lando
co gido
co operar
co accionar
do le
do les
do va
do tal
do cto
do len
do cena
te ar
te mi
te ce
te qui
te cas
te mer
te gui
te gro
te jado
te mÃ¡ticas
te mann
del la
del ho
del sso
is s
is Ã³n
is io
is sa
is Ã©s
is ne
is sen
is mÃ¡tico
is simo
is enberg
pa ba
pa ciones
pa ce
pa qu
pa tera
pa ctos
pa mentos
pa guen
pa gando
pa trulla
por ra
por men
por terÃŃa
por dÃ¡
ca ci
ca Ã³
ca po
ca des
ca mer
ca pri
ca jeros
ca jÃ³n
ca cao
ca tion
to al
to lo
to man
to car
to cÃ³
to men
to tali
to mada
to fru
to mando
to lÃ³gico
ri c
ri k
ri u
ri to
ri dos
ri tas
ri ada
ri min
ri cul
ri amente
ri gor
su pli
su mas
su minis
su mer
su fr
su perio
su iz
su til
su mp
su geri
su gestiona
su frida
su dova
ma m
ma fi
ma tas
ma tÃ³
ma jor
ma quin
ma vera
ma toma
ma cro
ma dero
ma maria
ma gias
ma quetas
li r
li z
li ciÃ³n
li gar
li zo
li dia
li gados
li guera
li mÃ³n
li enzo
cu esta
cu ente
cu enca
cu pÃ³n
cu lum
cu Ã±ado
cu gis
mi a
mi t
mi la
mi re
mi enta
mi rar
mi zaciÃ³n
mi tis
mi endo
mi cro
mi entas
las co
le m
le tra
le tas
le jo
le gen
le ctor
le yÃ³
le Ã±os
le gaciÃ³n
le tismo
Ã© tÃ©
Ã© simas
Ã© rale
da ta
da Ã±
da ban
da Ã±a
da Ã±ar
da costas
Ã± on
Ã± ones
Ã± Ã¡n
Ã± ales
Ã± ena
Ã± eros
Ã± uelo
ro e
ro k
ro ta
ro ma
ro ja
ro cal
ro ton
ro bus
ro manos
ro gados
ro dea
tu re
tu ber
tu cho
tu bos
tu din
tu mayo
tu ania
ha ra
ha za
ha cÃŃan
ha cemos
ha eus
tra te
tra va
tra cto
tra ÃŃan
tra tarÃŃa
tra ÃŃdos
si Ã¡
si dad
si eron
si vas
si ria
si emb
si deral
si erras
si diariamente
si lios
mo c
mo del
mo du
mo cha
mo desta
mo vÃŃa
mo logÃŃa
mo loto
mo ment
vi ga
vi ll
vi ados
vi dades
vi lle
vi endo
vi ola
vi cti
vi tales
vi zca
vi gencia
vi andante
vi alizar
vi erten
vi erno
vi Ã©ticas
vi tÃŃcola
bi e
bi llo
bi rse
bi tales
ones to
lo v
lo do
lo te
lo dos
lo como
lo gan
lo gran
lo mor
lo terÃŃa
no v
no tificados
no llers
ado le
pro pon
pro lÃŃ
pro puestos
pro ezas
pro curador
para da
para ron
para jes
para ÃŃso
po las
po lo
po Ã©ticas
po tecario
pe ores
pe cciÃ³n
pe cho
pe Ã±as
pe chinas
pe tl
res ar
res mo
res enti
res nes
des ti
des con
des se
des mi
des man
des ve
des sus
des ista
des preci
des plo
des bara
des pide
des integraciÃ³n
des cif
des perfec
des confianza
des estima
des vÃŃo
des enlace
des marcÃ³
des leal
des glos
des engaÃ±o
des astres
des cuento
des velar
des codi
des amores
des ertizaciÃ³n
des vincular
pres o
pres unciÃ³n
Ãº as
Ãº tea
ho ud
ho lomor
ter nu
cia miento
cia gos
cia ted
cia madrid
so ber
so mos
so plar
so Ã±ado
so Ã±ar
so pra
so viÃ©ticas
esta mentos
esta cionado
esta remos
esta ndo
esta llido
dos as
fi a
fi Ã³
fi el
fi je
fi bra
fi jas
fi chas
fi eles
fi larse
fi losofÃŃa
me c
me ga
me tiÃ³
me Net
me traje
me yer
par Ã©n
par isi
par Ã¡lisis
par ches
par roso
par cela
par ezca
com an
com pre
com pla
com partido
com plicÃ³
com partirÃ¡
com unista
com putado
com arcal
com unismo
El s
El ÃŃas
El lio
El gor
El ÃŃseo
den ales
den cial
den sidad
ec es
ec to
ec ha
ec ka
ec erÃ¡
ec ker
ec zore
vo la
vo ta
vo tado
vo tarÃ¡
vo tarÃŃa
vo lantes
pu p
pu pi
pu entes
pu diese
pu radora
pu Ã±ales
per Ã³
per mu
per don
per tino
per demos
per gam
per seguidos
per onistas
per misi
per vierten
per filarse
enta do
enta ble
enta miento
ba in
ba za
ba bilidad
ba terÃŃa
ba hÃŃa
ba terÃŃas
ran z
ran ga
ran ts
em y
em er
em paÃ±
em bos
em Ã©ri
em bara
em pieza
em beu
tos o
ten sa
ten dido
ten sen
ten dentes
ten ste
ac as
ac eros
ac laren
ac triz
Ã¡n gulo
Ã¡n eamente
ex ci
ex ento
ex tor
ex ual
ex positivo
ex puestas
ex presion
ex pondrÃ¡n
ex cusa
ex cÃ©ntrica
tor ÃŃas
tor eros
tor eÃ³
tor Ã¡cica
tor Ã¡ci
man cas
man gas
man dan
man tenidos
man ski
man tuviera
FE F
FE STE
go v
go di
go ce
go Ã±a
am ento
am ura
im par
im parte
im puesta
im pedi
im partir
im posibilidad
im parta
im ponen
im positivo
im posibles
im pago
im poni
im ponga
im pac
im presiones
im parcial
im pedirÃ¡
im poniendo
im posibili
im plÃŃ
im pactos
gu erre
gu lamiento
gu aldad
du la
du que
du ran
du dÃ³
du dar
du Ã±a
du ka
du raron
du lce
La den
La presa
La guardia
La zio
La houd
tas ar
uni do
uni for
uni zaciÃ³n
uni ficaciÃ³n
ce y
ce da
ce ga
ce pas
ce je
ce ja
ce dores
ce ladas
ce didos
ce diendo
za miento
za bombar
za horra
pre cin
pre lado
pre juicio
pre decir
pre vino
pre ocupada
pre cario
pre jubi
pre cari
pre toriano
pre toriana
pre embarque
pre estreno
pre caria
pre congresual
pre potente
jo ta
ni fer
ni Ã±a
ni eta
ni Ã±ez
tr Ã©
tr ÃŃa
tr Ã©s
tr ÃŃo
va o
va la
va gan
va ciar
va ciado
va jal
va gin
va gina
ali vien
ali vio
ali zados
ali zadas
23 95
23 88
for me
for tÃŃ
for zÃ³
for ense
for tificadas
for ceje
Es as
Es tr
Es pero
Es quer
Es pele
Es plu
Es colari
Es pert
Es culturas
Es piel
ras ados
ras ante
pi Ã¡
pi ca
pi to
pi rÃŃ
pi lares
pi cad
pi roz
min io
min eral
min eros
min ables
tar y
tar dar
tar darÃ¡
tar dÃŃo
tar rok
qui te
qui tar
qui tan
qui tarse
tro l
ga tti
ga delos
ga vatios
ga zpi
cion a
cion ada
car es
car Ã³
car pa
car ro
car lo
car tÃ³
car tÃ³n
car lista
car ecer
car bon
car ecÃŃa
car gamento
car ismÃ¡tico
car denales
lu s
lu so
lu cimiento
sa cu
sa cia
sa ga
sa ban
sa bido
sa turaciÃ³n
sa ecker
cas ta
cas ualidad
ser es
ser Ã©
ser oposi
ser olÃ³gicas
ser enidad
aÃ± eras
bre tones
pos a
pos ar
pos tu
era ciones
era rio
como tricidad
como didad
ver i
ver es
ver os
ver Ã³
ver di
ver nos
ver saciÃ³n
ver gÃ¼enza
ver bena
rec ta
rec al
rec tos
rec tora
rec tificar
rec rimin
mu ra
mu lo
mu ros
mu Ã±a
lan ce
lan esa
lan gos
lan zados
lan ey
lan cemos
ru manos
ru blo
ru bio
au d
au f
au la
au sen
au htÃ©
can asta
can ario
can dal
can aliza
can alice
na t
na bilidad
na ves
na vie
na vÃŃo
bo la
bo tÃ³
bo tÃŃn
gi era
gi rar
gi oso
gi ore
gi ene
gi tana
gi ev
gi gavatios
tan ta
tan Ã¡lisis
cos tado
cos tera
cos tilla
cos taron
cos ech
ch s
ch ter
ch ero
ch ir
ch ka
ch ke
ch ech
ch ener
gan tes
gan cho
gan ara
gan aba
gan ova
ll s
ll ori
ll ing
este lar
este mos
presi dir
presi dirÃ¡
ia pas
mar que
mar se
mar che
mar ques
mar ion
mar chas
entre ver
seg mento
ero teca
parti rÃ¡n
fu ese
fu gas
fu turas
fu enla
dis c
dis cos
dis uel
dis tur
dis cursos
dis capacidad
dis traer
dis traÃŃan
mente ra
ve g
ve an
ve do
ve te
ve to
ve ÃŃa
ve ge
ve gaciÃ³n
ve cinas
ve larÃ¡n
lar t
lar za
lar gas
lar ts
sus ci
sus hi
sus tancia
sus citada
sus citado
est ino
est Ã©ri
est Ã©tica
cer os
cer Ã¡n
cer tÃ¡menes
ob us
ob tiene
ob tienen
ob viamente
ob tuvi
ob sequio
19 50
19 16
19 28
19 70
19 37
19 77
19 44
19 38
19 55
19 54
19 39
19 59
19 62
19 43
19 09
19 64
ya cimiento
ya ganova
Co ca
Co cu
Co lla
Co ral
Co et
Co ats
Co lones
Co mandan
En el
En fer
En jui
ban e
ban dos
ban don
ban deri
ban deja
pas tas
pas aron
pas arÃ¡n
pas arse
pas ito
pas tiches
pon de
pon deraciÃ³n
presiden t
presiden tas
presiden cias
mis iles
cÃ³ mic
cÃ³ digo
cÃ³ cteles
son ris
son ido
son riente
son oros
gra r
gra ba
gra var
gra dable
xi do
xi ble
Ã©n e
Ã©n fasis
ele vadas
cre er
cre an
cre adas
cre cido
cre aron
cre arse
je que
je ques
je ka
vis tiÃ³
pli ficaciÃ³n
lÃŃ bano
lÃŃ bero
lÃŃ feros
lÃŃ vares
Con il
Con clui
Con cepciÃ³n
Con federal
Con cordia
Con trol
inter fer
inter ferencia
inter regional
inter inos
inter nadas
inter conexiÃ³n
inter nas
inter institucional
inter nados
inter ventor
inter bancario
inter rogados
medi r
medi rÃ¡
medi rse
medi anoche
ju Ã¡n
ju gue
ju ventu
ona ba
ona tos
tal ones
In c
In t
In fo
In dica
In versiones
In dra
In versiÃ³n
In dependientes
In muno
In migraciÃ³n
In copro
In vierno
ne gar
ne gando
ne garse
tin e
tin arcÃ³ticos
sobre madre
posi um
posi tary
ber t
ber es
ber ÃŃ
ber eau
ber eber
ber nat
ces or
mos os
mos fÃ©rica
tri to
tri pli
tri mestra
tri vializar
zar es
zar ro
tura do
ven s
ven ti
ven dÃŃa
ven ÃŃan
ven didos
ven dÃŃan
gen y
gen dar
gen eren
gen Ã©tico
der en
ese ta
tras plantes
adri Ã¡tico
presenta ran
Re alidad
Re laciÃ³n
Re bel
Re publi
Re iz
Re villa
Re copa
Re conociÃ³
bu ti
bu ro
bu fe
bu jos
bu ka
bu ler
contra e
contra bajo
contra taciones
contra ÃŃdos
cip Ã³
fer ry
qu esta
qu esa
qu ismo
mas ÃŃa
mas tecto
mas aje
ja miento
ja yo
cal u
cal or
cal zado
cal cular
cal entamiento
Se gui
Se guirÃ¡
Se vod
Se cades
titu laridad
Go l
Go zÃ³n
Go bain
lla me
lla ga
lla je
lla mas
lla maron
lle m
lle ven
lle vadas
acu de
acu den
acu chi
acu ciantes
cado ra
sin tiÃ³
sin ger
sin cera
sin gular
sin ergias
infor man
infor mada
infor mados
infor madores
Mar e
Mar s
Mar is
Mar ca
Mar ciales
Mar ty
Mar kovic
Mar cÃ©n
Mar quÃ©s
Mar yayun
gar os
gar in
gar impe
fa x
fa una
fa ciales
San ter
San cho
San tini
San dr
San roma
San juÃ¡n
ros i
ros ales
ros ados
bli a
Al t
Al ha
Al ter
Al ves
Al def
Al ine
Al fÃ©
Al ston
Al terna
Al lian
Al mazÃ¡n
Al fred
Al sacia
ista d
ag ria
ag onal
ag resi
ag onÃŃa
ins trui
ins pec
An ke
An asag
An ÃŃbal
An tinarcÃ³ticos
dÃ³ s
ez o
ez ana
rio zar
mer ecida
ab e
ab ar
ab Ã¡
ab ren
ab domin
ab und
ab rasados
fr Ã¡n
fr entes
ina movi
ina movilidad
men al
men co
men cla
men cionar
men tira
men dicidad
CO P
CO LO
CO PA
CO LE
fir mes
pen alizada
pen alizaciones
pen timiento
cono cidos
cono cidas
cent rados
cent Ã©simas
dar te
dar ÃŃa
dar nos
Vi da
Vi tor
Vi Ã±a
Vi tali
Vi et
Vi dal
Vi cioso
Vi rus
Vi Ã±al
Vi duka
cons tantes
cons ciencia
cons trucciones
hi er
hi lo
hi tos
hi ana
hi ts
hi riÃ³
hi erro
hi llerato
hi giene
199 172
comuni caron
ES AS
ES TO
ES LOVEN
us Ã³
us ton
us trada
esti mar
esti mado
esti maron
esti gmas
cen ar
cen diendo
cen sados
produ je
produ ctor
produ cidos
Uni ver
Uni taria
Uni credi
pla do
pla ceres
pla gados
fec to
Pa ca
Pa pel
Pa pal
Pa tentes
Pa rana
Pa uner
bar roca
bar reras
bar bari
mes u
10 34
10 31
10 86
10 69
var Ã³n
uel ens
Par ecÃŃa
menta les
val ho
ase di
ase verÃ³
RA DI
RA DO
RA DIO
20 2
20 4
20 5
20 35
20 27
20 90
20 37
20 89
20 48
20 53
20 72
20 41
20 71
20 88
20 56
20 6348
tÃ© tico
tÃ© petl
direc ciones
equi dad
equi pare
equi pados
pri var
pri mida
fe iro
fe udos
il en
ul terior
cor o
cor tada
cor tarÃ¡
cor rido
cor onar
cor robo
cor rer
cor bata
ano v
ano tÃ³
ano mal
ano tarse
person arÃ¡
person alizada
EN DES
EN KAL
EN GOA
plan tar
plan tado
plan eta
plan tillas
Na tale
Na pole
Na vegaciÃ³n
indi gnaciÃ³n
cul ta
cul to
cul minaciÃ³n
cur rÃŃ
cur sÃ³
cur sil
cur sar
cur sado
hab len
forma ciones
actu ado
actu ando
actu ara
actu aron
Por ta
Por tas
ple ito
bili zaciÃ³n
bili arios
jer ingui
jer ezana
dio vascular
ope rando
antes ala
porta da
porta fo
cel ls
ton as
ini cios
ini ciaciÃ³n
Ca pa
Ca mi
Ca pu
Ca ban
Ca talÃ¡n
Ca guas
Ca zor
Ca pell
Ca dete
Ca uet
Ca pria
Ca parroso
Ca zabombar
muni ciones
deci lla
deci didos
deci sivo
Jos emi
30 1
30 6
30 38
30 73
alu mbrado
alu minio
Bar Ã¡
Bar ber
Bar be
Bar rios
Bar rei
Bar queri
Bar rera
Bar tome
Bar baco
Bar eev
be a
be e
be ar
be tes
nos t
cri tica
cri ticas
cri anza
consi deren
ON I
ON S
ON PE
ON ICA
Mi emb
Mi ka
Mi tch
Mi btel
Mi reya
Car r
Car t
Car ol
Car bal
Car od
Car ls
Car cedo
Car eers
Car vajal
Car valho
Car diovascular
De cugis
De puradora
De laney
De larts
De positary
ena zi
reg ado
reg adÃŃo
tran d
tran vÃŃa
gran ja
gran jeros
gran dense
gran adina
Val decilla
rÃŃ quez
Ju garÃ¡
Ju Ã¡rez
Euro mediterrÃ¡nea
TA SA
TA CIONES
TA DOS
TA MIL
mili tÃ³
mili cias
mili tarÃ¡
mili tancia
respon dido
respon derÃ¡
cha lar
Ar que
Ar iste
Ar chi
Ar ella
Ar tistas
Ar ms
Ar enas
Ar nol
Ar bitros
Ar ranz
Ar muÃ±a
sÃ³ lidos
situ Ã¡ndonos
14 99
pun tas
pun tero
reci ba
reci pi
reci bo
reci tados
reci tarÃ¡n
reci bÃŃa
15 4
15 80
15 76
15 58
esi onado
expli que
25 7
25 9
25 96
reuni dos
mayor ista
mayor ÃŃas
mayor istas
bas an
bas ada
bas tantes
bas aba
tÃŃ o
tÃŃ colas
tÃŃ picas
So y
So ta
So lo
So tel
So ir
So ko
So viÃ©tica
So moto
So lari
So phi
So lano
estu vi
estu ve
estu diÃ³
cam ping
cam pamentos
organi zÃ³
organi zando
gos a
gos pel
nu las
nu mer
proyec ciones
proyec tar
proyec til
CI TA
CI AR
CI PA
CI CL
CI ENTO
CI NDI
Li co
Li bre
Li aÃ±o
Li bia
Li cencia
Li ech
Li ppi
Li tuania
eri trea
diÃ³ xido
Le onar
Le tamen
Le htin
Le gazpi
ren diciÃ³n
tel l
tel eros
AR EN
AR RO
AR IA
AR ELAS
Ci r
Ci uda
Ci uta
Ro ta
Ro que
Ro dol
Ro dolfo
Ro ux
Ro meo
12 2
12 6
12 9
12 730
cho car
asegu rada
DE SP
DE OS
DE TEN
DE CLA
cin da
cin era
As es
As sa
As unca
As hk
As sump
sig las
sig no
versi ble
13 4
13 6
13 13
13 38
13 68
13 78
13 389
edi a
edi ficaciones
edi toriales
adi e
adi cional
representa r
representa do
representa ba
representa tivos
representa ron
tem plado
Man n
Man u
Man za
Man che
Man comunidad
Man chÃ³n
vin e
vin culÃ³
ori os
ori les
ori zada
ori entÃ¡ndose
Po t
Po deres
Po poca
Po vill
jue guen
dida tura
op ten
op tar
op tan
op ina
op tÃ³
bos nio
bos cq
final ista
AN AS
AN CE
AN DES
lado ras
via jeros
fal sa
fal laron
fal lido
fun dado
mon te
mon tes
mon jes
mon arca
mon ial
mon seÃ±or
mon edas
arro jaron
ir responsable
ir renuncia
ir onÃŃa
ir undar
bol erista
AS I
Di cha
Di cho
Di fusiÃ³n
Di Ã³s
Di mitri
Di bujos
Di vine
Sa Ãºl
Sa via
Sa mayo
Sa avedra
Sa fta
Sa wic
Sa under
Sa mitis
Sa hara
sos tenidos
Ã³mi cas
social ismo
sen tirse
Gu ga
Gu erre
trabaj en
trabaj Ã³
trabaj amos
hu mi
hu ana
hu manas
Ex posiciÃ³n
fran c
fran chi
celebra ran
apro baran
respe tarÃ¡n
CÃ¡ ritas
IN E
IN EN
IN MI
IN SU
IN FRA
IN TOS
IN DIA
IN TUR
hos teleros
18 2
18 4
18 30
18 60
18 86
18 64
50 3
50 7
50 26
anun cios
Cas i
Cas ado
Cas siÃ¡
Lu que
Lu ca
Lu cha
Lu ck
Lu cinda
seman al
lib rerÃŃa
16 5
16 16
ino cencia
afir maron
afir maciÃ³n
200 9
Ch ron
Ch enel
Ch iapas
Real mente
eli e
cambi e
cambi Ã³
trans acciÃ³n
trans portaba
bri llÃ³
van e
segui rÃŃan
ica mente
tera pia
tera pÃ©
obje tiva
Juan es
Juan ito
conside rada
17 8
17 9
17 00
17 30
ron i
ing s
contin entes
contin Ãºe
contin Ãºo
loc ados
AL DA
AL ZA
AL BA
AL JU
ciar ia
ÃŃn fi
ÃŃn tegro
Cu anto
Cu ervo
Cu ass
Cu auhtÃ©
desta cadas
euro pa
euro diputado
fo ur
leg rino
nego ciados
COM PE
din and
din acel
din osau
che co
OS ICION
Inter profesional
Inter cultural
Inter parlamentaria
Inter sindical
hacer la
partici pe
PS A
PS N
impor tar
of rez
resul te
desarro lle
recor rÃŃa
recor darÃ¡
recor rerÃ¡
recor ridos
dan Ã©s
dan zas
manif estarÃ¡
manif estan
tener se
tener lo
abri go
abri endo
abri rse
Cor p
Cor y
Cor re
Cor mar
Cor ina
Cor ral
Cor eto
Cor chero
diri gen
vol vimiento
vol tios
san ar
san to
san amente
san et
san tia
san edas
secre ta
secre tos
secre tas
secre tarias
ayu dÃ³
ayu darÃ¡
ayu dantes
sur gen
sur gidas
sur gir
institu cion
pes cadores
pes queros
conce der
conce dieron
conce derÃ¡
conce derÃ¡n
Can del
Can to
Can ales
Can ga
Can cillerÃŃa
Can didatura
Can franc
peri feria
baj an
auto bio
auto escuela
auto mÃ¡ticos
auto estima
auto determinaciÃ³n
auto cares
Pro tagon
Pro cesos
Pro mpe
Pro vea
Pro babilidad
ben s
cl ina
Si ro
Si dney
Si mic
Si gÃ¼enza
Si mancas
centro izquierda
Mon de
Mon tilla
To tal
To mas
To wn
To mmy
To mellos
To isÃ³n
ves pertino
decla ra
decla rarÃ¡
decla rarse
compe tido
compe tencial
denun ciarÃ¡
inte grÃ³
log ro
log ista
28 5
Tele diario
Tele bras
necesi te
necesi ten
Ra quel
Ra cismo
Ra buka
ge i
visi bles
visi tada
visi tarÃ¡n
visi blemente
24 9
24 38
24 92
segu ÃŃa
21 13
21 2395
Lo tt
cis terna
progra mar
perio dos
perio dicidad
anti cipado
anti guas
anti cuerpos
anti inflama
anti aÃ©reos
emb la
Esta dÃŃstica
Esta dÃŃsticas
RE D
RE CI
RE MI
RE TRAN
RE VOLUCION
RE MHI
Ser ri
Ser gue
Ser vera
Ser guÃ©
Ser gei
dro mo
Me dalla
Me hendra
Me dve
Me gha
Me yllan
Me ilen
Me dinacel
permi tÃŃa
permi tirÃ¡n
permi tirse
permi tida
permi tiera
his pal
his panos
estable ciendo
candida ta
22 63
Bra ga
Pe Ã±a
Pe tle
Pe layo
efec tÃºa
efec tÃºen
ofi cio
sal ÃŃa
sal les
sal dÃ³
sal van
sal vam
derec has
Cent ros
Su va
Su fÃŃ
Su bida
Su resnes
TI ERRA
TI VO
alcal dÃŃa
tir Ã³n
tir me
medio ambiente
Cam pi
Cam ino
Cam dessus
bal l
bal los
bal dosa
domin a
domin ar
domin ado
domin ador
paci ficaciÃ³n
tur ca
tur bul
fron tÃ³n
fron talmente
fron dosas
70 78
espaÃ±ol ista
Fu en
Fu ser
Fu encar
Fu turo
Bo u
Bo er
Bo lo
Bo das
Bo tella
Bo uch
he v
he ad
he lado
he mato
he gem
he matoma
stri pte
26 1
26 2
26 5
26 6
26 8
26 47
26 62
26 540
OL IM
dispu te
dispu tadas
dispu tarse
gui do
gui ada
gui adas
gui Ã±ol
gui tarra
AC S
AC CI
AC US
AC TU
AC CID
Ma ci
Ma ran
Ma tos
Ma dele
Ma eso
Ma isto
RI R
RI MES
dia mantes
compro bÃ³
fra c
fra y
fra se
fra ter
investi gue
investi gando
adiÃ³ s
Min gote
Min orista
dese aba
termin en
termin an
termin aba
AD N
AD O
AD R
AD ES
AD AS
AD OR
AD VI
AD IEN
ei pts
ris tÃ¡n
reti ra
reti raba
solici tan
Or tu
Or lando
Or fila
Or tiz
Or duÃ±a
Or questa
Gen eraciones
jui c
tele ras
tele alarma
lamenta ble
lamenta remos
35 7
35 8
35 9
US GELA
ep iso
escri tas
escri ban
escri biÃ³
ine fica
mejor en
mejor Ã³
40 6
40 60
Am y
Am ador
Am paro
Am Ã©li
Am onesto
Am beres
Am elie
depen derÃ¡
depen derÃ¡n
depen dienta
propi cia
propi ciÃ³
propi amente
propi cien
propi edades
resi dÃŃa
resi dirÃ¡
resi dÃŃan
ampli Ã³
ampli ada
bus can
bus cadas
bus cadores
gal Ã³n
27 2
Chi co
Chi roni
recu bier
tÃ¡n eas
deba ta
deba tido
deba tirÃ¡n
bien venida
exis tido
exis tirÃ¡
dica mente
Ri us
Ri ka
Ri quer
Ri madero
Ri chter
Ri jeka
UN TA
UN IDAD
ger s
ger mana
pan y
pan or
pan ema
convo y
convo can
convo carÃ¡
contro lan
contro lados
contro ladas
contro lando
opera cional
Au gu
Au cat
Gar bin
Gar zÃ³n
Gar eth
Gar ciagos
Per es
Per fecto
CE M
CE CEI
CE TAC
CE PSA
OR T
OR DEN
OR DU
sub mar
sub zonas
sub orbital
sub sanar
incre mente
pedi remos
destin e
destin arÃ¡n
autori tario
autori zÃ³
autori zados
Ad quisi
Ad juntas
Hu ber
Hu mana
Hu ertas
Hu manes
Hu bbar
Hu wart
Hu lls
ale jado
ale daÃ±os
ale jados
insta lados
insta ladas
continu os
80 2
afec ten
afec tarÃ¡n
afec tarÃŃa
consu men
consu mada
consu mir
Mo vsesi
Mo tiÃ±o
Mo isÃ©s
Mo biliarios
condi cionado
Ale jos
Ale tta
Ale ix
ade cuad
recono zca
recono cimientos
recono ciera
Ins isti
Ins pecciÃ³n
Ins frÃ¡n
Ban cro
Ban zer
Ban caria
aca ten
aca be
aca ben
aca bados
aca bada
aca ecidos
aban ico
pren dida
pren sas
pren dizaje
Universi tat
Universi ty
funcion ando
90 1
90 3
90 8
90 36
Em pera
Em pordÃ¡
No e
No el
No ga
No boa
No mencla
ordin arias
rela ta
rela cionado
seis cientas
LA BO
LA RAT
evi den
evi tarÃ¡
evi dencia
Ã¡r bitros
xico dependencia
Un da
Un espa
cali bre
cali ficada
favor ecido
Mu y
Mu estra
Mu bara
Mu ller
sali das
anza ra
conta gi
conta bles
conta dores
conta gio
conta giados
conta bilizÃ³
vir tuales
jus tes
jus tifican
llevar la
llevar lo
Pu es
Pu che
Pu yÃ³
Pu tumayo
Pu jayo
mal eta
mal trato
mal tratada
mal versaciÃ³n
encontra rÃ¡
encontra mos
encontra rÃ¡n
encontra rÃŃa
Pi co
Pi Ã±e
Pi ech
Pi llado
Pi tko
Pi enso
Pi mienta
Pi zarro
rue do
selec tos
Des file
Des cartÃ³
lor ÃŃa
alcan zarÃ¡
alcan zados
diver tirme
mejo rarÃ¡
cumpli rÃ¡
cumpli endo
cumpli rse
cumpli remos
PA PEL
nar raciones
comple tan
comple tÃ³
comple tada
comple taron
comple mentario
34 4
34 20
34 11
34 28
34 58
Bu cra
Bu eren
Bu gatti
RO VI
RO MPE
at Ãºn
at lÃ©tico
at lÃ¡ntico
at mosfÃ©rica
mara tÃ³n
poli deportivo
mostra rÃ¡n
enfrenta do
preten siÃ³n
preten didos
plante e
plante an
plante Ã©
plante arÃ¡n
Pal ermo
igu en
jos a
siste mÃ¡tico
proce dÃŃan
Az ores
Az kar
Az uque
Az piroz
TE A
TE Z
TE CCION
TE GIA
TE KO
bor do
vie jos
particip adas
distin ciÃ³n
31 198
Gran ja
Gran adilla
Is las
cau ciÃ³n
cau ce
cau dales
Aso ciated
Do ble
Do cente
Do mora
Do uble
Do isne
Ru sa
Ru ck
Ru bio
Ru bens
redu zca
redu ciendo
redu cirÃ¡
Minis tro
fri aldad
pin celadas
desa parecer
desa gradable
desa prendizaje
much ÃŃsimo
much ÃŃsi
genera dos
genera rÃŃa
45 79
et c
recha zadas
75 9
Pre vÃ©
Pre historia
Pre tender
Pre mios
Pre cauciÃ³n
cta va
cta das
orden ara
orden aron
orden adamente
conven cimiento
isla o
isla v
obli gados
agra va
agra var
agra daron
agra dable
apli ca
ig encia
ig ados
aso cia
aso ciado
manda tarios
ata cado
ata caron
ata caba
vÃŃ en
vÃŃ veres
regu ero
regu lados
pare d
exper ta
CON CAC
CON FER
CON TROL
recupe ra
recupe rados
aco pla
aco giÃ³
aco gidas
aco plÃ©
ejer cen
ejer cÃŃa
ejer zan
lÃ¡ ser
lÃ¡ mpara
capaci tado
capaci tados
capaci taciÃ³n
pul mÃ³n
pul monar
premi ar
premi ados
Com un
Com ple
Com plu
Com unista
Com pany
poner la
considera ble
dirigi eron
MÃ¡ x
afi ciones
afi anzara
sol dado
sol vencia
sol ventÃ³
Ha cia
Ha med
Ha lard
VI OL
VI VI
VI ETI
VI ENTO
lin k
lin de
lin es
lin dante
pal marÃ©s
pal ÃŃen
utili ce
utili zaron
utili zarÃ¡
utili zando
utili zaba
tipo logÃŃa
coti ce
coti zar
coti zÃ³
coti zaba
deli ra
deli cada
deli mitaciÃ³n
chi t
CA TA
CA PA
CA CIONES
CA BLE
CA MPE
CA PITAL
mb rÃ¡ndose
defin irse
reco bra
reco locados
habi taciÃ³n
habi tadas
viol entas
presu mi
gol pistas
Ho ward
Ho uston
ala vÃ©s
ala bÃ³
abier tamente
ofer tado
ofer tadas
parlamenta rias
abandon en
Men or
Men delsso
blo ques
sÃ¡ bados
empe za
empe zaron
empe zando
empe rador
empe zara
98 3
DI FI
DI DO
DI BU
DI VISION
LE C
LE AG
LE HER
LE GAL
ie la
vuel tas
vuel va
vuel ven
vuel van
conclu yan
recibi endo
falta ba
Du que
Du ma
Du essel
Du isenberg
Du boscq
TO RIO
TO DOS
TO GRA
gel ista
colo ca
colo car
prepara n
prepara das
prepara dor
Ara Ã±uelo
MA TIL
MA YO
MA TAR
vice versa
comp rado
comp rada
Cons tru
trasla de
trasla dan
37 4
37 9
37 10
ESP EC
ESP ERANZA
ide ales
conver sÃ³
conver gencia
conver saron
MI A
MI RA
jar se
esca para
esca pada
modi ficÃ³
modi ficado
baja ban
Rey nol
constitu ir
constitu idas
29 3
29 12
29 970
85 3
85 200
NO TA
defen so
defen dÃŃa
defen didos
defen siva
defini da
Fi lip
Fi garo
Fi dalgo
ko i
ko dra
zan jas
conden en
89 7
89 46
Gru pos
IB GE
Tor rado
acer can
amena zadas
amena zantes
Chile cito
Institu ciones
Institu tos
At letismo
caus aron
86 2
95 2
95 3
95 8
ocup ados
ocup ando
49 457
Sal man
Sal daÃ±a
ka ia
encar gos
condu ctores
condu cirÃ¡
vio lado
mexi canas
bara to
bara tos
bara jan
minu ciosa
quin quen
Pala bra
Ãºltima mente
ID ERA
Itali ana
Itali ano
Rob inson
elim ine
inten sas
prote gieron
provo que
provo can
provo carÃ¡
provo cando
terri toriales
electo rado
IA E
ejecu tiva
ejecu tivas
determin en
determin an
prÃ¡c ticos
liber e
liber Ã³
liber iano
acep tada
acep tarse
gus tos
gus tado
tÃ©r mico
intenta ba
intenta rÃ¡n
intenta remos
intenta ndo
volunta rio
volunta riamente
perior bitales
100 2
100 3
69 4
69 37
CÃ³r cega
OM B
tino tti
bur gues
Ba jo
Ba ins
Ba ena
Ba tista
Ba az
Ba varia
Ba zÃ¡n
Ba lance
Ba lart
CH IP
CH INA
CH EZ
CH ET
ts ch
tenÃŃa mos
sigui eran
sigui esen
colec cionistas
colec cionista
garanti zÃ³
garanti zados
99 9
Fer rovi
Fer dinand
avan za
avan zada
avan zan
avan zados
avan zadas
oc t
corpo ral
Ber til
Ber uff
Ber rocal
Ber riozar
Ber trand
Ber tinotti
Gui di
Gui llem
pl ista
enten dÃŃa
enten dida
enten dieron
extra Ã±as
extra Ã±e
extra diciÃ³n
extra viado
extra vagan
facili ta
facili tÃ³
facili taba
facili tara
Andalu za
Portu aria
Portu guesa
Ciudad anos
desem barco
desem bolso
financi e
36 2
Jus t
Jus ticial
SE GU
SE PTI
Ti usan
Ti enen
Ti embla
Tra cey
VE M
anali zado
anali zaron
anali zando
concre tado
concre tara
cola ban
Comi enza
valo ra
valo rada
realizar le
Zara obe
Zara tamo
usu ra
enti erros
portu arias
acor dada
acor dadas
obs tacu
obs esionado
denuncia ra
coinci dirÃ¡
Fo ot
Ja Ã©n
Ja guar
Jes se
Plan eamiento
eo o
exi jan
exi liÃ³
laboral ista
competi tiva
competi dor
evitar ÃŃa
ME DI
ME Ãĳ
ME CAN
ME TAL
PE P
PE DI
PE TROL
acompaÃ± aron
hen g
vera cidad
sufri dos
consecu tivos
Bal elo
Bal neario
Bal tasar
Tri anon
atra er
atra cciÃ³n
atra cadores
atra ctivos
atra ctiva
cru z
cru zaron
glo is
red unden
red unde
nomin aciÃ³n
nomin aciones
aus ente
aus entes
char co
crear lo
Angel o
pens ada
pens ando
persona je
ofrec ÃŃa
ofrec ÃŃan
38 8
Pri x
Pri ce
Pri vadas
Pri mat
Pri mavera
SI CION
ingres aron
coordin arse
ejerci da
ejerci tÃ³
Ai re
Ai bar
Bi bi
Bi osca
Bi blia
FA ES
Ta miles
Ta pia
Ta falla
Ta baco
Ta kuch
fes tivos
incorpo ran
incorpo rarÃ¡n
cuesti onamiento
comis aria
guay an
tÃ³ri ca
tÃ³ri cos
68 20
Rio grandense
bras ka
hor ror
hor tofru
ocurri das
ocurri endo
super en
super vivi
logra ra
logra dos
logra rse
impli que
impli can
clasi cista
portugu esas
NE OZEL
cris paciÃ³n
cuad ran
nota blemente
novi cia
calle jÃ³n
Villa mor
Villa toro
falle cida
53 24
53 154
BI E
BI H
BI Z
BI ENES
Cel drÃ¡n
PR C
PR YCA
Qu in
alter n
contem ple
col isi
reser var
reser vado
recla mo
recla man
recla maciÃ³n
recla marÃ¡
sustitu to
sustitu toria
sustitu irÃ¡
decir lo
efectu arÃ¡
39 62
87 4
SU CES
SU BIO
Za vala
apar ezcan
mÃº sico
mÃº sicas
alo v
alo jar
alo jada
vic ecan
nombra r
nombra da
nombra dos
extre mo
auton omÃŃas
reno var
locali za
locali zar
locali zÃ³
locali zados
locali zador
apoy ada
apoy ando
elimin ada
elimin ados
47 4
Don na
Don ante
edu cadora
sue los
sue ca
sue Ã±os
energ ÃŃas
impul sÃ³
impul san
fort una
comprome ter
comprome tidos
comprome tiera
consul tivo
consul tivos
ITA N
TER A
TER CER
dra ma
dedi caron
elo giÃ³
refor mu
refor zado
refor zada
pros pere
pros iguen
Entre tanto
desarrolla dos
FC C
Ram ÃŃrez
bes arse
denomin a
denomin Ã³
argent inos
descar te
descar to
descar tan
descar tado
guar dar
guar dado
guar dias
largo metraje
197 1
finali zaciÃ³n
finali zado
nega tivamente
derro cado
derro tÃ³
derro teros
especi ficar
especi alizaciÃ³n
especi alidades
adelan ten
adelan tado
adelan tada
adelan tarse
05 2
Cha pare
Cha martÃŃn
DA CION
DA TOS
Pr yca
Ven e
Ven cedores
invi tarÃ¡
confi ado
confi denciales
fren en
fren Ã³
fren ado
construi rÃ¡n
negociar ÃŃa
Ben edic
Ben issa
FI LO
FI FA
GO VER
GO ENKAL
PI ZZA
mundial ista
ubi ca
ubi can
ubi caciÃ³n
ubi cados
demostra ciones
lig amento
Colo mbo
triun f
monta Ã±eros
libera da
libera rÃ¡n
Ala mo
Ala vÃ©s
Cla usura
Fin arte
Fin aliza
Ga os
Ga tica
Ga larza
Mor Ã¡n
Mor elos
Mil Ã¡
blan do
fac tible
fac hadas
refer encias
refer idas
refle jado
diÃ¡ metro
patr ona
patr ono
patr ullas
pagar les
pagar Ã©s
supe raciÃ³n
supe rada
interes Ã³
interes ado
legisla tivo
Cal zada
Cal vario
Cal lizo
Er kore
Fl yn
Pas iÃ³n
Pas toral
Pas telerÃŃa
Ve ja
Ve gas
Ve inti
Ve gara
Ve getales
Ve lasco
convi ertan
Comer cial
trib una
consigui endo
mejorar la
mejorar Ã¡n
regula ridad
evacu aron
Bos co
Bos ton
BAR DEOS
JA M
JA PON
TRA DICION
agua cate
cÃŃ rculo
cÃŃ rculos
gri tos
asi entos
asi Ã¡ticas
proces os
menor quin
Cara col
golpe ada
FRA GA
Hi zo
Hi potecario
Her rÃ¡n
Her manas
Her zego
Mag istra
Mag nus
Mag giore
Pon tes
Pon tal
Res ino
Res altÃ³
sac ri
sac ado
art za
petro lero
petro quÃŃmica
despla zar
presentar las
MEN TAN
PAR TEN
Sen idea
renta bles
renta bilizar
enla za
enla zarÃ¡
toma ba
toma tes
toma mos
tercer os
futbol ÃŃstico
pasa jero
pasa jes
acumu lan
acumu lar
acumu lÃ³
acumu larÃ¡
crimin alidad
For ges
For etz
For mentera
GU IP
His usa
afron tado
emi tido
emi tiÃ³
emi tidos
emi graciÃ³n
emi grÃ³
emi grar
reli eves
queda ban
culos is
respal dos
respal dan
respal dando
abor tado
abor dÃ³
Josep h
organizado ra
aplicar se
88 77
SA TEZ
aten diÃ³
aten dida
aten diendo
aten uante
deri vada
asu ma
despe gÃ³
quer er
agres ores
urban a
urban as
urban ismo
urban ÃŃsticas
urban ÃŃsticos
aprobar Ã¡n
profes iÃ³n
alcanzar les
Domin ic
pregun tar
pregun tarÃ¡
pregun tarse
Prin cesa
Be h
Be al
Be bear
th ar
demos traba
esp Ã¡rra
incen dios
contribu yÃ³
contribu yeron
separa r
separa ba
separa das
separa tista
separa tismo
litera rios
descono cida
descono cidos
estatu s
agru par
agru pan
indica tivo
telefon eÃ³
existen cias
Ac adÃ©
Ac cival
EX AM
EX CEPTO
Gal ecka
Mari chalar
PÃ© bereau
PRO TES
PRO YECTO
Tel em
ZA BAL
aero lÃŃnea
bon dades
elabo ra
elabo rando
iden tidades
escu chado
infra ctores
infra valoraciÃ³n
secu estro
secu lari
tradi ciones
poten cias
poten ciarÃ¡
ceder se
pasar elas
masi ficados
norm almente
John s
bloque ar
magistra l
GI F
GI OS
GI RO
Ko vac
Ko hler
LIB RAS
MO VIL
MO DIFI
Mas carÃ³
Mas sanet
Rec eipts
flo ja
otor gada
cic los
cic letas
anim ado
anim oso
sim posio
sim plificaciÃ³n
sim plista
some tidos
some tidas
comenta rio
gobern antes
entrevis taron
Cai cedo
vincu la
vincu lante
galle gas
natural mente
Air port
Air lines
BN PI
Iv anov
Jer emy
az Ãºcar
fem inista
mue bles
estr ena
radio fÃ³nica
radio elÃ©ctri
ascen dÃŃa
ascen dido
ascen dÃŃan
adqui rida
cont estar
cont estaciÃ³n
fili bus
cionar le
distribu ye
interpre tar
interpre taron
interpre tarse
Regi onales
aprovec he
aprovec harÃ¡
aprovec hase
tÃ©cnica mente
Provin cias
clÃ¡ sicos
necesita ra
apoyar emos
58 75
58 29
EM BAR
Far gas
Feli p
vÃ¡ lido
arra igados
conser vÃ³
libra do
licen ciada
levan ten
levan tada
bir rete
chil enas
especta dor
transpar entes
movili zarse
beneficios a
Bara chit
Ly nch
Ne d
Ne braska
TEN DEN
dejar Ã¡n
espos as
elem entales
elÃ©ctri co
entrar Ã¡n
concer tar
come ter
come dor
cap ta
cap tados
cata log
precis as
precis ado
precis ada
pie dras
liberali zando
74 85200
Bel da
Blan es
Da guerre
Da vao
Da tanÃ¡lisis
FOR UM
FOR ESTAL
FOR INTOS
Nas rala
Pir is
Pir elli
UR B
aran cela
hon e
vari c
vari ar
vari edad
quedar me
quedar Ã¡n
anal ista
sui cidio
vigi lantes
exten sa
exten der
exten sibles
testi go
aumenta n
geni tales
Patri cia
priori tario
priori tarios
CIA CION
relacion aba
influ encias
influ yeron
CAN ADIEN
Fre eh
Pen ya
Pen insular
RU CTURA
fre cuenta
tenta ciÃ³n
vac ÃŃa
vac ante
introdu ciendo
mati zaciÃ³n
lide rados
limi taciÃ³n
motiv aron
Ing les
constru ctor
constru yan
varia ciÃ³n
Soci Ã©tÃ©
senti dos
senti mentalidad
encabez an
pronun ciarÃ¡
TÃ©cni cas
indemni zar
Bon i
Bur lada
CAR TA
CAR RIL
Eu del
FIN I
Kar sten
Kar kum
Kar embeu
Sor pren
consoli dado
consoli dada
divi didas
dibu jantes
terra wa
empa tes
empa tar
empa tados
tron g
Espe cialidades
experimenta n
================================ =====
Bor tolo
Bor goÃ±a
Bor reguero
Fa lar
GA P
GA Z
GA UR
Ol is
Ten dremos
TELE BER
TELE VISION
TELE VENTA
TELE PIZZA
[...]
