{"<s>":0,"<pad>":1,"</s>":2,"<unk>":3,"<mask>":4,"!":5,"\"":6,"#":7,"$":8,"%":9,"&":10,"'":11,"(":12,")":13,"*":14,"+":15,",":16,"-":17,".":18,"/":19,"0":20,"1":21,"2":22,"3":23,"4":24,"5":25,"6":26,"7":27,"8":28,"9":29,":":30,";":31,"<":32,"=":33,">":34,"?":35,"@":36,"A":37,"B":38,"C":39,"D":40,"E":41,"F":42,"G":43,"H":44,"I":45,"J":46,"K":47,"L":48,"M":49,"N":50,"O":51,"P":52,"Q":53,"R":54,"S":55,"T":56,"U":57,"V":58,"W":59,"X":60,"Y":61,"Z":62,"[":63,"\\":64,"]":65,"^":66,"_":67,"`":68,"a":69,"b":70,"c":71,"d":72,"e":73,"f":74,"g":75,"h":76,"i":77,"j":78,"k":79,"l":80,"m":81,"n":82,"o":83,"p":84,"q":85,"r":86,"s":87,"t":88,"u":89,"v":90,"w":91,"x":92,"y":93,"z":94,"{":95,"|":96,"}":97,"~":98,"¡":99,"¢":100,"£":101,"¤":102,"¥":103,"¦":104,"§":105,"¨":106,"©":107,"ª":108,"«":109,"¬":110,"®":111,"¯":112,"°":113,"±":114,"²":115,"³":116,"´":117,"µ":118,"¶":119,"·":120,"¸":121,"¹":122,"º":123,"»":124,"¼":125,"½":126,"¾":127,"¿":128,"À":129,"Á":130,"Â":131,"Ã":132,"Ä":133,"Å":134,"Æ":135,"Ç":136,"È":137,"É":138,"Ê":139,"Ë":140,"Ì":141,"Í":142,"Î":143,"Ï":144,"Ð":145,"Ñ":146,"Ò":147,"Ó":148,"Ô":149,"Õ":150,"Ö":151,"×":152,"Ø":153,"Ù":154,"Ú":155,"Û":156,"Ü":157,"Ý":158,"Þ":159,"ß":160,"à":161,"á":162,"â":163,"ã":164,"ä":165,"å":166,"æ":167,"ç":168,"è":169,"é":170,"ê":171,"ë":172,"ì":173,"í":174,"î":175,"ï":176,"ð":177,"ñ":178,"ò":179,"ó":180,"ô":181,"õ":182,"ö":183,"÷":184,"ø":185,"ù":186,"ú":187,"û":188,"ü":189,"ý":190,"þ":191,"ÿ":192,"Ā":193,"ā":194,"Ă":195,"ă":196,"Ą":197,"ą":198,"Ć":199,"ć":200,"Ĉ":201,"ĉ":202,"Ċ":203,"ċ":204,"Č":205,"č":206,"Ď":207,"ď":208,"Đ":209,"đ":210,"Ē":211,"ē":212,"Ĕ":213,"ĕ":214,"Ė":215,"ė":216,"Ę":217,"ę":218,"Ě":219,"ě":220,"Ĝ":221,"ĝ":222,"Ğ":223,"ğ":224,"Ġ":225,"ġ":226,"Ģ":227,"ģ":228,"Ĥ":229,"ĥ":230,"Ħ":231,"ħ":232,"Ĩ":233,"ĩ":234,"Ī":235,"ī":236,"Ĭ":237,"ĭ":238,"Į":239,"į":240,"İ":241,"ı":242,"Ĳ":243,"ĳ":244,"Ĵ":245,"ĵ":246,"Ķ":247,"ķ":248,"ĸ":249,"Ĺ":250,"ĺ":251,"Ļ":252,"ļ":253,"Ľ":254,"ľ":255,"Ŀ":256,"ŀ":257,"Ł":258,"ł":259,"Ń":260,"ĠO":261,"ĠN":262,"ĠNC":263,"SP":264,"ĠSP":265,"ĠD":266,"ĠF":267,"de":268,"ĠV":269,"ĠDA":270,"ĠVM":271,"ĠA":272,"ĠAQ":273,"en":274,"ĠB":275,"es":276,"RG":277,"la":278,"os":279,"ĠFc":280,"ĠI":281,"ci":282,"ĠVMI":283,"ra":284,"on":285,"ORG":286,"ĠFp":287,"ta":288,"er":289,"Ã³":290,"ĠC":291,"ue":292,"ĠP":293,"or":294,"el":295,"ER":296,"al":297,"ar":298,"PER":299,"que":300,"an":301,"un":302,"as":303,"in":304,"re":305,"ad":306,"LO":307,"LOC":308,"ĠZ":309,"ti":310,"ĠCC":311,"Ã³n":312,"ent":313,"ĠDI":314,"ĠFe":315,"IS":316,"ĠRG":317,"MIS":318,"MISC":319,"con":320,"se":321,"ĠPR":322,"pr":323,"di":324,"Ã¡":325,"ÃŃ":326,"co":327,"ĠVMN":328,"ĠCS":329,"do":330,"los":331,"te":332,"ciÃ³n":333,"del":334,"is":335,"pa":336,"por":337,"ca":338,"to":339,"ri":340,"su":341,"ma":342,"li":343,"cu":344,"mi":345,"las":346,"le":347,"Ã©":348,"da":349,"ĠVMP":350,"Ã±":351,"ro":352,"ĠFpt":353,"ĠFpa":354,"tu":355,"ha":356,"tra":357,"si":358,"mo":359,"vi":360,"bi":361,"ones":362,"lo":363,"no":364,"ĠDP":365,"ĠVS":366,"ĠVA":367,"ado":368,"pro":369,"para":370,"po":371,"pe":372,"res":373,"des":374,"ÃŃa":375,"ĠVAI":376,"pres":377,"una":378,"Ãº":379,"ĠFg":380,"dad":381,"ho":382,"ter":383,"cia":384,"ĠVSI":385,"ĠDD":386,"so":387,"esta":388,"dos":389,"fi":390,"me":391,"par":392,"com":393,"ente":394,"ento":395,"ui":396,"El":397,"den":398,"ec":399,"vo":400,"ĠDN":401,"pu":402,"ĠNP":403,"per":404,"enta":405,"ba":406,"ran":407,"em":408,"ciones":409,"00":410,"tos":411,"ten":412,"ac":413,"io":414,"ĠVMS":415,"Ã¡n":416,"ex":417,"tor":418,"RN":419,"ĠRN":420,"man":421,"FE":422,"go":423,"am":424,"may":425,"EFE":426,"im":427,"gu":428,"du":429,"La":430,"tas":431,"uni":432,"ada":433,"ce":434,"za":435,"ĠPP":436,"mÃ¡":437,"pre":438,"jo":439,"ales":440,"ĠAO":441,"les":442,"ni":443,"tr":444,"va":445,"hoy":446,"tes":447,"ali":448,"23":449,"for":450,"Es":451,"ras":452,"pi":453,"min":454,"tar":455,"qui":456,"tro":457,"ga":458,"cion":459,"car":460,"mÃ¡s":461,"lu":462,"sa":463,"cas":464,"ser":465,"aÃ±":466,"bre":467,"pos":468,"era":469,"como":470,"ver":471,"rec":472,"mu":473,"lan":474,"ru":475,"au":476,"rÃ¡":477,"can":478,"paÃ±":479,"das":480,"na":481,"bo":482,"gi":483,"Ãºn":484,"tan":485,"ble":486,"cos":487,"ch":488,"ĠPI":489,"encia":490,"ĠVMM":491,"gan":492,"ll":493,"este":494,"presi":495,"ia":496,"ĠPN":497,"mar":498,"Ã©s":499,"ores":500,"entre":501,"seg":502,"ero":503,"parti":504,"fu":505,"dis":506,"cial":507,"mente":508,"ve":509,"lar":510,"sus":511,"mbi":512,"ÃŃs":513,"est":514,"cio":515,"ados":516,"iÃ³n":517,"miento":518,"cer":519,"ob":520,"19":521,"ya":522,"Co":523,"En":524,"ban":525,"bier":526,"pas":527,"pon":528,"presiden":529,"mis":530,"==":531,"cÃ³":532,"entes":533,"son":534,"gra":535,"xi":536,"Ã©n":537,"ele":538,"cre":539,"je":540,"fin":541,"vis":542,"pli":543,"lÃŃ":544,"Con":545,"inter":546,"medi":547,"han":548,"ju":549,"raciÃ³n":550,"ona":551,"mill":552,"tal":553,"In":554,"ne":555,"tin":556,"sobre":557,"tiv":558,"posi":559,"ber":560,"ces":561,"mos":562,"tri":563,"zar":564,"tura":565,"ven":566,"gen":567,"ari":568,"millones":569,"eron":570,"der":571,"ciento":572,"ese":573,"tras":574,"adri":575,"ana":576,"presenta":577,"Re":578,"bu":579,"presidente":580,"contra":581,"bra":582,"cip":583,"tien":584,"tado":585,"fer":586,"tros":587,"qu":588,"bierno":589,"mas":590,"ja":591,"cal":592,"dades":593,"Se":594,"ĠVMG":595,"titu":596,"Go":597,"lla":598,"ay":599,"tivo":600,"Madri":601,"lle":602,"acu":603,"Madrid":604,"mento":605,"cado":606,"sin":607,"infor":608,"Mar":609,"gar":610,"cional":611,"aciÃ³n":612,"ol":613,"mÃ³":614,"espe":615,"ando":616,"unta":617,"prÃ³":618,"nue":619,"fa":620,"San":621,"ros":622,"aÃ±os":623,"bli":624,"000":625,"Al":626,"uro":627,"ista":628,"ag":629,"ins":630,"An":631,"Los":632,"dÃ³":633,"ez":634,"don":635,"cios":636,"minis":637,"fue":638,"tambi":639,"rio":640,"tambiÃ©n":641,"mer":642,"paÃŃs":643,"Gobierno":644,"ab":645,"fr":646,"ante":647,"ina":648,"men":649,"CO":650,"tÃ³":651,"fir":652,"ÃŃas":653,"rar":654,"pen":655,"tiva":656,"cono":657,"empres":658,"cent":659,"dar":660,"ral":661,"Vi":662,"caciÃ³n":663,"pese":664,"cons":665,"traba":666,"hi":667,"entos":668,"199":669,"teri":670,"segÃºn":671,"siÃ³n":672,"comuni":673,"adas":674,"ES":675,"aÃ±o":676,"tica":677,"us":678,"pue":679,"cias":680,"asta":681,"parte":682,"esti":683,"cen":684,"produ":685,"zaciÃ³n":686,"pues":687,"gru":688,"desde":689,"Uni":690,"pla":691,"fec":692,"Pa":693,"zo":694,"bar":695,"mes":696,"10":697,"var":698,"uel":699,"Par":700,"menta":701,"ctor":702,"ĠFd":703,"val":704,"ador":705,"pesetas":706,"Ãºl":707,"dijo":708,"paÃ±a":709,"Ã±a":710,"prÃ³xi":711,"tados":712,"jun":713,"ase":714,"RA":715,"20":716,"tÃ©":717,"direc":718,"equi":719,"estÃ¡":720,"tiene":721,"pri":722,"fe":723,"il":724,"ul":725,"cor":726,"hasta":727,"ano":728,"pero":729,"ario":730,"person":731,"rÃ¡n":732,"====":733,"EN":734,"plan":735,"pasado":736,"gÃºn":737,"Na":738,"clu":739,"unos":740,"organ":741,"indi":742,"cul":743,"Ãºbli":744,"cur":745,"hab":746,"forma":747,"cla":748,"actu":749,"rante":750,"Ãºlti":751,"Por":752,"ple":753,"bili":754,"cciÃ³n":755,"jer":756,"ciÃ³":757,"prim":758,"dio":759,"ur":760,"cto":761,"ope":762,"antes":763,"porta":764,"alidad":765,"cel":766,"ton":767,"elec":768,"ini":769,"tres":770,"ensa":771,"Ca":772,"muni":773,"deci":774,"Jos":775,"30":776,"alu":777,"Bar":778,"tre":779,"eral":780,"be":781,"nos":782,"ciales":783,"cri":784,"espaÃ±":785,"consi":786,"ON":787,"gas":788,"tivos":789,"maÃ±":790,"cÃŃa":791,"Mi":792,"Car":793,"De":794,"rÃ³":795,"ena":796,"reg":797,"polÃŃ":798,"tran":799,"ĠVSN":800,"gran":801,"maÃ±ana":802,"rado":803,"donde":804,"adores":805,"Val":806,"rÃŃ":807,"udad":808,"Ju":809,"EspaÃ±a":810,"tico":811,"Euro":812,"TA":813,"mili":814,"lares":815,"respon":816,"puesta":817,"unda":818,"cha":819,"cele":820,"Ar":821,"sÃ³":822,"situ":823,"14":824,"pun":825,"reci":826,"yec":827,"15":828,"esi":829,"expli":830,"otros":831,"pÃºbli":832,"istas":833,"25":834,"Fran":835,"esa":836,"reuni":837,"vas":838,"ria":839,"mayor":840,"grupo":841,"prÃ³ximo":842,"bas":843,"laciÃ³n":844,"tÃŃ":845,"So":846,"estu":847,"cam":848,"sido":849,"durante":850,"gado":851,"jor":852,"ĠVSP":853,"teni":854,"arios":855,"taciÃ³n":856,"dÃŃa":857,"cuando":858,"demÃ¡s":859,"mani":860,"organi":861,"rada":862,"gos":863,"nu":864,"Las":865,"labo":866,"tru":867,"quien":868,"gres":869,"unque":870,"Ã©r":871,"proyec":872,"CI":873,"Li":874,"eri":875,"diÃ³":876,"Le":877,"cada":878,"ren":879,"primer":880,"tel":881,"muy":882,"nacional":883,"AR":884,"Ci":885,"seÃ±":886,"JosÃ©":887,"undo":888,"prin":889,"entras":890,"porque":891,"Ro":892,"puesto":893,"12":894,"cho":895,"servi":896,"asegu":897,"DE":898,"cin":899,"ismo":900,"As":901,"ern":902,"ĠPD":903,"sig":904,"versi":905,"ciudad":906,"13":907,"tori":908,"tido":909,"estado":910,"edi":911,"adi":912,"pital":913,"representa":914,"tem":915,"SegÃºn":916,"erra":917,"Ã±o":918,"puÃ©s":919,"mera":920,"nec":921,"general":922,"Barcel":923,"Man":924,"todos":925,"posiciÃ³n":926,"vin":927,"tario":928,"ori":929,"alg":930,"hora":931,"acuer":932,"tis":933,"partido":934,"Po":935,"jue":936,"aunque":937,"hec":938,"yo":939,"dida":940,"equipo":941,"atro":942,"op":943,"bos":944,"nor":945,"mientras":946,"final":947,"PP":948,"mismo":949,"AN":950,"ĠFx":951,"lado":952,"via":953,"fal":954,"fun":955,"mon":956,"arro":957,"conse":958,"ir":959,"uno":960,"dido":961,"bol":962,"Barcelona":963,"bilidad":964,"rael":965,"reali":966,"AS":967,"Di":968,"despuÃ©s":969,"cipal":970,"Sa":971,"bles":972,"sos":973,"zas":974,"Ã³mi":975,"social":976,"zÃ³":977,"endo":978,"encu":979,"dÃ³lares":980,"sen":981,"zado":982,"fuer":983,"terior":984,"Gu":985,"trabaj":986,"hu":987,"Ex":988,"fran":989,"celebra":990,"apro":991,"respe":992,"compaÃ±":993,"CÃ¡":994,"IN":995,"hos":996,"paÃŃses":997,"18":998,"50":999,"EL":1000,"anun":1001,"dÃŃas":1002,"laciones":1003,"Cas":1004,"Lu":1005,"cni":1006,"seman":1007,"lib":1008,"pod":1009,"personas":1010,"16":1011,"ino":1012,"empresa":1013,"portavo":1014,"afir":1015,"primera":1016,"200":1017,"MÃ©":1018,"todo":1019,"misiÃ³n":1020,"Conse":1021,"serÃ¡":1022,"vez":1023,"ministro":1024,"Ch":1025,"regi":1026,"sector":1027,"tivas":1028,"ceso":1029,"Real":1030,"eli":1031,"ÃŃan":1032,"rÃŃa":1033,"cambi":1034,"encuent":1035,"junio":1036,"trans":1037,"onal":1038,"proble":1039,"previs":1040,"tante":1041,"UE":1042,"bri":1043,"van":1044,"sÃ³lo":1045,"acuerdo":1046,"segui":1047,"explicÃ³":1048,"dor":1049,"ica":1050,"llo":1051,"tera":1052,"obje":1053,"Juan":1054,"soli":1055,"conside":1056,"17":1057,"ron":1058,"ing":1059,"ticas":1060,"portavoz":1061,"contin":1062,"tuvo":1063,"loc":1064,"ĠVSS":1065,"amente":1066,"quier":1067,"AL":1068,"ola":1069,"ciar":1070,"ÃŃn":1071,"Cu":1072,"edad":1073,"desta":1074,"fuentes":1075,"ministra":1076,"euro":1077,"hay":1078,"vil":1079,"horas":1080,"fo":1081,"leg":1082,"nego":1083,"COM":1084,"cuenta":1085,"cuatro":1086,"din":1087,"alÃ³":1088,"anos":1089,"asÃŃ":1090,"tiem":1091,"che":1092,"mercado":1093,"OE":1094,"OS":1095,"ocu":1096,"tali":1097,"tiÃ³":1098,"Inter":1099,"situaciÃ³n":1100,"cum":1101,"mientos":1102,"hacer":1103,"partici":1104,"mad":1105,"hace":1106,"trabajo":1107,"tÃ©cni":1108,"reuniÃ³n":1109,"PS":1110,"ara":1111,"gue":1112,"prensa":1113,"responsa":1114,"fica":1115,"impor":1116,"nuevo":1117,"apo":1118,"dado":1119,"dores":1120,"eta":1121,"of":1122,"ridad":1123,"resul":1124,"desarro":1125,"fici":1126,"toria":1127,"recor":1128,"jecu":1129,"capital":1130,"estas":1131,"proyecto":1132,"dan":1133,"nada":1134,"estra":1135,"raciones":1136,"int":1137,"conÃ³mi":1138,"tencia":1139,"director":1140,"manif":1141,"seÃ±alÃ³":1142,"mayo":1143,"informÃ³":1144,"========":1145,"len":1146,"tener":1147,"estÃ¡n":1148,"abri":1149,"Cor":1150,"yÃ³":1151,"diri":1152,"metros":1153,"vol":1154,"san":1155,"eros":1156,"secre":1157,"ayu":1158,"puede":1159,"11":1160,"ctos":1161,"ĠFz":1162,"sur":1163,"institu":1164,"ticos":1165,"ambi":1166,"pes":1167,"conce":1168,"tienen":1169,"Can":1170,"tada":1171,"iste":1172,"peri":1173,"baj":1174,"auto":1175,"Pro":1176,"ben":1177,"cl":1178,"vesti":1179,"estos":1180,"cimiento":1181,"1999":1182,"Si":1183,"ciaciÃ³n":1184,"tarÃ¡":1185,"caso":1186,"empresas":1187,"erto":1188,"untamiento":1189,"centro":1190,"asegurÃ³":1191,"Mon":1192,"To":1193,"ves":1194,"decla":1195,"compe":1196,"denun":1197,"tenciÃ³n":1198,"econÃ³mi":1199,"ura":1200,"inte":1201,"log":1202,"28":1203,"Tele":1204,"Nacional":1205,"necesi":1206,"cido":1207,"tivi":1208,"rios":1209,"haber":1210,"jug":1211,"Ra":1212,"ge":1213,"zona":1214,"entÃ³":1215,"ĠVAN":1216,"mero":1217,"comi":1218,"visi":1219,"mado":1220,"cionales":1221,"frente":1222,"24":1223,"Ay":1224,"unas":1225,"segu":1226,"licÃŃa":1227,"especial":1228,"21":1229,"Lo":1230,"cis":1231,"arÃ¡":1232,"progra":1233,"perio":1234,"segunda":1235,"avi":1236,"drÃ¡":1237,"anti":1238,"ÃŃo":1239,"emb":1240,"Esta":1241,"lugar":1242,"tanto":1243,"puntos":1244,"RE":1245,"Ser":1246,"dro":1247,"fon":1248,"polÃŃtica":1249,"Me":1250,"permi":1251,"ayer":1252,"cultura":1253,"cinco":1254,"eu":1255,"his":1256,"Ã±os":1257,"Consejo":1258,"prof":1259,"comer":1260,"cano":1261,"greso":1262,"ademÃ¡s":1263,"fis":1264,"ses":1265,"xim":1266,"almente":1267,"estable":1268,"candida":1269,"semana":1270,"22":1271,"otras":1272,"rias":1273,"Carlos":1274,"Bra":1275,"Pe":1276,"efec":1277,"ofi":1278,"sal":1279,"Ã³r":1280,"bido":1281,"nÃº":1282,"derec":1283,"aron":1284,"isiÃ³n":1285,"EFECOM":1286,"meses":1287,"junto":1288,"habÃŃa":1289,"2000":1290,"Cent":1291,"Su":1292,"TI":1293,"alcal":1294,"tir":1295,"comen":1296,"medio":1297,"def":1298,"israel":1299,"Ayuntamiento":1300,"israelÃŃ":1301,"Cam":1302,"bal":1303,"venta":1304,"domin":1305,"paci":1306,"tur":1307,"fueron":1308,"Para":1309,"operaciÃ³n":1310,"Europe":1311,"tenido":1312,"vel":1313,"inver":1314,"ĠVAS":1315,"informa":1316,"fron":1317,"Junta":1318,"dÃ©":1319,"jero":1320,"zada":1321,"gaciÃ³n":1322,"espera":1323,"inicia":1324,"representan":1325,"70":1326,"miemb":1327,"acciones":1328,"tarde":1329,"espaÃ±ol":1330,"tempo":1331,"Fu":1332,"iones":1333,"cir":1334,"bano":1335,"Anton":1336,"afirmÃ³":1337,"Bo":1338,"cados":1339,"he":1340,"stri":1341,"paciÃ³n":1342,"total":1343,"ComisiÃ³n":1344,"ferencia":1345,"ParÃŃs":1346,"Valencia":1347,"tiempo":1348,"secretario":1349,"26":1350,"OL":1351,"sil":1352,"dispu":1353,"indicÃ³":1354,"europe":1355,"Fern":1356,"gui":1357,"Estado":1358,"Europa":1359,"AC":1360,"EU":1361,"Ma":1362,"RI":1363,"jÃ³":1364,"otro":1365,"dia":1366,"compro":1367,"emos":1368,"luciÃ³n":1369,"media":1370,"MarÃŃa":1371,"curso":1372,"fra":1373,"tbol":1374,"ciden":1375,"investi":1376,"Ã¡c":1377,"adiÃ³":1378,"Luis":1379,"nÃºmero":1380,"Min":1381,"mbre":1382,"dese":1383,"termin":1384,"hecho":1385,"AD":1386,"varios":1387,"subi":1388,"cual":1389,"tores":1390,"fav":1391,"ahora":1392,"ei":1393,"ris":1394,"reti":1395,"cipales":1396,"solici":1397,"Or":1398,"bel":1399,"uniden":1400,"Gen":1401,"jui":1402,"tele":1403,"publi":1404,"visiÃ³n":1405,"estadouniden":1406,"algunos":1407,"PSOE":1408,"mpi":1409,"lamenta":1410,"cito":1411,"activi":1412,"maron":1413,"club":1414,"35":1415,"US":1416,"ep":1417,"escri":1418,"tad":1419,"ine":1420,"tilla":1421,"proceso":1422,"soci":1423,"mejor":1424,"gua":1425,"Ãºltimos":1426,"40":1427,"Am":1428,"otra":1429,"depen":1430,"inclu":1431,"lio":1432,"vien":1433,"propi":1434,"resi":1435,"ampli":1436,"arias":1437,"bus":1438,"gal":1439,"vÃŃa":1440,"dez":1441,"untos":1442,"dieron":1443,"ley":1444,"parec":1445,"emple":1446,"gobierno":1447,"trÃ³":1448,"Antonio":1449,"27":1450,"Chi":1451,"gÃ³":1452,"deraciÃ³n":1453,"ueva":1454,"recu":1455,"tidad":1456,"momento":1457,"propuesta":1458,"terio":1459,"Estados":1460,"mujer":1461,"pone":1462,"finan":1463,"Francia":1464,"tÃ¡n":1465,"deba":1466,"ellos":1467,"trata":1468,"bien":1469,"exis":1470,"preci":1471,"precio":1472,"Comuni":1473,"nueva":1474,"estudi":1475,"trucciÃ³n":1476,"Brasil":1477,"gent":1478,"encias":1479,"dica":1480,"dipu":1481,"famili":1482,"pÃºblico":1483,"Manuel":1484,"Ri":1485,"UN":1486,"ger":1487,"mÃŃa":1488,"mundo":1489,"pan":1490,"depor":1491,"rales":1492,"aria":1493,"convo":1494,"contro":1495,"tantes":1496,"opera":1497,"jornada":1498,"problemas":1499,"objetivo":1500,"Au":1501,"Gar":1502,"II":1503,"Per":1504,"ficaciÃ³n":1505,"manos":1506,"dustri":1507,"Liga":1508,"CE":1509,"OR":1510,"dalu":1511,"debe":1512,"difer":1513,"sub":1514,"Extre":1515,"gente":1516,"jÃ©r":1517,"asis":1518,"incre":1519,"cole":1520,"rida":1521,"poco":1522,"pedi":1523,"destin":1524,"dencia":1525,"autori":1526,"pÃºblica":1527,"Ad":1528,"Hu":1529,"ale":1530,"Ãºni":1531,"insta":1532,"continu":1533,"clui":1534,"jÃ©rcito":1535,"80":1536,"afec":1537,"deber":1538,"Ã³nica":1539,"consu":1540,"resto":1541,"partir":1542,"estÃ³":1543,"decisiÃ³n":1544,"regis":1545,"consejero":1546,"500":1547,"Fe":1548,"Jo":1549,"Mo":1550,"gada":1551,"iz":1552,"tÃ¡":1553,"condi":1554,"dele":1555,"provin":1556,"caron":1557,"prÃ³xim":1558,"anunciÃ³":1559,"Ag":1560,"Ale":1561,"ade":1562,"recono":1563,"toda":1564,"Congreso":1565,"medios":1566,"Ins":1567,"organizaciÃ³n":1568,"CION":1569,"servicio":1570,"seguridad":1571,"Efe":1572,"mentos":1573,"turas":1574,"aÃ±adiÃ³":1575,"apoyo":1576,"juicio":1577,"AdemÃ¡s":1578,"Ban":1579,"aca":1580,"aban":1581,"plo":1582,"vos":1583,"pren":1584,"taron":1585,"martes":1586,"acus":1587,"Universi":1588,"funcion":1589,"destacÃ³":1590,"manifestÃ³":1591,"90":1592,"Em":1593,"No":1594,"ordin":1595,"ell":1596,"rela":1597,"seis":1598,"jecutivo":1599,"estadounidense":1600,"EjÃ©rcito":1601,"LA":1602,"evi":1603,"Ã¡r":1604,"xico":1605,"PolicÃŃa":1606,"madura":1607,"Extremadura":1608,"Un":1609,"cali":1610,"undi":1611,"Este":1612,"grupos":1613,"opin":1614,"euros":1615,"alcalde":1616,"favor":1617,"Mu":1618,"sali":1619,"ĠPT":1620,"anza":1621,"ases":1622,"conta":1623,"vir":1624,"villa":1625,"ental":1626,"jus":1627,"llevar":1628,"UniÃ³n":1629,"servicios":1630,"MÃ©xico":1631,"Pu":1632,"bado":1633,"mal":1634,"sor":1635,"zÃ¡":1636,"encontra":1637,"cien":1638,"erre":1639,"vida":1640,"internacional":1641,"puestos":1642,"miembros":1643,"LÃŃ":1644,"Pi":1645,"rue":1646,"selec":1647,"Ãºs":1648,"ducaciÃ³n":1649,"obras":1650,"llegar":1651,"menos":1652,"hizo":1653,"Ãºltimo":1654,"tÃŃtu":1655,"laboraciÃ³n":1656,"principal":1657,"respecto":1658,"encuentro":1659,"Des":1660,"guel":1661,"lor":1662,"enfr":1663,"alcan":1664,"sea":1665,"diver":1666,"estar":1667,"mejo":1668,"expres":1669,"mano":1670,"Miguel":1671,"compaÃ±ÃŃa":1672,"cumpli":1673,"PA":1674,"bun":1675,"nar":1676,"esto":1677,"tili":1678,"siones":1679,"comple":1680,"ameri":1681,"espaÃ±ola":1682,"ministraciÃ³n":1683,"participar":1684,"temporada":1685,"LÃŃbano":1686,"34":1687,"Bu":1688,"RO":1689,"at":1690,"ico":1691,"vÃ©s":1692,"mara":1693,"poli":1694,"tero":1695,"dentro":1696,"bajo":1697,"acto":1698,"nacionales":1699,"posible":1700,"posibilidad":1701,"mostra":1702,"actual":1703,"enfrenta":1704,"Gon":1705,"fÃ³nica":1706,"rse":1707,"ye":1708,"rac":1709,"movi":1710,"empre":1711,"amble":1712,"preten":1713,"precios":1714,"judi":1715,"ques":1716,"conomÃŃa":1717,"prÃ³xima":1718,"plante":1719,"nubos":1720,"domingo":1721,"iniciativa":1722,"Pal":1723,"fÃŃa":1724,"igu":1725,"jos":1726,"siste":1727,"raz":1728,"relaciones":1729,"caciones":1730,"Ã©l":1731,"proce":1732,"medidas":1733,"sino":1734,"nuevas":1735,"Az":1736,"TE":1737,"bor":1738,"ror":1739,"lamento":1740,"erte":1741,"ork":1742,"seÃ±a":1743,"hacia":1744,"vie":1745,"carre":1746,"partidos":1747,"particip":1748,"distin":1749,"bern":1750,"importante":1751,"abril":1752,"programa":1753,"periodis":1754,"31":1755,"Gran":1756,"Is":1757,"demo":1758,"ellas":1759,"tec":1760,"port":1761,"cau":1762,"poder":1763,"Ãºtbol":1764,"parta":1765,"embar":1766,"futu":1767,"cipio":1768,"valor":1769,"mayorÃŃa":1770,"sociedad":1771,"60":1772,"Aso":1773,"Do":1774,"Ru":1775,"cÃ©s":1776,"gor":1777,"ual":1778,"redu":1779,"ticia":1780,"entren":1781,"ÃŃcu":1782,"cuar":1783,"perman":1784,"torio":1785,"Unidos":1786,"declaraciones":1787,"Europea":1788,"Minis":1789,"amblea":1790,"fri":1791,"ocas":1792,"pin":1793,"plen":1794,"tÃ³n":1795,"eno":1796,"ciado":1797,"travÃ©s":1798,"pob":1799,"desa":1800,"nivel":1801,"much":1802,"zaron":1803,"genera":1804,"norte":1805,"podrÃŃa":1806,"MÃ©rida":1807,"45":1808,"et":1809,"her":1810,"lez":1811,"recha":1812,"venciÃ³n":1813,"comunicado":1814,"estiÃ³n":1815,"Francis":1816,"necesidad":1817,"75":1818,"EEU":1819,"Pre":1820,"cta":1821,"orden":1822,"conven":1823,"isi":1824,"isla":1825,"Ã©ri":1826,"siempre":1827,"ambos":1828,"obli":1829,"cesa":1830,"pueden":1831,"espaÃ±o":1832,"recordÃ³":1833,"zÃ¡lez":1834,"Francisco":1835,"EEUU":1836,"Nueva":1837,"agra":1838,"apli":1839,"ig":1840,"kil":1841,"pel":1842,"rÃ©":1843,"espa":1844,"oso":1845,"aso":1846,"manda":1847,"pidiÃ³":1848,"veci":1849,"francÃ©s":1850,"localidad":1851,"sesiÃ³n":1852,"GonzÃ¡lez":1853,"kilÃ³":1854,"ata":1855,"vÃŃ":1856,"regu":1857,"pare":1858,"exper":1859,"zaciones":1860,"tina":1861,"CON":1862,"1998":1863,"seguir":1864,"recupe":1865,"Ejecutivo":1866,"aco":1867,"ejer":1868,"lÃ³":1869,"lÃ¡":1870,"diez":1871,"capaci":1872,"pul":1873,"tendrÃ¡":1874,"cera":1875,"premi":1876,"cargo":1877,"segundo":1878,"Com":1879,"poner":1880,"misma":1881,"tribu":1882,"conocer":1883,"construcciÃ³n":1884,"elecciones":1885,"considera":1886,"dirigi":1887,"undial":1888,"MÃ¡":1889,"Tambi":1890,"afi":1891,"gro":1892,"enci":1893,"eso":1894,"confir":1895,"coin":1896,"sol":1897,"fico":1898,"embre":1899,"cana":1900,"comunicaciÃ³n":1901,"alud":1902,"cambio":1903,"previsto":1904,"bunal":1905,"TambiÃ©n":1906,"Ha":1907,"Tras":1908,"VI":1909,"cales":1910,"lin":1911,"pal":1912,"utili":1913,"eses":1914,"cili":1915,"tipo":1916,"coti":1917,"deli":1918,"todas":1919,"local":1920,"solu":1921,"augu":1922,"chi":1923,"obra":1924,"sentido":1925,"China":1926,"CA":1927,"cti":1928,"jal":1929,"mb":1930,"mÃŃ":1931,"defin":1932,"industri":1933,"reco":1934,"tirÃ¡":1935,"cate":1936,"habi":1937,"vieron":1938,"viol":1939,"presu":1940,"gol":1941,"garan":1942,"lÃŃne":1943,"teriores":1944,"trabajadores":1945,"TelefÃ³nica":1946,"Ho":1947,"ala":1948,"abier":1949,"ete":1950,"fÃŃ":1951,"ofer":1952,"tamente":1953,"ficar":1954,"parlamenta":1955,"mÃ¡xi":1956,"jefe":1957,"Alvar":1958,"plazo":1959,"ciudadanos":1960,"oficial":1961,"informaciÃ³n":1962,"abandon":1963,"Israel":1964,"partamento":1965,"Men":1966,"blo":1967,"sÃ¡":1968,"zos":1969,"enfer":1970,"uela":1971,"ares":1972,"inf":1973,"dados":1974,"empe":1975,"trÃ¡":1976,"aumento":1977,"marcha":1978,"sindica":1979,"productos":1980,"Navar":1981,"curri":1982,"celeb":1983,"truc":1984,"integra":1985,"98":1986,"DI":1987,"LE":1988,"ie":1989,"sas":1990,"vuel":1991,"unto":1992,"tia":1993,"conclu":1994,"cabo":1995,"liban":1996,"amos":1997,"lÃŃmpi":1998,"informaron":1999,"formaciÃ³n":2000,"municipal":2001,"recibi":2002,"falta":2003,"representantes":2004,"Universidad":2005,"sistema":2006,"Cul":2007,"Du":2008,"TO":2009,"York":2010,"aÃºn":2011,"cra":2012,"gel":2013,"ĠFh":2014,"taciones":2015,"diario":2016,"colo":2017,"subra":2018,"sile":2019,"prepara":2020,"correspon":2021,"ayudas":2022,"profesi":2023,"fiscal":2024,"autoridades":2025,"opiniÃ³n":2026,"Ara":2027,"MA":2028,"eran":2029,"rea":2030,"vice":2031,"vivien":2032,"terror":2033,"comp":2034,"Copa":2035,"Cons":2036,"zarÃ¡":2037,"trasla":2038,"Sevilla":2039,"neces":2040,"responsable":2041,"FederaciÃ³n":2042,"embargo":2043,"futuro":2044,"Cultura":2045,"37":2046,"Bada":2047,"ESP":2048,"ide":2049,"tab":2050,"anterior":2051,"inaugu":2052,"rei":2053,"conver":2054,"mociÃ³n":2055,"presencia":2056,"comisiÃ³n":2057,"Ã¡ndez":2058,"joz":2059,"casos":2060,"cerca":2061,"interÃ©s":2062,"Parlamento":2063,"campaÃ±a":2064,"principales":2065,"Dipu":2066,"socialista":2067,"problema":2068,"prÃ³ximos":2069,"Badajoz":2070,"MI":2071,"jar":2072,"ki":2073,"dec":2074,"esca":2075,"erg":2076,"ello":2077,"relaciÃ³n":2078,"modi":2079,"baja":2080,"cionados":2081,"tancia":2082,"finales":2083,"Rey":2084,"constitu":2085,"plaza":2086,"cursos":2087,"================":2088,"jugadores":2089,"GarcÃŃa":2090,"diferentes":2091,"vÃŃcti":2092,"29":2093,"85":2094,"NO":2095,"Sin":2096,"jes":2097,"lÃ©":2098,"nin":2099,"taria":2100,"ertos":2101,"rez":2102,"conf":2103,"paso":2104,"comunidad":2105,"rÃŃan":2106,"avier":2107,"derechos":2108,"defen":2109,"Ministerio":2110,"kilÃ³metros":2111,"defini":2112,"ningÃºn":2113,"77":2114,"EducaciÃ³n":2115,"Fi":2116,"heri":2117,"ko":2118,"mbra":2119,"zan":2120,"sede":2121,"coles":2122,"paz":2123,"miÃ©r":2124,"haya":2125,"serÃ¡n":2126,"centros":2127,"estudio":2128,"bene":2129,"retirada":2130,"Comunidad":2131,"gentina":2132,"condiciones":2133,"miÃ©rcoles":2134,"calidad":2135,"gon":2136,"vado":2137,"vec":2138,"debido":2139,"enca":2140,"inclui":2141,"conden":2142,"dice":2143,"prop":2144,"acciÃ³n":2145,"erali":2146,"canos":2147,"jugar":2148,"regÃ³":2149,"regiÃ³n":2150,"regional":2151,"tÃ©cnico":2152,"desarrollo":2153,"Organ":2154,"89":2155,"Gru":2156,"IB":2157,"Pan":2158,"Tor":2159,"fÃºtbol":2160,"oposiciÃ³n":2161,"varias":2162,"ani":2163,"colaboraciÃ³n":2164,"acer":2165,"amena":2166,"miso":2167,"gasol":2168,"proyectos":2169,"ediciÃ³n":2170,"libro":2171,"participaciÃ³n":2172,"Chile":2173,"Institu":2174,"igual":2175,"At":2176,"VA":2177,"rados":2178,"oro":2179,"alem":2180,"anto":2181,"dici":2182,"caus":2183,"ries":2184,"mag":2185,"derÃ³":2186,"Cata":2187,"Banco":2188,"86":2189,"95":2190,"NA":2191,"onales":2192,"tadas":2193,"cular":2194,"peti":2195,"peones":2196,"ciaciones":2197,"joven":2198,"mino":2199,"casa":2200,"creaciÃ³n":2201,"presentado":2202,"brasile":2203,"darÃ¡":2204,"ctores":2205,"alum":2206,"ocup":2207,"Centro":2208,"FernÃ¡ndez":2209,"Navarra":2210,"..":2211,"49":2212,"Sal":2213,"amiento":2214,"drÃ¡n":2215,"ka":2216,"pÃ©r":2217,"encar":2218,"erta":2219,"real":2220,"condu":2221,"sex":2222,"caÃŃ":2223,"vio":2224,"popu":2225,"mexi":2226,"dentes":2227,"bara":2228,"minu":2229,"larÃ³":2230,"quin":2231,"MartÃŃ":2232,"Pala":2233,"Ãºltima":2234,"primero":2235,"britÃ¡n":2236,"subida":2237,"mujeres":2238,"diputado":2239,"registra":2240,"Grupo":2241,"Asi":2242,"SÃ¡n":2243,"aque":2244,"economÃŃa":2245,"gio":2246,"jas":2247,"jado":2248,"erÃŃa":2249,"arÃ¡n":2250,"unes":2251,"prue":2252,"diente":2253,"mil":2254,"sica":2255,"reso":2256,"pios":2257,"chez":2258,"vista":2259,"censo":2260,"considerÃ³":2261,"militar":2262,"tenidos":2263,"CÃ¡mara":2264,"cambios":2265,"Alvarez":2266,"Bru":2267,"ID":2268,"Itali":2269,"Jor":2270,"PÃºbli":2271,"Rob":2272,"ida":2273,"mÃ©":2274,"pis":2275,"sÃŃ":2276,"enos":2277,"estruc":2278,"lada":2279,"tarios":2280,"erri":2281,"ella":2282,"elim":2283,"asco":2284,"inten":2285,"cuyo":2286,"prote":2287,"provo":2288,"terri":2289,"mucho":2290,"muerte":2291,"ceres":2292,"internacionales":2293,"net":2294,"nuevos":2295,"mentar":2296,"RAN":2297,"electo":2298,"polÃŃticos":2299,"undaciÃ³n":2300,"Civil":2301,"resultados":2302,"pesar":2303,"logÃŃa":2304,"empleo":2305,"AdministraciÃ³n":2306,"pretende":2307,"SÃ¡nchez":2308,"33":2309,"IA":2310,"Ovie":2311,"ck":2312,"crÃŃ":2313,"ejecu":2314,"hÃŃcu":2315,"izaciÃ³n":2316,"lon":2317,"madri":2318,"determin":2319,"estro":2320,"cipios":2321,"prÃ¡c":2322,"diz":2323,"Ã¡l":2324,"cooperaciÃ³n":2325,"liber":2326,"leo":2327,"Ãºa":2328,"acep":2329,"gus":2330,"natura":2331,"tander":2332,"vehÃŃcu":2333,"pasada":2334,"julio":2335,"quÃ©":2336,"Santander":2337,"fecha":2338,"tÃ©r":2339,"ernes":2340,"intenta":2341,"volunta":2342,"perior":2343,"actividades":2344,"AsociaciÃ³n":2345,"tÃ³no":2346,"poblaciÃ³n":2347,"sÃ¡bado":2348,"Oviedo":2349,"100":2350,"69":2351,"CÃ³r":2352,"OM":2353,"gados":2354,"ido":2355,"pista":2356,"cidad":2357,"viles":2358,"viernes":2359,"estaba":2360,"estarÃ¡":2361,"ficÃ³":2362,"volu":2363,"tino":2364,"venes":2365,"bur":2366,"quÃŃ":2367,"quisi":2368,"Santia":2369,"agentes":2370,"grandes":2371,"campo":2372,"LeÃ³n":2373,"fuerte":2374,"CÃ¡ceres":2375,"Tole":2376,"jugador":2377,"Medio":2378,"General":2379,"espaÃ±oles":2380,"Santiago":2381,"44":2382,"Ba":2383,"CH":2384,"Pau":2385,"ts":2386,"intenciÃ³n":2387,"tema":2388,"cuya":2389,"datos":2390,"tenÃŃa":2391,"casi":2392,"bom":2393,"lÃŃder":2394,"presentaciÃ³n":2395,"Santa":2396,"fuera":2397,"jerÃŃa":2398,"sigui":2399,"jueves":2400,"hechos":2401,"CÃ¡diz":2402,"Servi":2403,"jÃ³venes":2404,"colec":2405,"rueda":2406,"Aznar":2407,"pleno":2408,"garanti":2409,"subrayÃ³":2410,"Toledo":2411,"99":2412,"Fer":2413,"Ig":2414,"Lon":2415,"avan":2416,"clas":2417,"oc":2418,"uales":2419,"entidad":2420,"onces":2421,"tales":2422,"concent":2423,"dico":2424,"ambas":2425,"estre":2426,"medida":2427,"mostrÃ³":2428,"producciÃ³n":2429,"Partido":2430,"corpo":2431,"grantes":2432,"Argentina":2433,"tista":2434,"celebrarÃ¡":2435,"Central":2436,"actividad":2437,"control":2438,"nuboso":2439,"bernam":2440,"capacidad":2441,"confli":2442,"Italia":2443,"CÃ³rdo":2444,"Ber":2445,"Gi":2446,"Gui":2447,"cadas":2448,"mada":2449,"oport":2450,"pl":2451,"rero":2452,"zados":2453,"demanda":2454,"algo":2455,"enten":2456,"conferencia":2457,"docu":2458,"ricultura":2459,"mater":2460,"figu":2461,"extra":2462,"gubernam":2463,"mul":2464,"gica":2465,"facili":2466,"Andalu":2467,"Portu":2468,"Ciudad":2469,"Rod":2470,"quiere":2471,"concejal":2472,"Fernando":2473,"desem":2474,"financi":2475,"debate":2476,"tÃŃtulos":2477,"tecno":2478,"mÃ¡ximo":2479,"benefi":2480,"CÃ³rdoba":2481,"32":2482,"36":2483,"Je":2484,"Jus":2485,"Mer":2486,"RÃŃo":2487,"SE":2488,"Ti":2489,"Tra":2490,"VE":2491,"gestiÃ³n":2492,"llar":2493,"mor":2494,"zon":2495,"laga":2496,"ardia":2497,"anali":2498,"til":2499,"concre":2500,"cola":2501,"tercera":2502,"comba":2503,"puso":2504,"actos":2505,"carbu":2506,"luÃ±a":2507,"obser":2508,"Comi":2509,"valo":2510,"equipos":2511,"reciente":2512,"primeros":2513,"algunas":2514,"tistas":2515,"realizar":2516,"transpor":2517,"responsables":2518,"investigaciÃ³n":2519,"periodistas":2520,"Ã©rica":2521,"MÃ¡laga":2522,"oferta":2523,"CataluÃ±a":2524,"alumnos":2525,"300":2526,"Javier":2527,"Zara":2528,"aciones":2529,"apun":2530,"idad":2531,"usu":2532,"enti":2533,"asuntos":2534,"pron":2535,"portu":2536,"supone":2537,"siete":2538,"acor":2539,"obs":2540,"Interior":2541,"insis":2542,"firma":2543,"pueda":2544,"habÃŃan":2545,"Depor":2546,"quienes":2547,"bolsa":2548,"aprob":2549,"Castilla":2550,"tÃ©cnicos":2551,"Cantab":2552,"denuncia":2553,"econÃ³mica":2554,"comien":2555,"defensa":2556,"precisÃ³":2557,"incremento":2558,"todavÃŃa":2559,"acusado":2560,"entrenador":2561,"coinci":2562,"mÃŃni":2563,"DiputaciÃ³n":2564,"declarÃ³":2565,"propio":2566,"diciembre":2567,"Cantabria":2568,"61":2569,"Ambi":2570,"Fo":2571,"Ja":2572,"Jes":2573,"Plan":2574,"eo":2575,"ias":2576,"jan":2577,"lunes":2578,"arse":2579,"inos":2580,"conjunto":2581,"seo":2582,"logo":2583,"adop":2584,"perÃŃo":2585,"exi":2586,"trui":2587,"serie":2588,"crecimiento":2589,"tivamente":2590,"daron":2591,"direcciÃ³n":2592,"personal":2593,"habrÃ¡":2594,"laboral":2595,"respec":2596,"ayuda":2597,"competi":2598,"competencia":2599,"Pedro":2600,"Campeones":2601,"delegado":2602,"evitar":2603,"ME":2604,"PE":2605,"Una":2606,"abo":2607,"acompaÃ±":2608,"cente":2609,"hen":2610,"vera":2611,"zca":2612,"Ã³pe":2613,"andalu":2614,"conci":2615,"cabe":2616,"riÃ³":2617,"sufri":2618,"rantes":2619,"manera":2620,"universi":2621,"preg":2622,"tren":2623,"agregÃ³":2624,"basti":2625,"juego":2626,"consecu":2627,"Internacional":2628,"Palma":2629,"violencia":2630,"celebraciÃ³n":2631,"48":2632,"Bal":2633,"IU":2634,"Muni":2635,"May":2636,"Tri":2637,"Vasco":2638,"atra":2639,"cru":2640,"ego":2641,"gÃ³n":2642,"glo":2643,"red":2644,"nomin":2645,"presentÃ³":2646,"accion":2647,"tarÃ¡n":2648,"saciÃ³n":2649,"aus":2650,"char":2651,"presiÃ³n":2652,"crear":2653,"talÃ¡n":2654,"buen":2655,"Angel":2656,"pens":2657,"persona":2658,"organismo":2659,"polÃŃtico":2660,"versiones":2661,"fuerzas":2662,"francesa":2663,"ofrec":2664,"ampliaciÃ³n":2665,"PerÃº":2666,"provincia":2667,"vicepresidente":2668,"Portugal":2669,"38":2670,"65":2671,"FundaciÃ³n":2672,"Pri":2673,"SI":2674,"dres":2675,"junta":2676,"vÃ©":2677,"delan":2678,"cil":2679,"rarÃ¡":2680,"ingres":2681,"indepen":2682,"coordin":2683,"tex":2684,"cuanto":2685,"goza":2686,"fusiÃ³n":2687,"lleva":2688,"plantilla":2689,"punto":2690,"semanas":2691,"instituciÃ³n":2692,"inversiÃ³n":2693,"compromiso":2694,"cualquier":2695,"familia":2696,"Ãºnico":2697,"virtiÃ³":2698,"selecciÃ³n":2699,"ejerci":2700,"lÃŃnea":2701,"Palacio":2702,"Zaragoza":2703,"55":2704,"Ai":2705,"Bi":2706,"FA":2707,"Ta":2708,"crÃ¡":2709,"cero":2710,"fes":2711,"fle":2712,"incorpo":2713,"catalÃ¡n":2714,"cuesti":2715,"comis":2716,"guay":2717,"EspaÃ±":2718,"carÃ¡c":2719,"ganÃ³":2720,"titular":2721,"mÃ³vil":2722,"tÃ³ri":2723,"ESL":2724,"pleo":2725,"jeros":2726,"Def":2727,"Social":2728,"signi":2729,"volver":2730,"causa":2731,"categor":2732,"Ambiente":2733,"JesÃºs":2734,"perÃŃodo":2735,"carÃ¡cter":2736,"68":2737,"Jan":2738,"LÃ³pe":2739,"Rio":2740,"atenciÃ³n":2741,"bras":2742,"fru":2743,"hor":2744,"ior":2745,"mentÃ³":2746,"ning":2747,"oeste":2748,"ocurri":2749,"dera":2750,"inmi":2751,"recursos":2752,"super":2753,"vidu":2754,"logra":2755,"hotel":2756,"mantiene":2757,"mantener":2758,"impli":2759,"serÃŃa":2760,"gios":2761,"elegi":2762,"Segu":2763,"puedan":2764,"municipio":2765,"criti":2766,"sectores":2767,"guez":2768,"Agricultura":2769,"Aleman":2770,"espacio":2771,"mbres":2772,"sindicatos":2773,"OrganizaciÃ³n":2774,"electoral":2775,"clasi":2776,"materia":2777,"AndalucÃŃa":2778,"Justicia":2779,"zonas":2780,"portugu":2781,"LÃ³pez":2782,"97":2783,"Jue":2784,"NE":2785,"cris":2786,"itali":2787,"llan":2788,"mestre":2789,"ocho":2790,"sores":2791,"Ã¼":2792,"enero":2793,"inas":2794,"didas":2795,"cuad":2796,"nota":2797,"novi":2798,"policÃŃa":2799,"voluciÃ³n":2800,"acceso":2801,"marzo":2802,"suspen":2803,"mediante":2804,"posiciones":2805,"calle":2806,"Sebasti":2807,"Villa":2808,"mental":2809,"portaciones":2810,"Ley":2811,"Asuntos":2812,"sigue":2813,"falle":2814,"ELE":2815,"2001":2816,"locales":2817,"foto":2818,"econÃ³mico":2819,"candidato":2820,"Fuer":2821,"pedir":2822,"Empres":2823,"muchos":2824,"soldados":2825,"vuelta":2826,"vÃŃctima":2827,"53":2828,"54":2829,"BI":2830,"Cel":2831,"ETA":2832,"PR":2833,"Qu":2834,"cli":2835,"hing":2836,"zgado":2837,"departamento":2838,"ense":2839,"labor":2840,"alter":2841,"tieron":2842,"contem":2843,"prisiÃ³n":2844,"col":2845,"patri":2846,"tora":2847,"cuales":2848,"peque":2849,"reser":2850,"sociales":2851,"unidades":2852,"recla":2853,"sustitu":2854,"ÃŃstica":2855,"mismas":2856,"grave":2857,"esperan":2858,"rarse":2859,"decir":2860,"juez":2861,"ConsejerÃŃa":2862,"encuentra":2863,"legio":2864,"etapa":2865,"resultado":2866,"especialmente":2867,"efectu":2868,"israelÃŃes":2869,"cidente":2870,"viviendas":2871,"Instituto":2872,"SebastiÃ¡n":2873,"39":2874,"59":2875,"87":2876,"SU":2877,"Was":2878,"Za":2879,"apar":2880,"eva":2881,"fase":2882,"mÃº":2883,"lados":2884,"alo":2885,"inversiones":2886,"lid":2887,"mica":2888,"motivo":2889,"vic":2890,"nombra":2891,"promo":2892,"extre":2893,"extran":2894,"guerri":2895,"cep":2896,"vaciÃ³n":2897,"satis":2898,"auton":2899,"contrato":2900,"Sanz":2901,"Alber":2902,"meros":2903,"mercados":2904,"raron":2905,"comunidades":2906,"actuaciÃ³n":2907,"Ãºltimas":2908,"municipales":2909,"rÃŃguez":2910,"campe":2911,"reno":2912,"Sala":2913,"prevista":2914,"locali":2915,"apoy":2916,"Ãºnica":2917,"distintos":2918,"vecinos":2919,"peticiÃ³n":2920,"aquel":2921,"elimin":2922,"libertad":2923,"Paulo":2924,"Londres":2925,"RodrÃŃguez":2926,"ComitÃ©":2927,"Tribunal":2928,"hington":2929,"Washington":2930,"47":2931,"AG":2932,"Aus":2933,"Bil":2934,"Don":2935,"edu":2936,"ion":2937,"pad":2938,"sue":2939,"zadas":2940,"deres":2941,"deben":2942,"energ":2943,"esfuer":2944,"tat":2945,"arca":2946,"quez":2947,"asamblea":2948,"asunto":2949,"ismos":2950,"pacto":2951,"sufici":2952,"mir":2953,"Ã±as":2954,"noche":2955,"ficado":2956,"bao":2957,"exposiciÃ³n":2958,"gobier":2959,"imenta":2960,"impul":2961,"fort":2962,"autor":2963,"cantidad":2964,"ÃŃstico":2965,"ponen":2966,"pondrÃ¡":2967,"onato":2968,"trimestre":2969,"mena":2970,"central":2971,"plazas":2972,"actualidad":2973,"actualmente":2974,"ONU":2975,"Guardia":2976,"Cuba":2977,"dirig":2978,"visita":2979,"comenzÃ³":2980,"frontera":2981,"comprome":2982,"residencia":2983,"instalaciones":2984,"consul":2985,"voluntad":2986,"Juegos":2987,"Bilbao":2988,"ITA":2989,"TER":2990,"cÃ¡n":2991,"dra":2992,"madas":2993,"rena":2994,"yen":2995,"dedi":2996,"cida":2997,"elo":2998,"all":2999,"aspe":3000,"refor":3001,"entonces":3002,"pros":3003,"diencia":3004,"tuvieron":3005,"nombre":3006,"mantuvo":3007,"impuesto":3008,"tarse":3009,"lucha":3010,"ganar":3011,"Entre":3012,"neo":3013,"informe":3014,"Vicente":3015,"milita":3016,"laborales":3017,"Astu":3018,"Asamblea":3019,"edifi":3020,"quierda":3021,"Internet":3022,"desarrolla":3023,"Sierra":3024,"historia":3025,"eiro":3026,"salida":3027,"trÃ¡fico":3028,"AragÃ³n":3029,"compra":3030,"necesario":3031,"Asimismo":3032,"resoluciÃ³n":3033,"62":3034,"FC":3035,"MT":3036,"Ram":3037,"Tur":3038,"bes":3039,"cun":3040,"grÃ¡":3041,"tÃŃa":3042,"vent":3043,"denomin":3044,"cidos":3045,"algÃºn":3046,"argent":3047,"inmedia":3048,"advirtiÃ³":3049,"dir":3050,"doce":3051,"cara":3052,"descar":3053,"experi":3054,"guar":3055,"prevÃ©":3056,"lesia":3057,"niÃ±os":3058,"gaciones":3059,"muestra":3060,"ller":3061,"Ã©sta":3062,"largo":3063,"197":3064,"finali":3065,"nega":3066,"derro":3067,"buena":3068,"llegÃ³":3069,"especi":3070,"nueve":3071,"Vitoria":3072,"PaÃŃs":3073,"individu":3074,"Sao":3075,"Exteriores":3076,"negocios":3077,"ocupaciÃ³n":3078,"periodo":3079,"comercial":3080,"parece":3081,"adelan":3082,"Buenos":3083,"razÃ³n":3084,"terrorismo":3085,"05":3086,"Cha":3087,"DA":3088,"Gali":3089,"Mundial":3090,"Pr":3091,"Pla":3092,"Pam":3093,"Ur":3094,"Ven":3095,"fÃ¡":3096,"peli":3097,"sent":3098,"ugos":3099,"late":3100,"ladas":3101,"ciendo":3102,"cierre":3103,"alto":3104,"and":3105,"invi":3106,"reas":3107,"confi":3108,"conex":3109,"papel":3110,"tomar":3111,"libre":3112,"viÃ³":3113,"nove":3114,"pertura":3115,"baciÃ³n":3116,"autÃ³no":3117,"intervenciÃ³n":3118,"gencias":3119,"ministros":3120,"fren":3121,"construi":3122,"gasÃ³":3123,"polÃŃticas":3124,"humanos":3125,"negociar":3126,"derecho":3127,"representante":3128,"Fuentes":3129,"europeo":3130,"Generali":3131,"USA":3132,"diversos":3133,"carrera":3134,"aficionados":3135,"mexicano":3136,"prÃ¡ctica":3137,"plona":3138,"Aires":3139,"EspaÃ±ola":3140,"Janeiro":3141,"fotogra":3142,"Pamplona":3143,"ugosla":3144,"83":3145,"Ali":3146,"Ben":3147,"Den":3148,"DÃŃa":3149,"FI":3150,"GO":3151,"PI":3152,"far":3153,"gre":3154,"mundial":3155,"olÃŃmpi":3156,"ubi":3157,"uso":3158,"demostra":3159,"esco":3160,"refi":3161,"sep":3162,"selas":3163,"dicos":3164,"capi":3165,"lia":3166,"lig":3167,"lidad":3168,"mio":3169,"Ã©xi":3170,"tud":3171,"tual":3172,"simi":3173,"ece":3174,"tendrÃ¡n":3175,"lana":3176,"particular":3177,"fuente":3178,"ÃŃsticas":3179,"Colo":3180,"triun":3181,"comunicaciones":3182,"produjo":3183,"estuvo":3184,"principio":3185,"norma":3186,"monta":3187,"monio":3188,"libera":3189,"ofre":3190,"sani":3191,"denunciÃ³":3192,"Ã³rgan":3193,"incluye":3194,"calificÃ³":3195,"democrÃ¡":3196,"premios":3197,"popular":3198,"Bruselas":3199,"tÃ©rmino":3200,"argentino":3201,"46":3202,"51":3203,"Ala":3204,"Cla":3205,"Del":3206,"Fin":3207,"Ga":3208,"Mor":3209,"Mil":3210,"UL":3211,"blan":3212,"brero":3213,"ej":3214,"fac":3215,"funda":3216,"Ãĳ":3217,"esos":3218,"osa":3219,"erÃ¡":3220,"Ã³s":3221,"refer":3222,"refle":3223,"administra":3224,"concurso":3225,"diÃ¡":3226,"dimiento":3227,"patr":3228,"pagar":3229,"sul":3230,"supe":3231,"momentos":3232,"victor":3233,"estaciÃ³n":3234,"meta":3235,"dente":3236,"tengan":3237,"mana":3238,"cionado":3239,"coste":3240,"interes":3241,"mesa":3242,"CiU":3243,"trabajos":3244,"podrÃŃan":3245,"legisla":3246,"dinero":3247,"comerciales":3248,"Europeo":3249,"inversores":3250,"reconociÃ³":3251,"tÃŃtulo":3252,"asociaciÃ³n":3253,"habitantes":3254,"presupuesto":3255,"veces":3256,"riesgo":3257,"britÃ¡nico":3258,"Roberto":3259,"Municipal":3260,"texto":3261,"Seguridad":3262,"militares":3263,"lateral":3264,"Generalitat":3265,"66":3266,"72":3267,"84":3268,"Cal":3269,"Er":3270,"Fl":3271,"Pas":3272,"Ve":3273,"cÃ¡":3274,"gin":3275,"jeron":3276,"lista":3277,"nadas":3278,"vador":3279,"osto":3280,"cieron":3281,"argu":3282,"aspi":3283,"convi":3284,"conseguir":3285,"difÃŃ":3286,"Ã¡vez":3287,"sia":3288,"prot":3289,"guerra":3290,"tasa":3291,"Comer":3292,"jurado":3293,"trib":3294,"agrÃŃ":3295,"ezas":3296,"febrero":3297,"operaciones":3298,"consigui":3299,"Valle":3300,"Vallado":3301,"AsÃŃ":3302,"acuerdos":3303,"ChÃ¡vez":3304,"histÃ³ri":3305,"fiscales":3306,"deberÃŃa":3307,"diversas":3308,"mejorar":3309,"regula":3310,"minutos":3311,"estructura":3312,"apuntÃ³":3313,"cabeza":3314,"Rioja":3315,"ninguna":3316,"Alemania":3317,"evacu":3318,"Galicia":3319,"gasÃ³leo":3320,"Valladolid":3321,"52":3322,"Bos":3323,"BAR":3324,"JA":3325,"TU":3326,"Ter":3327,"TRA":3328,"agua":3329,"apertura":3330,"cÃŃ":3331,"edades":3332,"gri":3333,"hn":3334,"ito":3335,"cita":3336,"cimientos":3337,"alta":3338,"asi":3339,"Ã©c":3340,"proces":3341,"hombres":3342,"partes":3343,"existe":3344,"galar":3345,"saciones":3346,"gia":3347,"laron":3348,"mbia":3349,"presidencia":3350,"nez":3351,"presentan":3352,"agosto":3353,"And":3354,"meri":3355,"menor":3356,"1996":3357,"Cara":3358,"TAN":3359,"hubi":3360,"celebrada":3361,"aprobaciÃ³n":3362,"tiembre":3363,"ocupa":3364,"intento":3365,"instituciones":3366,"candidatura":3367,"oficiales":3368,"incluso":3369,"expresÃ³":3370,"ocasiÃ³n":3371,"golpe":3372,"madrile":3373,"conflicto":3374,"entidades":3375,"insistiÃ³":3376,"ejercicio":3377,"educa":3378,"gobiernos":3379,"septiembre":3380,"41":3381,"73":3382,"91":3383,"FRA":3384,"Hi":3385,"Hos":3386,"Her":3387,"Hiz":3388,"Ib":3389,"Mag":3390,"Pon":3391,"Res":3392,"Sur":3393,"Te":3394,"ami":3395,"dal":3396,"sac":3397,"tente":3398,"vada":3399,"escen":3400,"tagon":3401,"art":3402,"anas":3403,"entrada":3404,"dios":3405,"istra":3406,"maciÃ³n":3407,"culo":3408,"sico":3409,"bia":3410,"petro":3411,"despla":3412,"mez":3413,"vora":3414,"amÃ¡":3415,"navar":3416,"gida":3417,"entrega":3418,"intereses":3419,"presentar":3420,"bulÃ¡":3421,"federaciÃ³n":3422,"bilidades":3423,"objetivos":3424,"ficina":3425,"logÃŃas":3426,"comicios":3427,"televisiÃ³n":3428,"propia":3429,"acusados":3430,"cumplir":3431,"americano":3432,"seÃ±ala":3433,"Premio":3434,"abierto":3435,"parlamentario":3436,"profesionales":3437,"lÃ©tico":3438,"MartÃŃnez":3439,"territorio":3440,"mÃŃnimo":3441,"significa":3442,"inmigrantes":3443,"criticÃ³":3444,"Colombia":3445,"diÃ¡logo":3446,"Comercio":3447,"tribui":3448,"HizbulÃ¡":3449,"GMT":3450,"MEN":3451,"OlÃŃmpi":3452,"Pero":3453,"PAR":3454,"REN":3455,"Sen":3456,"Sec":3457,"XI":3458,"ea":3459,"pano":3460,"renta":3461,"tentes":3462,"ĠY":3463,"enla":3464,"ore":3465,"sean":3466,"difi":3467,"dientes":3468,"Ã¡rea":3469,"toma":3470,"rique":3471,"materi":3472,"cuy":3473,"resta":3474,"hombre":3475,"teros":3476,"tercer":3477,"expedi":3478,"unidad":3479,"posterior":3480,"ganan":3481,"Ã©ste":3482,"futbol":3483,"banco":3484,"pasa":3485,"cÃ³mo":3486,"interven":3487,"tival":3488,"tribunal":3489,"zarÃ¡n":3490,"titud":3491,"acumu":3492,"1997":3493,"crimin":3494,"pÃºblicos":3495,"Sociales":3496,"SofÃŃa":3497,"numeros":3498,"siglo":3499,"seguido":3500,"negociaciones":3501,"ficit":3502,"comitÃ©":3503,"dÃ©ficit":3504,"disputarÃ¡":3505,"buscar":3506,"Audiencia":3507,"deberÃ¡":3508,"muchas":3509,"cotizaciÃ³n":3510,"enferme":3511,"colombi":3512,"profesional":3513,"gasolina":3514,"gubernamental":3515,"categorÃŃa":3516,"mÃºsica":3517,"dirigentes":3518,"Asturias":3519,"42":3520,"63":3521,"71":3522,"DO":3523,"For":3524,"GU":3525,"His":3526,"Pos":3527,"Tran":3528,"TVE":3529,"afron":3530,"base":3531,"cencia":3532,"cuela":3533,"emi":3534,"evoluciÃ³n":3535,"ileg":3536,"reli":3537,"zquez":3538,"detenidos":3539,"radas":3540,"erpo":3541,"queda":3542,"anu":3543,"adÃ¡":3544,"contar":3545,"didos":3546,"dicho":3547,"teras":3548,"temas":3549,"rido":3550,"superior":3551,"culos":3552,"mitad":3553,"Ã©fon":3554,"protagon":3555,"respal":3556,"soluciÃ³n":3557,"entales":3558,"tenga":3559,"torneo":3560,"pide":3561,"aumentar":3562,"gico":3563,"Reina":3564,"sini":3565,"dÃ³lar":3566,"abor":3567,"Josep":3568,"recibido":3569,"organizado":3570,"telÃ©fon":3571,"Roma":3572,"socialistas":3573,"desarrollar":3574,"Local":3575,"programas":3576,"establecer":3577,"candidatos":3578,"miembro":3579,"convoca":3580,"III":3581,"Desde":3582,"judicial":3583,"carretera":3584,"convenio":3585,"aplicar":3586,"recuperar":3587,"Durante":3588,"AtlÃ©tico":3589,"alemÃ¡n":3590,"burgo":3591,"carburantes":3592,"respectivamente":3593,"Defensa":3594,"Ã©xito":3595,"ejem":3596,"difÃŃcil":3597,"dificul":3598,"Trans":3599,"43":3600,"76":3601,"82":3602,"88":3603,"Bag":3604,"FrÃ¡n":3605,"Lis":3606,"Mos":3607,"Mal":3608,"PN":3609,"SA":3610,"aten":3611,"cfort":3612,"eco":3613,"gim":3614,"mÃ¡n":3615,"tx":3616,"zano":3617,"deri":3618,"deral":3619,"civiles":3620,"raturas":3621,"quedÃ³":3622,"asu":3623,"ascenso":3624,"reforma":3625,"realidad":3626,"tipos":3627,"conces":3628,"Ã¡zquez":3629,"domi":3630,"carac":3631,"supuesta":3632,"daciÃ³n":3633,"mode":3634,"podido":3635,"despe":3636,"estadio":3637,"mej":3638,"comentÃ³":3639,"ecer":3640,"mayores":3641,"impuestos":3642,"mÃ¡tico":3643,"formado":3644,"Estu":3645,"sala":3646,"rugada":3647,"chu":3648,"visto":3649,"interior":3650,"positivo":3651,"aridad":3652,"presentada":3653,"quer":3654,"calles":3655,"favora":3656,"agres":3657,"claro":3658,"actuaciones":3659,"urban":3660,"nuestra":3661,"realizado":3662,"trabajar":3663,"aprobar":3664,"podrÃ¡":3665,"2004":3666,"madrugada":3667,"Rafa":3668,"profes":3669,"europeos":3670,"prÃ³ximas":3671,"funcionamiento":3672,"alcanzar":3673,"Domin":3674,"Rusia":3675,"rÃ©di":3676,"libanÃ©s":3677,"Reyes":3678,"PanamÃ¡":3679,"vehÃŃculo":3680,"garantizar":3681,"recientemente":3682,"pregun":3683,"autonÃ³mi":3684,"Alberto":3685,"aspectos":3686,"Prin":3687,"FrÃ¡ncfort":3688,"gimen":3689,"09":3690,"Aunque":3691,"BB":3692,"Be":3693,"Cos":3694,"Cris":3695,"GT":3696,"POR":3697,"bera":3698,"cÃŃas":3699,"ff":3700,"lÃ³n":3701,"mados":3702,"nadi":3703,"salud":3704,"th":3705,"ud":3706,"zco":3707,"deo":3708,"detal":3709,"demos":3710,"esp":3711,"unca":3712,"incen":3713,"administraciÃ³n":3714,"adquisi":3715,"tifi":3716,"entrena":3717,"contribu":3718,"separa":3719,"delo":3720,"pati":3721,"cami":3722,"mala":3723,"litera":3724,"pec":3725,"descono":3726,"tercero":3727,"estatu":3728,"fiesta":3729,"comparec":3730,"balan":3731,"torno":3732,"manca":3733,"alizaciÃ³n":3734,"boa":3735,"lleros":3736,"marca":3737,"margen":3738,"presidenta":3739,"cipado":3740,"Mario":3741,"Marrue":3742,"garon":3743,"agru":3744,"ezuela":3745,"productores":3746,"indica":3747,"inicial":3748,"inicio":3749,"jornadas":3750,"organizaciones":3751,"Lima":3752,"viaje":3753,"ronda":3754,"OEA":3755,"dÃ©ci":3756,"iniciativas":3757,"telefon":3758,"escrito":3759,"escritor":3760,"existen":3761,"operativas":3762,"mejora":3763,"industria":3764,"concentraciÃ³n":3765,"documento":3766,"obstante":3767,"Salamanca":3768,"experiencia":3769,"triunfo":3770,"Ã©ctri":3771,"Marruecos":3772,"Ac":3773,"EX":3774,"Ele":3775,"Gal":3776,"Mari":3777,"PÃ©":3778,"PRO":3779,"Tel":3780,"ZA":3781,"aba":3782,"aero":3783,"bon":3784,"cÃ¡r":3785,"crÃ©di":3786,"elabo":3787,"fÃ©":3788,"huel":3789,"iden":3790,"ler":3791,"mni":3792,"escu":3793,"civil":3794,"tades":3795,"Ã³si":3796,"uego":3797,"quedado":3798,"anual":3799,"infra":3800,"remos":3801,"conclui":3802,"secu":3803,"diplo":3804,"iso":3805,"leza":3806,"tradi":3807,"mora":3808,"bil":3809,"poten":3810,"resol":3811,"respuesta":3812,"dada":3813,"puerto":3814,"pers":3815,"ceder":3816,"mÃ¡tica":3817,"aliciÃ³n":3818,"tarÃŃa":3819,"land":3820,"cosas":3821,"cerrÃ³":3822,"obis":3823,"bieron":3824,"pasar":3825,"masi":3826,"llegado":3827,"llegada":3828,"consen":3829,"trabaja":3830,"mentaciÃ³n":3831,"valenci":3832,"planta":3833,"cultores":3834,"decidiÃ³":3835,"gasto":3836,"vasco":3837,"Leona":3838,"norm":3839,"fuerza":3840,"afirma":3841,"Che":3842,"solid":3843,"talidad":3844,"dirigente":3845,"ambiente":3846,"econÃ³micos":3847,"europea":3848,"John":3849,"Empleo":3850,"procedentes":3851,"permanente":3852,"generales":3853,"expertos":3854,"bloque":3855,"acerca":3856,"magistra":3857,"caÃŃda":3858,"protecciÃ³n":3859,"ejecuciÃ³n":3860,"cuestiones":3861,"alterna":3862,"Venezuela":3863,"peligro":3864,"sentencia":3865,"Hospital":3866,"400":3867,"64":3868,"81":3869,"Der":3870,"GI":3871,"Gir":3872,"Ko":3873,"LIB":3874,"MO":3875,"Mas":3876,"Mundo":3877,"Rec":3878,"flo":3879,"ios":3880,"otor":3881,"pto":3882,"udades":3883,"derÃ¡":3884,"detenido":3885,"esas":3886,"cic":3887,"cidas":3888,"ciudades":3889,"anim":3890,"rebel":3891,"diendo":3892,"cubri":3893,"mitiÃ³":3894,"Ã©tica":3895,"sim":3896,"polÃ©":3897,"some":3898,"dose":3899,"comenta":3900,"expan":3901,"manteni":3902,"goles":3903,"gobern":3904,"guas":3905,"nia":3906,"vers":3907,"chas":3908,"entrevis":3909,"suscri":3910,"lÃŃderes":3911,"presentarÃ¡":3912,"Vir":3913,"consis":3914,"usk":3915,"Paz":3916,"indicaron":3917,"elecciÃ³n":3918,"Cai":3919,"nues":3920,"tella":3921,"vincu":3922,"abrir":3923,"declaraciÃ³n":3924,"tividad":3925,"fronteri":3926,"circun":3927,"Boli":3928,"galle":3929,"estudiar":3930,"rÃ©gimen":3931,"enfermos":3932,"Constitu":3933,"pÃ©rdidas":3934,"prueba":3935,"Jorge":3936,"natural":3937,"tecnologÃŃas":3938,"concierto":3939,"delantero":3940,"Fuerzas":3941,"guerrilleros":3942,"RamÃ³n":3943,"Senado":3944,"telefonÃŃa":3945,"cÃ¡rcel":3946,"Air":3947,"BN":3948,"BÃ¡r":3949,"CD":3950,"EconomÃŃa":3951,"Ge":3952,"Iv":3953,"Jer":3954,"Koso":3955,"Lle":3956,"Nu":3957,"Tempe":3958,"az":3959,"cro":3960,"dÃ³n":3961,"fem":3962,"luego":3963,"mue":3964,"tÃºa":3965,"vÃ³":3966,"yeron":3967,"dejÃ³":3968,"estr":3969,"ciada":3970,"radio":3971,"ere":3972,"alza":3973,"arÃŃa":3974,"ascen":3975,"adqui":3976,"cont":3977,"semi":3978,"Ã¡mbi":3979,"tela":3980,"isis":3981,"leta":3982,"modelo":3983,"terrÃ¡n":3984,"fili":3985,"votaciÃ³n":3986,"peru":3987,"entas":3988,"acel":3989,"vati":3990,"forman":3991,"cionar":3992,"chel":3993,"marÃ¡":3994,"marco":3995,"distribu":3996,"ConfederaciÃ³n":3997,"interpre":3998,"genes":3999,"Regi":4000,"acusaciÃ³n":4001,"garÃ¡":4002,"pena":4003,"hijo":4004,"clara":4005,"Departamento":4006,"situado":4007,"principios":4008,"torios":4009,"aprovec":4010,"respeto":4011,"encuentran":4012,"considerar":4013,"Cumbre":4014,"tÃ©cnica":4015,"importantes":4016,"Provin":4017,"clÃ¡":4018,"necesita":4019,"fondos":4020,"permitirÃ¡":4021,"comercio":4022,"deseo":4023,"Chirac":4024,"asistencia":4025,"provincial":4026,"americana":4027,"policiales":4028,"premio":4029,"delito":4030,"amenazas":4031,"pÃ©rdida":4032,"Ã¡lisis":4033,"volumen":4034,"Feria":4035,"apoyar":4036,"Denis":4037,"similar":4038,"petrole":4039,"Baggio":4040,"Lisboa":4041,"Rafael":4042,"Principado":4043,"nadie":4044,"PÃ©rez":4045,"Derec":4046,"circuns":4047,"Bolivia":4048,"Kosovo":4049,"Temperaturas":4050,"03":4051,"56":4052,"58":4053,"96":4054,"Bale":4055,"CaÃ±":4056,"EM":4057,"Far":4058,"Feli":4059,"Meli":4060,"OTAN":4061,"RUS":4062,"UGT":4063,"ap":4064,"bro":4065,"gencia":4066,"jÃ³n":4067,"lÃ©s":4068,"ndo":4069,"pciÃ³n":4070,"ry":4071,"vÃ¡":4072,"wn":4073,"cianos":4074,"ertas":4075,"uevas":4076,"ERC":4077,"altÃ³":4078,"arra":4079,"ascien":4080,"tirÃ¡n":4081,"conser":4082,"coaliciÃ³n":4083,"pala":4084,"ricultores":4085,"litro":4086,"libra":4087,"licen":4088,"levan":4089,"daÃ±os":4090,"bir":4091,"biÃ³":4092,"pedido":4093,"compon":4094,"actitud":4095,"explo":4096,"guen":4097,"lesiÃ³n":4098,"casas":4099,"erar":4100,"chil":4101,"discrimin":4102,"Colegio":4103,"bancos":4104,"juzgado":4105,"Industri":4106,"venez":4107,"RepÃºblica":4108,"sindi":4109,"informado":4110,"especta":4111,"absolu":4112,"COI":4113,"COO":4114,"Vizca":4115,"producto":4116,"barrio":4117,"organismos":4118,"municipios":4119,"asegurado":4120,"representaciÃ³n":4121,"Direc":4122,"hospital":4123,"podrÃ¡n":4124,"transpar":4125,"previstas":4126,"ciarÃ¡":4127,"ÃŃndice":4128,"bajÃ³":4129,"cultural":4130,"propuestas":4131,"consumo":4132,"izquierda":4133,"sorpren":4134,"policÃŃas":4135,"movili":4136,"nubosos":4137,"distintas":4138,"periodista":4139,"cuarto":4140,"abandonar":4141,"sindicato":4142,"idea":4143,"condena":4144,"pruebas":4145,"PÃºblicas":4146,"vehÃŃculos":4147,"OMC":4148,"bombar":4149,"Servicio":4150,"beneficios":4151,"aprobÃ³":4152,"accionistas":4153,"fotografÃŃa":4154,"normativa":4155,"MilÃ¡n":4156,"victoria":4157,"convocatoria":4158,"mejores":4159,"huelga":4160,"Girona":4161,"Vizcaya":4162,"67":4163,"92":4164,"Arias":4165,"Bara":4166,"Fis":4167,"Ly":4168,"Ne":4169,"Presidencia":4170,"Salud":4171,"TEN":4172,"UD":4173,"educaciÃ³n":4174,"fan":4175,"harÃ¡":4176,"ible":4177,"nunca":4178,"sar":4179,"yol":4180,"dejar":4181,"envi":4182,"espos":4183,"cina":4184,"tarias":4185,"elem":4186,"elÃ©ctri":4187,"arte":4188,"adÃ©":4189,"adjudi":4190,"entrar":4191,"concer":4192,"come":4193,"cap":4194,"cata":4195,"caden":4196,"riente":4197,"lova":4198,"ĠVSG":4199,"estamos":4200,"puertos":4201,"tencias":4202,"accidente":4203,"exportaciones":4204,"precis":4205,"pie":4206,"piezas":4207,"tropas":4208,"postura":4209,"vern":4210,"ruso":4211,"gicas":4212,"presidencial":4213,"fines":4214,"Conferencia":4215,"posibles":4216,"jara":4217,"Govern":4218,"dario":4219,"Unidas":4220,"valu":4221,"valores":4222,"tone":4223,"rÃŃn":4224,"explica":4225,"Sobre":4226,"organizada":4227,"nuestro":4228,"torial":4229,"Mancha":4230,"origen":4231,"compaÃ±ÃŃas":4232,"liberali":4233,"responsabilidad":4234,"estrate":4235,"bajada":4236,"pacientes":4237,"empleados":4238,"estudios":4239,"diputados":4240,"gerente":4241,"Joan":4242,"Museo":4243,"cienda":4244,"movimiento":4245,"ocasiones":4246,"Hacienda":4247,"lÃŃneas":4248,"integraciÃ³n":4249,"cracia":4250,"vivienda":4251,"terrorista":4252,"MartÃŃn":4253,"Servicios":4254,"Iglesia":4255,"transporte":4256,"andaluz":4257,"ausencia":4258,"Caracas":4259,"favorable":4260,"resolver":4261,"rebeldes":4262,"expansiÃ³n":4263,"IvÃ¡n":4264,"femen":4265,"Melilla":4266,"01":4267,"74":4268,"Bel":4269,"Blan":4270,"Da":4271,"Ecu":4272,"FOR":4273,"Gil":4274,"Jim":4275,"Nas":4276,"Pab":4277,"Pir":4278,"QUE":4279,"TÃ©":4280,"TOS":4281,"UR":4282,"aran":4283,"blos":4284,"bez":4285,"cÃº":4286,"dÃŃ":4287,"elaboraciÃ³n":4288,"gesti":4289,"hon":4290,"it":4291,"sesi":4292,"vari":4293,"ĠFs":4294,"osis":4295,"onia":4296,"tam":4297,"orca":4298,"quedar":4299,"anal":4300,"inde":4301,"dicha":4302,"cooperativas":4303,"sui":4304,"sir":4305,"siva":4306,"siendo":4307,"vigi":4308,"proposiciÃ³n":4309,"promedio":4310,"poca":4311,"resaltÃ³":4312,"descenso":4313,"estatal":4314,"metro":4315,"uiz":4316,"pudo":4317,"tene":4318,"exten":4319,"mantienen":4320,"testi":4321,"trodu":4322,"cargos":4323,"versiÃ³n":4324,"aumenta":4325,"giÃ³":4326,"gana":4327,"partida":4328,"disco":4329,"negÃ³":4330,"geni":4331,"llevado":4332,"agencia":4333,"Patri":4334,"valos":4335,"priori":4336,"Naciones":4337,"250":4338,"tÃŃn":4339,"CIA":4340,"DEL":4341,"vino":4342,"opciones":4343,"anunciado":4344,"ficaciones":4345,"importancia":4346,"ventas":4347,"ACNO":4348,"cidentes":4349,"ComunicaciÃ³n":4350,"estudiantes":4351,"Joa":4352,"relacion":4353,"asesor":4354,"contactos":4355,"llevarÃ¡":4356,"cumplimiento":4357,"PARA":4358,"razones":4359,"reducir":4360,"ataque":4361,"confirmÃ³":4362,"presupuesta":4363,"influ":4364,"reiv":4365,"heridas":4366,"Trabajo":4367,"noviembre":4368,"suspensiÃ³n":4369,"localidades":4370,"suficiente":4371,"fundamental":4372,"ganancias":4373,"solidaridad":4374,"BÃ¡rbara":4375,"estrategia":4376,"94":4377,"CAN":4378,"CCOO":4379,"Fon":4380,"Fre":4381,"GÃ³":4382,"IP":4383,"Mesa":4384,"OV":4385,"Pen":4386,"RU":4387,"SV":4388,"Sy":4389,"cÃ©":4390,"drÃŃa":4391,"eto":4392,"fre":4393,"gÃ¼":4394,"har":4395,"tt":4396,"tenta":4397,"tÃºn":4398,"vento":4399,"vac":4400,"vados":4401,"cif":4402,"cipe":4403,"taba":4404,"taforma":4405,"are":4406,"artÃŃ":4407,"anteriores":4408,"inta":4409,"inti":4410,"introdu":4411,"republi":4412,"diseÃ±":4413,"divisiÃ³n":4414,"pago":4415,"rieron":4416,"supuesto":4417,"mati":4418,"macho":4419,"lide":4420,"limi":4421,"midad":4422,"motiv":4423,"noti":4424,"Ãºan":4425,"socios":4426,"amÃ©rica":4427,"Estos":4428,"carÃ¡":4429,"mula":4430,"discip":4431,"grado":4432,"Ã©ndez":4433,"Ing":4434,"cesi":4435,"zarse":4436,"olÃ³":4437,"consta":4438,"constru":4439,"1995":4440,"varia":4441,"Caja":4442,"Camacho":4443,"decidido":4444,"gastos":4445,"Soci":4446,"alguna":4447,"finalmente":4448,"senti":4449,"chet":4450,"periÃ³":4451,"competencias":4452,"antil":4453,"Superior":4454,"EURO":4455,"subiÃ³":4456,"sociedades":4457,"existencia":4458,"familias":4459,"CELO":4460,"asesina":4461,"encontraba":4462,"reducciÃ³n":4463,"rechazÃ³":4464,"espaÃ±olas":4465,"recibir":4466,"heridos":4467,"encabez":4468,"...":4469,"mÃ©dico":4470,"colectivo":4471,"extraordin":4472,"pronun":4473,"global":4474,"Primera":4475,"elegido":4476,"clientes":4477,"esfuerzo":4478,"edificio":4479,"ligero":4480,"BARCELO":4481,"posteriormente":4482,"Baleares":4483,"TÃ©cni":4484,"indemni":4485,"GÃ³mez":4486,"700":4487,"AÃĳ":4488,"Bon":4489,"Bur":4490,"CAR":4491,"Ceu":4492,"Eu":4493,"Eusk":4494,"FIN":4495,"IO":4496,"Ibar":4497,"ION":4498,"Kar":4499,"Pue":4500,"Pad":4501,"Plas":4502,"Pese":4503,"Sor":4504,"Sol":4505,"VÃ¡zquez":4506,"bla":4507,"ctura":4508,"km":4509,"pÃº":4510,"pana":4511,"sÃ©":4512,"demÃ³":4513,"citada":4514,"altura":4515,"reÃºn":4516,"consoli":4517,"conjunta":4518,"divi":4519,"dibu":4520,"colas":4521,"portero":4522,"caer":4523,"totalidad":4524,"licencia":4525,"culares":4526,"habili":4527,"resis":4528,"presentes":4529,"terra":4530,"estaciones":4531,"paro":4532,"combus":4533,"rando":4534,"ement":4535,"empa":4536,"tenas":4537,"acadÃ©":4538,"impedir":4539,"tron":4540,"Espe":4541,"postela":4542,"museo":4543,"rut":4544,"rÃ¡pi":4545,"tancias":4546,"entrevista":4547,"disposiciÃ³n":4548,"bancar":4549,"poni":4550,"deros":4551,"Relaciones":4552,"contrario":4553,"queri":4554,"Seg":4555,"Villan":4556,"pueblo":4557,"directivos":4558,"actuales":4559,"Mientras":4560,"Armadas":4561,"seÃ±anza":4562,"edil":4563,"funciÃ³n":4564,"celebrar":4565,"celebrado":4566,"aprobado":4567,"seguidores":4568,"cumbre":4569,"madre":4570,"PSE":4571,"ofen":4572,"sanciones":4573,"instituto":4574,"antigu":4575,"investig":4576,"AmÃ©rica":4577,"CIONES":4578,"policial":4579,"participan":4580,"asociaciones":4581,"experimenta":4582,"chiÃŃ":4583,"industrial":4584,"trÃ¡s":4585,"recibiÃ³":4586,"conversaciones":4587,"modificaciÃ³n":4588,"================================":4589,"vÃŃctimas":4590,"siguiente":4591,"figura":4592,"verano":4593,"andante":4594,"ofrece":4595,"Ã³rgano":4596,"Moreno":4597,"hubiera":4598,"restau":4599,"expediente":4600,"chubas":4601,"Mariano":4602,"obispo":4603,"Provincial":4604,"sesiones":4605,"tampoco":4606,"asesinato":4607,"BARCELONA":4608,"Ceuta":4609,"Plasencia":4610,"demÃ³cra":4611,"combusti":4612,"Villanueva":4613,"07":4614,"78":4615,"Amena":4616,"BA":4617,"Bor":4618,"Bei":4619,"Cab":4620,"Edu":4621,"Fa":4622,"GA":4623,"Gala":4624,"He":4625,"Medi":4626,"NI":4627,"Ol":4628,"PrÃŃn":4629,"Ten":4630,"TELE":4631,"Uno":4632,"apor":4633,"ape":4634,"apla":4635,"aplaza":4636,"bÃ¡":4637,"cciones":4638,"hemos":4639,"tÃ©s":4640,"zando":4641,"decen":4642,"lamentÃ³":4643,"cientos":4644,"rati":4645,"once":4646,"arre":4647,"anÃ¡lisis":4648,"rede":4649,"cobra":4650,"teca":4651,"ish":4652,"paque":4653,"camino":4654,"cuestiÃ³n":4655,"mite":4656,"damente":4657,"turi":4658,"bio":4659,"promociÃ³n":4660,"pera":4661,"presente":4662,"terÃ³":4663,"terreno":4664,"estan":4665,"file":4666,"tenÃŃan":4667,"exclu":4668,"mantenido":4669,"amis":4670,"implan":4671,"mÃ¡ticas":4672,"joy":4673,"230":4674,"Esto":4675,"luvi":4676,"ches":4677,"discu":4678,"veinte":4679,"Como":4680,"pase":4681,"pasÃ³":4682,"ponga":4683,"cree":4684,"jurÃŃ":4685,"millÃ³n":4686,"ney":4687,"posibilidades":4688,"beros":4689,"llega":4690,"fabri":4691,"Alfon":4692,"menes":4693,"penas":4694,"empresari":4695,"empresario":4696,"empresarios":4697,"comunitarios":4698,"directamente":4699,"equival":4700,"Jospin":4701,"nosotros":4702,"regres":4703,"milicianos":4704,"explicado":4705,"reuniones":4706,"renun":4707,"cinas":4708,"normas":4709,"ASA":4710,"Saint":4711,"hubo":4712,"INA":4713,"Casa":4714,"ciaron":4715,"resultaron":4716,"CanadÃ¡":4717,"denunci":4718,"Rajoy":4719,"efecto":4720,"derecha":4721,"europeas":4722,"favori":4723,"solicitado":4724,"parecer":4725,"panyol":4726,"registrÃ³":4727,"acabar":4728,"funcionarios":4729,"encontrar":4730,"americanos":4731,"atenta":4732,"plantea":4733,"Compostela":4734,"delitos":4735,"abierta":4736,"concluyÃ³":4737,"Consell":4738,"brasileÃ±a":4739,"brasileÃ±o":4740,"sexual":4741,"gusto":4742,"oportunidades":4743,"oportunidad":4744,"facilitar":4745,"Jean":4746,"Mercado":4747,"ofrecer":4748,"comisario":4749,"crisis":4750,"italiano":4751,"PRES":4752,"energÃŃa":4753,"Turismo":4754,"fÃ¡bri":4755,"conexiones":4756,"refiriÃ³":4757,"enfermedad":4758,"BBVA":4759,"Costa":4760,"polÃ©mica":4761,"Lleida":4762,"distribuciÃ³n":4763,"asciende":4764,"bombarde":4765,"Beirut":4766,"06":4767,"93":4768,"Acesa":4769,"Ce":4770,"DES":4771,"Flor":4772,"FÃºtbol":4773,"Hern":4774,"Mur":4775,"Oli":4776,"Pac":4777,"Tec":4778,"apos":4779,"cue":4780,"cÃ³n":4781,"gÃŃa":4782,"ime":4783,"iba":4784,"ker":4785,"pÃ¡":4786,"tz":4787,"tza":4788,"ua":4789,"vadas":4790,"vamos":4791,"yugosla":4792,"zz":4793,"dej":4794,"lajara":4795,"laterra":4796,"ciente":4797,"cine":4798,"cifra":4799,"cilio":4800,"onar":4801,"tale":4802,"uelo":4803,"altos":4804,"artista":4805,"artistas":4806,"insu":4807,"referencia":4808,"tidos":4809,"divis":4810,"coche":4811,"doble":4812,"cayÃ³":4813,"liga":4814,"cuerpo":4815,"miles":4816,"leish":4817,"daq":4818,"hacen":4819,"sicos":4820,"vila":4821,"estarÃ¡n":4822,"comandante":4823,"votos":4824,"tendencia":4825,"preocupaciÃ³n":4826,"alianza":4827,"formu":4828,"Escuela":4829,"sab":4830,"aÃ±ade":4831,"erales":4832,"landa":4833,"ruguay":4834,"ganador":4835,"presidenciales":4836,"gracias":4837,"Ã©nez":4838,"mediados":4839,"quÃŃn":4840,"acul":4841,"mÃ³viles":4842,"agricultores":4843,"instru":4844,"pÃºblicas":4845,"reunirÃ¡":4846,"campes":4847,"maniosis":4848,"torias":4849,"origin":4850,"Guer":4851,"consideraciÃ³n":4852,"ocupar":4853,"Monte":4854,"aviÃ³n":4855,"permite":4856,"Campo":4857,"busca":4858,"financiaciÃ³n":4859,"tratamiento":4860,"familiares":4861,"Hugo":4862,"afectados":4863,"Alejan":4864,"Puerto":4865,"lorca":4866,"participarÃ¡n":4867,"generaciÃ³n":4868,"vecino":4869,"recuperaciÃ³n":4870,"lÃ³gica":4871,"utilizar":4872,"soluciones":4873,"conclusiones":4874,"libaneses":4875,"sexuales":4876,"quince":4877,"registrado":4878,"CHA":4879,"siguientes":4880,"gubernamentales":4881,"analizar":4882,"aprobada":4883,"comienzo":4884,"coincidieron":4885,"Jaime":4886,"consecuencia":4887,"portuguÃ©s":4888,"reservas":4889,"nombramiento":4890,"extreme":4891,"aquellos":4892,"padres":4893,"escolar":4894,"numerosos":4895,"Mallorca":4896,"domicilio":4897,"detalles":4898,"balance":4899,"Ã¡mbito":4900,"petroleras":4901,"cadena":4902,"Nasdaq":4903,"cifras":4904,"Inglaterra":4905,"PrÃŃncipe":4906,"leishmaniosis":4907,"120":4908,"57":4909,"AÃ±":4910,"CU":4911,"Dani":4912,"Hel":4913,"Herre":4914,"IT":4915,"Mc":4916,"Obras":4917,"Pres":4918,"Rad":4919,"Respe":4920,"Sil":4921,"VAR":4922,"dney":4923,"ee":4924,"eras":4925,"efica":4926,"feli":4927,"idos":4928,"oposi":4929,"oficina":4930,"stra":4931,"ty":4932,"uda":4933,"uÃ±a":4934,"vul":4935,"vadores":4936,"vamente":4937,"xem":4938,"yan":4939,"detenciÃ³n":4940,"rador":4941,"arqui":4942,"recomen":4943,"tima":4944,"tierra":4945,"colabo":4946,"suce":4947,"supri":4948,"lica":4949,"liÃ¡n":4950,"cua":4951,"cula":4952,"mico":4953,"Ã±e":4954,"roquÃŃ":4955,"haciendo":4956,"trayec":4957,"onesa":4958,"desfile":4959,"homena":4960,"sola":4961,"compara":4962,"comÃºn":4963,"voto":4964,"pus":4965,"perdiÃ³":4966,"acla":4967,"exam":4968,"exterior":4969,"dura":4970,"adalajara":4971,"mÃ¡xim":4972,"previ":4973,"minaciÃ³n":4974,"cartas":4975,"verde":4976,"rugÃŃa":4977,"chos":4978,"gando":4979,"mario":4980,"Ã©stos":4981,"distribui":4982,"cerrar":4983,"intervalos":4984,"bueno":4985,"ayuntamiento":4986,"informar":4987,"Alto":4988,"mensa":4989,"menores":4990,"pensa":4991,"conocido":4992,"centen":4993,"darse":4994,"produce":4995,"corre":4996,"planes":4997,"indicado":4998,"Cala":4999,"ONG":5000,"Michel":5001,"gresistas":5002,"tismo":5003,"jueces":5004,"viaja":5005,"Guadalajara":5006,"UEFA":5007,"inglÃ©s":5008,"olano":5009,"hacerlo":5010,"tÃ©cnicas":5011,"importe":5012,"ofreci":5013,"recorrido":5014,"CoruÃ±a":5015,"bajas":5016,"econÃ³micas":5017,"integrantes":5018,"logrÃ³":5019,"RaÃºl":5020,"Serena":5021,"alcaldesa":5022,"tirse":5023,"turismo":5024,"clubes":5025,"convocado":5026,"consumi":5027,"Federal":5028,"delegaciÃ³n":5029,"Alex":5030,"Insalud":5031,"Pilar":5032,"llegaron":5033,"mostrado":5034,"procedimiento":5035,"democracia":5036,"ataques":5037,"dirigida":5038,"parlamentaria":5039,"reiterÃ³":5040,"riesgos":5041,"exigi":5042,"pensar":5043,"coordinador":5044,"festival":5045,"Empresa":5046,"promover":5047,"extranjeros":5048,"Austri":5049,"suelo":5050,"construir":5051,"prÃ¡cticamente":5052,"patronal":5053,"Flori":5054,"agrÃŃcolas":5055,"procesado":5056,"cuyos":5057,"telÃ©fono":5058,"Transpor":5059,"asumi":5060,"despejado":5061,"adquisiciÃ³n":5062,"versario":5063,"Geor":5064,"transparencia":5065,"Lycos":5066,"elementos":5067,"JimÃ©nez":5068,"Pablo":5069,"analistas":5070,"antiguo":5071,"Alfonso":5072,"Herrera":5073,"Respecto":5074,"02":5075,"AB":5076,"AP":5077,"AT":5078,"Bus":5079,"Clu":5080,"Eri":5081,"GRAN":5082,"Isa":5083,"Lan":5084,"MaÃ±":5085,"Mia":5086,"OP":5087,"Os":5088,"Pino":5089,"SO":5090,"ST":5091,"Ver":5092,"Yo":5093,"Yugosla":5094,"Zam":5095,"agen":5096,"ajus":5097,"apare":5098,"apenas":5099,"bÃºs":5100,"ds":5101,"ejecutivo":5102,"evalu":5103,"gr":5104,"ima":5105,"icas":5106,"mp":5107,"ner":5108,"nan":5109,"pÃ³n":5110,"prac":5111,"st":5112,"dero":5113,"defi":5114,"radi":5115,"orno":5116,"eles":5117,"ERA":5118,"alrede":5119,"unciÃ³n":5120,"asturi":5121,"remi":5122,"retra":5123,"adamente":5124,"entÃŃ":5125,"contu":5126,"contarÃ¡":5127,"semin":5128,"diera":5129,"Ã¡s":5130,"losevi":5131,"istÃ¡n":5132,"ritu":5133,"Ã©poca":5134,"tubre":5135,"sitÃºa":5136,"vigente":5137,"prolon":5138,"pocos":5139,"reste":5140,"presunta":5141,"presunto":5142,"Ãºr":5143,"Ãºper":5144,"estados":5145,"estabilidad":5146,"fil":5147,"comporta":5148,"dencias":5149,"pular":5150,"puerta":5151,"perdido":5152,"emin":5153,"activos":5154,"toro":5155,"mando":5156,"gotÃ¡":5157,"Latino":5158,"formar":5159,"Estas":5160,"Espanyol":5161,"pier":5162,"minos":5163,"tarje":5164,"cionalidad":5165,"saber":5166,"verda":5167,"lancia":5168,"costes":5169,"chan":5170,"marroquÃŃ":5171,"vega":5172,"mismos":5173,"graves":5174,"lÃŃn":5175,"derÃŃa":5176,"quen":5177,"Goya":5178,"acusÃ³":5179,"untamientos":5180,"Sanidad":5181,"agre":5182,"Ante":5183,"ministerio":5184,"COS":5185,"firmado":5186,"consell":5187,"cense":5188,"produc":5189,"producido":5190,"producir":5191,"106":5192,"Parlamenta":5193,"operado":5194,"treinta":5195,"Milosevi":5196,"puntu":5197,"vasca":5198,"asegura":5199,"PolÃŃ":5200,"Popular":5201,"ANO":5202,"funciones":5203,"arrollo":5204,"Gua":5205,"frances":5206,"2002":5207,"cambiar":5208,"brico":5209,"cuentas":5210,"estratÃ©":5211,"CorÃŃn":5212,"sangre":5213,"institucionales":5214,"ambiental":5215,"pesos":5216,"necesidades":5217,"antigua":5218,"culturales":5219,"hispano":5220,"Petro":5221,"velo":5222,"BogotÃ¡":5223,"investigaciones":5224,"viene":5225,"propiedad":5226,"existente":5227,"precipi":5228,"diputada":5229,"AutÃ³no":5230,"Huesca":5231,"Agencia":5232,"adecu":5233,"relavega":5234,"contacto":5235,"principalmente":5236,"Desarrollo":5237,"participantes":5238,"cuarta":5239,"acoger":5240,"recoge":5241,"mÃ¡xima":5242,"Menorca":5243,"libanesa":5244,"modificar":5245,"constituye":5246,"defender":5247,"Torrelavega":5248,"alemana":5249,"causas":5250,"mÃ©dicos":5251,"pisco":5252,"estructuras":5253,"crÃŃticas":5254,"colectivos":5255,"GuipÃº":5256,"Fomento":5257,"clasificaciÃ³n":5258,"cuadrados":5259,"ELEC":5260,"contempla":5261,"patrio":5262,"satisfec":5263,"campeÃ³n":5264,"eliminar":5265,"padre":5266,"esfuerzos":5267,"grÃ¡fica":5268,"protesta":5269,"OlÃŃmpicos":5270,"PNV":5271,"supuestamente":5272,"Estudi":5273,"zcoa":5274,"perspec":5275,"consenso":5276,"Derecho":5277,"venezolano":5278,"Pirine":5279,"reivindi":5280,"tÃºnel":5281,"Sociedad":5282,"periÃ³dico":5283,"reÃºne":5284,"Caball":5285,"amistos":5286,"AÃ±adiÃ³":5287,"Radio":5288,"Austria":5289,"Miami":5290,"Pinochet":5291,"Milosevic":5292,"GuipÃºzcoa":5293,"04":5294,"08":5295,"79":5296,"BP":5297,"Bol":5298,"Bern":5299,"CP":5300,"CÃ©s":5301,"CES":5302,"CNE":5303,"Davi":5304,"Ese":5305,"ICA":5306,"LU":5307,"MAD":5308,"Pari":5309,"Pesca":5310,"Ren":5311,"Ruiz":5312,"Sta":5313,"Serra":5314,"UP":5315,"Van":5316,"Wil":5317,"ahor":5318,"bÃ³":5319,"ear":5320,"eda":5321,"econo":5322,"gros":5323,"hal":5324,"ira":5325,"jera":5326,"lÃ¡n":5327,"ocul":5328,"pistas":5329,"sensa":5330,"vante":5331,"xa":5332,"Â¿":5333,"ĠFia":5334,"ĠFit":5335,"deb":5336,"deman":5337,"deja":5338,"citado":5339,"cierto":5340,"Ã³lo":5341,"ardo":5342,"asig":5343,"injus":5344,"reda":5345,"recurso":5346,"LOS":5347,"tillo":5348,"dic":5349,"difun":5350,"Ã¡rez":5351,"ÃŃz":5352,"ÃŃritu":5353,"dol":5354,"isa":5355,"sureste":5356,"maz":5357,"lizaciÃ³n":5358,"hacÃŃa":5359,"modo":5360,"ĠVAP":5361,"adora":5362,"progres":5363,"petencia":5364,"resuel":5365,"descan":5366,"solo":5367,"estaban":5368,"fij":5369,"meras":5370,"comarca":5371,"tenemos":5372,"expul":5373,"imismo":5374,"Latina":5375,"preacuerdo":5376,"prevenciÃ³n":5377,"jol":5378,"lesias":5379,"nie":5380,"alidades":5381,"foro":5382,"carta":5383,"musul":5384,"rum":5385,"cante":5386,"naciÃ³n":5387,"gicos":5388,"distas":5389,"vedra":5390,"Energ":5391,"creado":5392,"lÃŃni":5393,"Indi":5394,"venida":5395,"llama":5396,"Marina":5397,"instÃ³":5398,"COR":5399,"firmas":5400,"daria":5401,"hicieron":5402,"ESES":5403,"Unido":5404,"directo":5405,"directora":5406,"primeras":5407,"hablar":5408,"Juzgado":5409,"Arte":5410,"situada":5411,"Frances":5412,"Ciencias":5413,"trabajan":5414,"humani":5415,"objeto":5416,"negociaciÃ³n":5417,"guera":5418,"Cortes":5419,"Telecom":5420,"antiterrorista":5421,"drogas":5422,"profeso":5423,"establece":5424,"candidaturas":5425,"efectiva":5426,"comenzaron":5427,"dÃ©cada":5428,"circu":5429,"cidental":5430,"ADOS":5431,"publicado":5432,"estadounidenses":5433,"deportivo":5434,"incrementa":5435,"instalaciÃ³n":5436,"continuar":5437,"reconocimiento":5438,"relacionados":5439,"salir":5440,"Pujol":5441,"seleccion":5442,"DespuÃ©s":5443,"cumplido":5444,"participado":5445,"Granada":5446,"Asobal":5447,"conveni":5448,"agraria":5449,"aplicaciÃ³n":5450,"regular":5451,"lÃ³gico":5452,"Competencia":5453,"parlamentarios":5454,"abandono":5455,"inauguraciÃ³n":5456,"definitiva":5457,"PÃºblica":5458,"intentar":5459,"temala":5460,"bomberos":5461,"documentaciÃ³n":5462,"desempleo":5463,"financieros":5464,"combate":5465,"usuarios":5466,"competiciÃ³n":5467,"cristi":5468,"aparca":5469,"satisf":5470,"campeonato":5471,"Austra":5472,"energÃ©":5473,"suficientes":5474,"denominado":5475,"inmediato":5476,"guarda":5477,"conexiÃ³n":5478,"Alianza":5479,"farma":5480,"demostrado":5481,"Alava":5482,"Delgado":5483,"madrileÃ±o":5484,"escenario":5485,"colombiano":5486,"siniestro":5487,"ejemplo":5488,"dificultades":5489,"entrenamiento":5490,"dÃ©cima":5491,"ConstituciÃ³n":5492,"licencias":5493,"DirecciÃ³n":5494,"relacionadas":5495,"Sydney":5496,"230500":5497,"pÃ¡g":5498,"Alejandro":5499,"homenaje":5500,"defien":5501,"seminario":5502,"comportamiento":5503,"Guatemala":5504,"Estudiantes":5505,"Bolsa":5506,"Paribas":5507,"ARG":5508,"Ahora":5509,"Atenas":5510,"Cuevas":5511,"Dos":5512,"EE":5513,"EZ":5514,"Episco":5515,"Hen":5516,"Jones":5517,"Ka":5518,"Lin":5519,"MAS":5520,"Pol":5521,"Qui":5522,"Ros":5523,"Ray":5524,"RES":5525,"VÃŃ":5526,"XX":5527,"bec":5528,"cador":5529,"dina":5530,"fÃ³r":5531,"hin":5532,"hÃŃ":5533,"icos":5534,"nas":5535,"plar":5536,"pele":5537,"rÃ©s":5538,"tmo":5539,"ude":5540,"vali":5541,"vini":5542,"war":5543,"yun":5544,"zantes":5545,"ĠDT":5546,"defici":5547,"enmi":5548,"encial":5549,"laridad":5550,"cirÃ¡":5551,"ciados":5552,"ciertos":5553,"one":5554,"eren":5555,"allÃŃ":5556,"alber":5557,"arti":5558,"anzas":5559,"ingreso":5560,"retras":5561,"requisi":5562,"entorno":5563,"ISRA":5564,"secciÃ³n":5565,"dicta":5566,"Ã¡ra":5567,"copa":5568,"coca":5569,"colegio":5570,"cable":5571,"ritmo":5572,"matri":5573,"litros":5574,"cubano":5575,"Ã±ez":5576,"habido":5577,"tratar":5578,"propor":5579,"despi":5580,"terÃŃa":5581,"parque":5582,"compren":5583,"ecen":5584,"bai":5585,"embaj":5586,"torce":5587,"impu":5588,"uniÃ³n":5589,"vacaciones":5590,"quia":5591,"quiera":5592,"quiÃ©n":5593,"cartel":5594,"aÃ±adi":5595,"vero":5596,"murieron":5597,"canciones":5598,"dispuesto":5599,"disminu":5600,"estÃ©":5601,"obtener":5602,"ponencia":5603,"graciÃ³n":5604,"interna":5605,"internet":5606,"Investi":5607,"positiva":5608,"tricidad":5609,"venement":5610,"presentadas":5611,"Representan":5612,"brano":5613,"acudir":5614,"abs":5615,"pendiente":5616,"conocimiento":5617,"consor":5618,"1994":5619,"produjeron":5620,"plataforma":5621,"mesas":5622,"103":5623,"directiva":5624,"corriente":5625,"cultivos":5626,"decidieron":5627,"decisiones":5628,"trea":5629,"Micha":5630,"tranqui":5631,"CIAS":5632,"oriental":5633,"juegos":5634,"Diego":5635,"hospi":5636,"Castel":5637,"encuentros":5638,"seguirÃ¡":5639,"consideran":5640,"continÃºa":5641,"hayan":5642,"desarrollan":5643,"institucional":5644,"autopista":5645,"Produ":5646,"efectos":5647,"efectivos":5648,"ventaja":5649,"Paraguay":5650,"RIA":5651,"RID":5652,"solicitud":5653,"telecomunicaciones":5654,"amplia":5655,"deporte":5656,"subven":5657,"destino":5658,"continuaciÃ³n":5659,"deberÃ¡n":5660,"opinÃ³":5661,"MuÃ±o":5662,"asesin":5663,"ÃŃcula":5664,"ision":5665,"pareja":5666,"experim":5667,"corresponde":5668,"comprar":5669,"aniversario":5670,"causado":5671,"ocupada":5672,"Salvador":5673,"quinto":5674,"Asia":5675,"Jordi":5676,"intensi":5677,"OMS":5678,"octubre":5679,"Giro":5680,"beneficio":5681,"Tierra":5682,"observadores":5683,"mÃŃnima":5684,"abogado":5685,"independiente":5686,"incorporaciÃ³n":5687,"lograr":5688,"portuguesa":5689,"italiana":5690,"clima":5691,"gravedad":5692,"Zamora":5693,"edificios":5694,"negativa":5695,"confiÃ³":5696,"montaÃ±a":5697,"blanco":5698,"administraciones":5699,"superar":5700,"agrÃŃcola":5701,"consiguiÃ³":5702,"histÃ³rico":5703,"evacuaciÃ³n":5704,"galardÃ³n":5705,"educativa":5706,"afrontar":5707,"protagoni":5708,"atender":5709,"caracter":5710,"agresiÃ³n":5711,"literatura":5712,"agrupa":5713,"aeropuerto":5714,"secuestra":5715,"tradicional":5716,"Chevenement":5717,"nuestros":5718,"tellano":5719,"BNP":5720,"Jerez":5721,"filial":5722,"Regional":5723,"Felipe":5724,"sindical":5725,"esposa":5726,"toneladas":5727,"noticias":5728,"Burgos":5729,"resistencia":5730,"Segunda":5731,"ofensiva":5732,"aplazamiento":5733,"implantaciÃ³n":5734,"empresarial":5735,"Murcia":5736,"centenar":5737,"Club":5738,"Zambrano":5739,"CÃ©sar":5740,"David":5741,"Australia":5742,"enmien":5743,"ISRAEL":5744,"600":5745,"Afri":5746,"Ameri":5747,"Gre":5748,"Gay":5749,"Han":5750,"IM":5751,"Ku":5752,"Kre":5753,"Mara":5754,"Nor":5755,"Nica":5756,"QU":5757,"RFA":5758,"Sus":5759,"TES":5760,"UT":5761,"Ya":5762,"aj":5763,"abu":5764,"apuesta":5765,"fl":5766,"gh":5767,"iro":5768,"jano":5769,"llas":5770,"lluvi":5771,"omÃŃa":5772,"salu":5773,"dea":5774,"detrÃ¡s":5775,"enseÃ±anza":5776,"ramos":5777,"ERRA":5778,"alban":5779,"alcÃ³":5780,"arma":5781,"armas":5782,"inser":5783,"infer":5784,"incidentes":5785,"incumplimiento":5786,"reta":5787,"reparti":5788,"refu":5789,"revisiÃ³n":5790,"reanu":5791,"adver":5792,"adalu":5793,"tiro":5794,"confÃŃa":5795,"dirÃ¡":5796,"dijeron":5797,"Ã¡reas":5798,"tea":5799,"tecimiento":5800,"lido":5801,"liqui":5802,"limpi":5803,"mida":5804,"haga":5805,"hagan":5806,"tratos":5807,"sida":5808,"moral":5809,"vivir":5810,"vigor":5811,"bitro":5812,"bill":5813,"loto":5814,"presos":5815,"socio":5816,"pari":5817,"Elche":5818,"perci":5819,"perder":5820,"perjudi":5821,"empren":5822,"actor":5823,"acceder":5824,"Ã¡ndose":5825,"tormentos":5826,"mane":5827,"duda":5828,"adap":5829,"prece":5830,"prefer":5831,"previa":5832,"lesion":5833,"fortale":5834,"gara":5835,"luz":5836,"reces":5837,"mucha":5838,"lando":5839,"austri":5840,"cantes":5841,"giados":5842,"tanos":5843,"distri":5844,"dispone":5845,"1989":5846,"Comis":5847,"banca":5848,"misos":5849,"mista":5850,"creo":5851,"jugado":5852,"genio":5853,"presentaron":5854,"Rep":5855,"Reino":5856,"contratos":5857,"contrataciÃ³n":5858,"esperar":5859,"merÃŃa":5860,"centra":5861,"Villar":5862,"hidro":5863,"Parla":5864,"valdo":5865,"habla":5866,"clave":5867,"crimen":5868,"ONA":5869,"Valenci":5870,"situÃ³":5871,"150":5872,"campus":5873,"asegurar":5874,"AsunciÃ³n":5875,"juega":5876,"opti":5877,"viajes":5878,"realiza":5879,"realizaciÃ³n":5880,"sostuvo":5881,"sensi":5882,"senador":5883,"Guadalu":5884,"humano":5885,"anuncio":5886,"Luxem":5887,"regionales":5888,"quieren":5889,"destaca":5890,"foral":5891,"cuentan":5892,"manifestado":5893,"lengua":5894,"volviÃ³":5895,"ayudar":5896,"Siria":5897,"Lozano":5898,"Estadio":5899,"comerci":5900,"SuÃ¡rez":5901,"comenzarÃ¡":5902,"turÃŃstico":5903,"disputa":5904,"disputado":5905,"solicita":5906,"propieta":5907,"trÃ³leo":5908,"debajo":5909,"deportivos":5910,"deportistas":5911,"colegios":5912,"continua":5913,"afecta":5914,"tÃ¡brico":5915,"justicia":5916,"completa":5917,"complejo":5918,"participaron":5919,"seÃ±alado":5920,"seÃ±alaron":5921,"participÃ³":5922,"obliga":5923,"vecina":5924,"MÃ¡s":5925,"correspondiente":5926,"inaugurarÃ¡":5927,"incluido":5928,"gasolinas":5929,"encargado":5930,"conducir":5931,"intensa":5932,"determinar":5933,"aceptar":5934,"GijÃ³n":5935,"Guiller":5936,"adoptar":5937,"pregunta":5938,"Balles":5939,"Mayor":5940,"independen":5941,"Socialista":5942,"BIER":5943,"patrimonio":5944,"reserva":5945,"esperanza":5946,"impulsar":5947,"consultas":5948,"reformas":5949,"olÃŃmpico":5950,"ofreciÃ³":5951,"Ã³rganos":5952,"regulari":5953,"Bosnia":5954,"Teatro":5955,"material":5956,"ilegal":5957,"respaldo":5958,"concesiÃ³n":5959,"Domingo":5960,"Tellado":5961,"elaborado":5962,"ciclo":5963,"cubrir":5964,"Caixa":5965,"absoluta":5966,"femenino":5967,"Ecuador":5968,"honor":5969,"influencia":5970,"Eduardo":5971,"Florida":5972,"Yugoslavia":5973,"alrededor":5974,"velocidad":5975,"AutÃ³noma":5976,"VÃŃctor":5977,"Representantes":5978,"Nicara":5979,"Villarreal":5980,"Luxemburgo":5981,"Guillermo":5982,"800":5983,"AM":5984,"Avila":5985,"BS":5986,"BU":5987,"Bas":5988,"Bro":5989,"CR":5990,"Casta":5991,"CAS":5992,"CSI":5993,"Din":5994,"FP":5995,"FMI":5996,"Gri":5997,"Gales":5998,"Iz":5999,"LI":6000,"Lor":6001,"LAN":6002,"Mac":6003,"Mau":6004,"NH":6005,"OT":6006,"Oficina":6007,"Plen":6008,"RTVE":6009,"Terra":6010,"Uruguay":6011,"Va":6012,"Xavier":6013,"acon":6014,"aÃ©":6015,"aquÃŃ":6016,"agencias":6017,"centa":6018,"dÃŃan":6019,"egue":6020,"fgan":6021,"fesi":6022,"hue":6023,"has":6024,"ial":6025,"irÃ¡":6026,"ke":6027,"listas":6028,"octa":6029,"pales":6030,"pÃ³si":6031,"tti":6032,"tÃŃas":6033,"desig":6034,"detec":6035,"demasi":6036,"latino":6037,"onado":6038,"erras":6039,"infec":6040,"reo":6041,"reales":6042,"reve":6043,"adal":6044,"tidades":6045,"conseguido":6046,"tevedra":6047,"pac":6048,"ril":6049,"liam":6050,"cuan":6051,"cubier":6052,"mic":6053,"mix":6054,"micas":6055,"rodi":6056,"tudes":6057,"silen":6058,"mobili":6059,"vivi":6060,"biles":6061,"bilateral":6062,"noticia":6063,"provisi":6064,"pol":6065,"podemos":6066,"presa":6067,"terren":6068,"fija":6069,"mecan":6070,"parciales":6071,"compar":6072,"uidad":6073,"denal":6074,"puertas":6075,"perten":6076,"tena":6077,"activo":6078,"imas":6079,"impidiÃ³":6080,"impacto":6081,"Labo":6082,"lesiones":6083,"alizar":6084,"Est":6085,"minas":6086,"quir":6087,"cario":6088,"saque":6089,"musi":6090,"lante":6091,"lanzar":6092,"ruz":6093,"rusa":6094,"autores":6095,"dista":6096,"certi":6097,"obtuvo":6098,"credi":6099,"plicÃ³":6100,"pliegue":6101,"mediterrÃ¡n":6102,"juven":6103,"InformaciÃ³n":6104,"vence":6105,"feria":6106,"quÃŃa":6107,"quiso":6108,"Mark":6109,"especiales":6110,"fatura":6111,"Anti":6112,"firme":6113,"pensiones":6114,"hijos":6115,"1992":6116,"comunicÃ³":6117,"pueblos":6118,"producen":6119,"Unida":6120,"barcel":6121,"Parma":6122,"juntas":6123,"personales":6124,"ENA":6125,"ENTE":6126,"electricidad":6127,"iniciÃ³":6128,"cripciÃ³n":6129,"reglas":6130,"Artes":6131,"Franco":6132,"organiz":6133,"Romero":6134,"versia":6135,"ediciones":6136,"opciÃ³n":6137,"consejo":6138,"sospe":6139,"Guerra":6140,"compaÃ±eros":6141,"libres":6142,"libros":6143,"2003":6144,"continente":6145,"destacaron":6146,"negocio":6147,"manifestaciÃ³n":6148,"abriÃ³":6149,"bajos":6150,"autora":6151,"Progra":6152,"Progresistas":6153,"Profesi":6154,"visitantes":6155,"fondo":6156,"establecido":6157,"dÃ©biles":6158,"temporal":6159,"guir":6160,"terminÃ³":6161,"subidas":6162,"retirar":6163,"solicitar":6164,"bella":6165,"residentes":6166,"recuer":6167,"familiar":6168,"controla":6169,"Pere":6170,"asistirÃ¡n":6171,"incrementar":6172,"destinado":6173,"destinados":6174,"Administra":6175,"afectan":6176,"provincias":6177,"AgregÃ³":6178,"acaba":6179,"funcionario":6180,"justi":6181,"enfrentamientos":6182,"niveles":6183,"iglesia":6184,"espacios":6185,"dirigido":6186,"ofertas":6187,"preparar":6188,"necesaria":6189,"kilos":6190,"definitivo":6191,"herido":6192,"gonÃ©s":6193,"jugarÃ¡":6194,"naturaleza":6195,"volucion":6196,"Iglesias":6197,"BerlÃŃn":6198,"multina":6199,"desempe":6200,"concreto":6201,"pronto":6202,"acordado":6203,"Deportes":6204,"acompaÃ±ados":6205,"sufriÃ³":6206,"crudo":6207,"buenas":6208,"ofrecerÃ¡":6209,"delante":6210,"ingresos":6211,"frustra":6212,"logrado":6213,"cepciÃ³n":6214,"autÃ³nomas":6215,"liberaciÃ³n":6216,"Flores":6217,"Ibero":6218,"Pontevedra":6219,"amigos":6220,"futbolistas":6221,"caracteri":6222,"profesor":6223,"profesores":6224,"comparecencia":6225,"crÃ©dito":6226,"crÃ©ditos":6227,"Recor":6228,"comentar":6229,"mantenimiento":6230,"apunta":6231,"explotaciÃ³n":6232,"liberalizaciÃ³n":6233,"vigilancia":6234,"disciplin":6235,"Pueblo":6236,"paname":6237,"investigadores":6238,"demÃ³crata":6239,"paquete":6240,"bombardeos":6241,"cuelas":6242,"campesinos":6243,"Daniel":6244,"Transportes":6245,"Eritrea":6246,"MaÃ±ana":6247,"LatinoamÃ©rica":6248,"conseller":6249,"operadora":6250,"PolÃŃtica":6251,"MADRID":6252,"William":6253,"satisfacciÃ³n":6254,"inferior":6255,"Guadalupe":6256,"Izquierda":6257,"Pleno":6258,"terrenos":6259,"061":6260,"AY":6261,"Aran":6262,"Agra":6263,"BM":6264,"BOL":6265,"CEN":6266,"Cruz":6267,"Dar":6268,"Eci":6269,"Egi":6270,"GAS":6271,"GOL":6272,"Imaz":6273,"Ji":6274,"LER":6275,"MÃ©ndez":6276,"Nos":6277,"POS":6278,"PRE":6279,"Ron":6280,"Sau":6281,"The":6282,"TRO":6283,"VEN":6284,"Wall":6285,"XIII":6286,"aguas":6287,"cadores":6288,"dones":6289,"dona":6290,"fera":6291,"ic":6292,"kg":6293,"ment":6294,"plu":6295,"sel":6296,"um":6297,"uma":6298,"vu":6299,"vencia":6300,"ws":6301,"debu":6302,"detuvo":6303,"depÃ³si":6304,"enor":6305,"estival":6306,"latera":6307,"osti":6308,"raga":6309,"raje":6310,"err":6311,"eres":6312,"error":6313,"orio":6314,"altas":6315,"arri":6316,"arras":6317,"arcas":6318,"quel":6319,"quedaron":6320,"une":6321,"asimismo":6322,"redes":6323,"reper":6324,"revis":6325,"admitiÃ³":6326,"tida":6327,"entradas":6328,"contenidos":6329,"prÃ©sta":6330,"diarios":6331,"diferencia":6332,"Ã¡genes":6333,"docum":6334,"isco":6335,"pabel":6336,"cat":6337,"cafÃ©":6338,"tomado":6339,"subieron":6340,"lidos":6341,"micos":6342,"rovi":6343,"robo":6344,"tuto":6345,"tratan":6346,"siti":6347,"lobo":6348,"prohi":6349,"deste":6350,"descen":6351,"presen":6352,"prescin":6353,"homos":6354,"terres":6355,"ficas":6356,"ficos":6357,"fijado":6358,"compen":6359,"composiciÃ³n":6360,"denas":6361,"permiso":6362,"mann":6363,"manes":6364,"mantuvieron":6365,"imÃ¡genes":6366,"nidad":6367,"piensa":6368,"lum":6369,"casti":6370,"aÃ±a":6371,"naciones":6372,"nacio":6373,"gido":6374,"gidas":6375,"blemente":6376,"presiones":6377,"estÃ©n":6378,"cerem":6379,"cerrec":6380,"cercan":6381,"Enrique":6382,"banda":6383,"creada":6384,"Informa":6385,"tini":6386,"cesos":6387,"venir":6388,"presentarse":6389,"buses":6390,"brada":6391,"tiendo":6392,"tienda":6393,"ayuntamientos":6394,"Marcel":6395,"especÃŃ":6396,"ministeri":6397,"centÃŃ":6398,"ESTA":6399,"plani":6400,"Patr":6401,"juntos":6402,"equipa":6403,"privada":6404,"privati":6405,"fede":6406,"Natura":6407,"habrÃŃa":6408,"clausu":6409,"actuar":6410,"trece":6411,"ONAS":6412,"Carlo":6413,"Carmen":6414,"grande":6415,"Valores":6416,"rÃŃo":6417,"Julio":6418,"puestas":6419,"reuniÃ³":6420,"bases":6421,"tÃŃan":6422,"estuvieron":6423,"manifi":6424,"Levante":6425,"erradi":6426,"fallo":6427,"mono":6428,"moneda":6429,"irregulari":6430,"realizada":6431,"realizadas":6432,"humana":6433,"ELA":6434,"anunci":6435,"portavoces":6436,"Chris":6437,"transformado":6438,"continuidad":6439,"resultÃ³":6440,"concepto":6441,"bajar":6442,"automÃ³viles":6443,"autobuses":6444,"Silos":6445,"Rato":6446,"Logro":6447,"Estatuto":6448,"Metro":6449,"permitido":6450,"permitiÃ³":6451,"fiscalidad":6452,"comenzar":6453,"paciente":6454,"fronteras":6455,"temporadas":6456,"Fuenla":6457,"disputarÃ¡n":6458,"ADA":6459,"solicitudes":6460,"Rivaldo":6461,"operadores":6462,"subsi":6463,"continuo":6464,"condiciÃ³n":6465,"plomo":6466,"Esteban":6467,"mostrar":6468,"judiciales":6469,"demora":6470,"futuros":6471,"DoÃ±a":6472,"PrevenciÃ³n":6473,"agrario":6474,"encima":6475,"coinciden":6476,"industriales":6477,"recogida":6478,"golpista":6479,"fÃŃsico":6480,"condenado":6481,"elimina":6482,"crÃŃticos":6483,"Baja":6484,"Ignacio":6485,"octanos":6486,"oncesto":6487,"multi":6488,"financiero":6489,"Jefatura":6490,"acordaron":6491,"Deportivo":6492,"Foral":6493,"JapÃ³n":6494,"henes":6495,"sufrido":6496,"Mayo":6497,"pensamos":6498,"ingresar":6499,"coordinaciÃ³n":6500,"Defen":6501,"categorÃŃas":6502,"implicados":6503,"Fuerza":6504,"Empresari":6505,"pequeÃ±o":6506,"guerrilla":6507,"especiali":6508,"adelante":6509,"Plaza":6510,"fÃ¡cil":6511,"autÃ³noma":6512,"GOBIER":6513,"sanitario":6514,"democrÃ¡tica":6515,"refleja":6516,"protestas":6517,"Hidro":6518,"cuyas":6519,"autonÃ³mico":6520,"espÃŃritu":6521,"camiones":6522,"Electo":6523,"magistrado":6524,"fronterizo":6525,"gallego":6526,"Airtel":6527,"CDC":6528,"clÃ¡usu":6529,"elÃ©ctrica":6530,"adjudicaciÃ³n":6531,"Belgrado":6532,"Padua":6533,"Solbes":6534,"chubascos":6535,"fÃ¡brica":6536,"Tecno":6537,"acultad":6538,"Presu":6539,"mÃ¡ximos":6540,"mensaje":6541,"viajaban":6542,"franceses":6543,"descanso":6544,"EnergÃŃa":6545,"InvestigaciÃ³n":6546,"Michael":6547,"caracterÃŃsticas":6548,"inserciÃ³n":6549,"Repsol":6550,"Valenciana":6551,"CastaÃ±o":6552,"RecordÃ³":6553,"Ecija":6554,"laterales":6555,"documentos":6556,"homosex":6557,"irregularidades":6558,"Fuenlabrada":6559,"GOBIERNO":6560,"Ari":6561,"Areces":6562,"Bri":6563,"BLE":6564,"Cer":6565,"CAL":6566,"CAC":6567,"DIS":6568,"DÃŃ":6569,"Dele":6570,"EA":6571,"Ed":6572,"EconÃ³mi":6573,"ETI":6574,"Fron":6575,"Ferre":6576,"Foro":6577,"FREN":6578,"Gra":6579,"Greg":6580,"Gerar":6581,"Hur":6582,"MIN":6583,"Ni":6584,"Oc":6585,"POL":6586,"Pacto":6587,"RaÃ±a":6588,"Sch":6589,"Stre":6590,"SAN":6591,"Unos":6592,"ai":6593,"aconse":6594,"bru":6595,"dando":6596,"eh":6597,"etÃŃ":6598,"etario":6599,"eamiento":6600,"fÃ³n":6601,"fÃŃas":6602,"imi":6603,"kari":6604,"kÃŃn":6605,"lina":6606,"ms":6607,"oto":6608,"ples":6609,"sÃºper":6610,"uch":6611,"uts":6612,"vantes":6613,"yendo":6614,"zcan":6615,"esÃŃa":6616,"esiÃ³n":6617,"escul":6618,"ciano":6619,"cientÃŃ":6620,"radores":6621,"raÃŃz":6622,"onel":6623,"onista":6624,"tamen":6625,"ert":6626,"uelos":6627,"alqui":6628,"alimenta":6629,"archi":6630,"anuales":6631,"unya":6632,"unani":6633,"retos":6634,"revista":6635,"tientes":6636,"confer":6637,"congreso":6638,"convento":6639,"die":6640,"dig":6641,"diversi":6642,"ÃŃti":6643,"ÃŃna":6644,"color":6645,"corazÃ³n":6646,"tecto":6647,"teatro":6648,"pacÃŃ":6649,"rillo":6650,"sura":6651,"sufren":6652,"cuo":6653,"let":6654,"legi":6655,"lehen":6656,"dable":6657,"dakari":6658,"Ã±ado":6659,"roga":6660,"sicas":6661,"moder":6662,"video":6663,"onestaciÃ³n":6664,"noc":6665,"proba":6666,"procla":6667,"poeta":6668,"petrÃ³leo":6669,"presti":6670,"presuntos":6671,"Ãºe":6672,"estafa":6673,"ficha":6674,"ficados":6675,"metas":6676,"pur":6677,"emis":6678,"empo":6679,"tengo":6680,"acha":6681,"acei":6682,"amari":6683,"duos":6684,"dudas":6685,"duraciÃ³n":6686,"tasas":6687,"trÃ³n":6688,"alizÃ³":6689,"Esa":6690,"Estras":6691,"piden":6692,"minor":6693,"recalcÃ³":6694,"mues":6695,"muerto":6696,"landia":6697,"rumpi":6698,"cando":6699,"canadi":6700,"naciÃ³":6701,"boli":6702,"gira":6703,"gigan":6704,"tando":6705,"marcar":6706,"particulares":6707,"lÃŃmite":6708,"jubi":6709,"talla":6710,"talunya":6711,"tiende":6712,"ferta":6713,"quero":6714,"informes":6715,"Martina":6716,"Santo":6717,"fuego":6718,"darÃ¡n":6719,"Vientos":6720,"constante":6721,"1990":6722,"1991":6723,"ustro":6724,"Unidad":6725,"plazos":6726,"directas":6727,"privado":6728,"correc":6729,"claustro":6730,"urgencia":6731,"Catalunya":6732,"decida":6733,"Carm":6734,"Carta":6735,"Deuts":6736,"Juvent":6737,"144":6738,"explicar":6739,"Franca":6740,"vascos":6741,"mayori":6742,"teles":6743,"cincuenta":6744,"ciudadano":6745,"realizÃ³":6746,"realizarÃ¡":6747,"DivisiÃ³n":6748,"celebrarÃ¡n":6749,"aproxim":6750,"CÃ¡r":6751,"Castillo":6752,"regiones":6753,"considerado":6754,"170":6755,"destacado":6756,"legis":6757,"talizaciÃ³n":6758,"directores":6759,"Corte":6760,"Corpo":6761,"Canarias":6762,"autopistas":6763,"PromociÃ³n":6764,"centrocam":6765,"Todos":6766,"seguro":6767,"aviones":6768,"lugares":6769,"establecimiento":6770,"establecimientos":6771,"PekÃŃn":6772,"oficinas":6773,"Supre":6774,"balear":6775,"dominio":6776,"turistas":6777,"informativo":6778,"heco":6779,"RIO":6780,"comprobar":6781,"subir":6782,"Orden":6783,"publica":6784,"publicaciÃ³n":6785,"ineda":6786,"deportiva":6787,"CEI":6788,"pÃºblicamente":6789,"Mora":6790,"tÃ¡culos":6791,"saliÃ³":6792,"Pierre":6793,"estoy":6794,"estocada":6795,"enfrentarse":6796,"razgo":6797,"espacial":6798,"kilÃ³metro":6799,"acogida":6800,"lÃ¡s":6801,"solucionar":6802,"habitual":6803,"Holanda":6804,"Alvaro":6805,"inflaciÃ³n":6806,"integrada":6807,"Cultural":6808,"ESPAÃĳ":6809,"ideas":6810,"Diputados":6811,"encabe":6812,"propÃ³si":6813,"Salva":6814,"populares":6815,"britÃ¡nica":6816,"IDAD":6817,"prÃ¡cticas":6818,"occidental":6819,"combatientes":6820,"universitarios":6821,"trenes":6822,"personajes":6823,"Tai":6824,"horra":6825,"Quaran":6826,"pequeÃ±as":6827,"grÃ¡fico":6828,"descarta":6829,"individual":6830,"Chaves":6831,"DÃŃaz":6832,"Ã³stico":6833,"interesados":6834,"Bosque":6835,"Resul":6836,"Secre":6837,"rentabilidad":6838,"materiales":6839,"futbolista":6840,"numerosas":6841,"siniestra":6842,"telÃ©fonos":6843,"MoscÃº":6844,"ecotasa":6845,"autonÃ³mica":6846,"malague":6847,"estatuto":6848,"potencial":6849,"masiva":6850,"sometido":6851,"adquiri":6852,"circunstancias":6853,"componente":6854,"Industria":6855,"lovaquia":6856,"JoaquÃŃn":6857,"presupuestario":6858,"artÃŃculo":6859,"matizÃ³":6860,"liderazgo":6861,"Bonet":6862,"Euskadi":6863,"sÃ©p":6864,"dibujos":6865,"combustible":6866,"ASAJA":6867,"Pacheco":6868,"divisas":6869,"opositor":6870,"examin":6871,"consumidores":6872,"satisfecho":6873,"ward":6874,"requisitos":6875,"embajador":6876,"consorcio":6877,"MuÃ±oz":6878,"billones":6879,"propietarios":6880,"Nicaragua":6881,"Loren":6882,"quirÃºr":6883,"Administraciones":6884,"sitio":6885,"centÃŃmetros":6886,"Defensor":6887,"DÃŃez":6888,"DelegaciÃ³n":6889,"Street":6890,"unanimidad":6891,"lehendakari":6892,"Estrasburgo":6893,"Deutsche":6894,"Quaranta":6895,"113":6896,"Adec":6897,"BAN":6898,"CF":6899,"Cari":6900,"DOS":6901,"ED":6902,"Ei":6903,"Emili":6904,"FER":6905,"FRU":6906,"Festival":6907,"GRA":6908,"Hon":6909,"Has":6910,"Kra":6911,"Mel":6912,"MAR":6913,"Nue":6914,"Ob":6915,"Otro":6916,"PU":6917,"PRI":6918,"Pineda":6919,"Rica":6920,"Rosa":6921,"Sue":6922,"Spe":6923,"Tres":6924,"Tanto":6925,"UA":6926,"Wol":6927,"Xunta":6928,"apre":6929,"alar":6930,"aporta":6931,"atribu":6932,"bados":6933,"eb":6934,"eos":6935,"egra":6936,"ecido":6937,"ht":6938,"hÃ³":6939,"herra":6940,"ilu":6941,"jales":6942,"mbo":6943,"rent":6944,"tÃºan":6945,"vesa":6946,"work":6947,"devolver":6948,"deuda":6949,"espi":6950,"espal":6951,"ciras":6952,"razona":6953,"ang":6954,"inmue":6955,"incerti":6956,"reb":6957,"reto":6958,"reÃ±o":6959,"recau":6960,"reaccion":6961,"admi":6962,"entrÃ³":6963,"ISTA":6964,"conme":6965,"congres":6966,"contribui":6967,"set":6968,"setenta":6969,"dible":6970,"diag":6971,"dimisiÃ³n":6972,"dieran":6973,"cober":6974,"istro":6975,"cab":6976,"catÃ³":6977,"cabal":6978,"capaz":6979,"rico":6980,"ritual":6981,"suma":6982,"mate":6983,"mato":6984,"cuer":6985,"leve":6986,"lejos":6987,"Ã±i":6988,"siente":6989,"viven":6990,"bille":6991,"prome":6992,"profun":6993,"pocas":6994,"poderes":6995,"despa":6996,"desnu":6997,"prestaciÃ³n":6998,"estabili":6999,"estarÃŃa":7000,"ficial":7001,"parcial":7002,"compli":7003,"votar":7004,"pusi":7005,"perfec":7006,"emiso":7007,"tenista":7008,"acho":7009,"exen":7010,"exposi":7011,"excel":7012,"exceso":7013,"excesi":7014,"amp":7015,"amarca":7016,"importaciones":7017,"gulo":7018,"preocup":7019,"Eslovaquia":7020,"rasa":7021,"quizÃ¡":7022,"cardo":7023,"mus":7024,"muertos":7025,"lanza":7026,"audi":7027,"cantante":7028,"cantÃ¡brico":7029,"cosa":7030,"dispara":7031,"cerra":7032,"cerrada":7033,"obtenido":7034,"CooperaciÃ³n":7035,"presidentes":7036,"gratu":7037,"India":7038,"Infan":7039,"ting":7040,"positivos":7041,"tribun":7042,"vender":7043,"ferrovi":7044,"mascul":7045,"calcula":7046,"llamada":7047,"Marcos":7048,"Alba":7049,"Alcor":7050,"Alge":7051,"AlcÃ¡":7052,"agente":7053,"inspi":7054,"Antena":7055,"absur":7056,"mensu":7057,"consenti":7058,"comunitario":7059,"estilo":7060,"playa":7061,"RAL":7062,"plantas":7063,"hablÃ³":7064,"ctora":7065,"iniciado":7066,"Demo":7067,"transi":7068,"TAU":7069,"140":7070,"recibieron":7071,"explicaron":7072,"France":7073,"organizar":7074,"CIO":7075,"rendimiento":7076,"Romario":7077,"servir":7078,"Manzan":7079,"vinos":7080,"orienta":7081,"alguno":7082,"Poli":7083,"fuertes":7084,"Guterres":7085,"trabajando":7086,"franja":7087,"INTER":7088,"Castro":7089,"160":7090,"afirmar":7091,"transmi":7092,"previstos":7093,"dorra":7094,"Cuar":7095,"Cuando":7096,"Cuerpo":7097,"Intergubernamental":7098,"cumple":7099,"hacerse":7100,"intza":7101,"sanciÃ³n":7102,"concejales":7103,"Mont":7104,"Monti":7105,"Toja":7106,"TelevisiÃ³n":7107,"Raim":7108,"visitar":7109,"segura":7110,"especialistas":7111,"histori":7112,"velÃ³":7113,"OLAR":7114,"compromisos":7115,"eira":7116,"publicidad":7117,"depende":7118,"dependencias":7119,"residen":7120,"amplio":7121,"financiar":7122,"existentes":7123,"Ricardo":7124,"deportes":7125,"convocada":7126,"instalar":7127,"tÃ¡culo":7128,"Universitario":7129,"Putin":7130,"malos":7131,"sorpresa":7132,"Ãºstico":7133,"alcanzado":7134,"alcanzaron":7135,"enfrentamiento":7136,"movimientos":7137,"pretenden":7138,"Palo":7139,"sistemas":7140,"seÃ±alar":7141,"Grande":7142,"cuarenta":7143,"Ministros":7144,"poblaciones":7145,"hermanos":7146,"rechazo":7147,"obligÃ³":7148,"dirigiÃ³":7149,"confirmado":7150,"confirmaron":7151,"delibera":7152,"solucion":7153,"recoger":7154,"Hoy":7155,"Hotel":7156,"alavesa":7157,"oficialmente":7158,"currir":7159,"celebrÃ³":7160,"vuelto":7161,"defendiÃ³":7162,"benefici":7163,"incluidas":7164,"amenaza":7165,"brasileÃ±os":7166,"aquella":7167,"piso":7168,"proteger":7169,"provocÃ³":7170,"provocado":7171,"crÃŃtica":7172,"tÃ©rminos":7173,"conflictos":7174,"financiera":7175,"carburos":7176,"Deportiva":7177,"comienzos":7178,"abogados":7179,"glob":7180,"Bien":7181,"superfici":7182,"elegir":7183,"Celta":7184,"reclama":7185,"vicemin":7186,"extranjero":7187,"aquellas":7188,"reforzar":7189,"desarrollado":7190,"ventu":7191,"negativo":7192,"Urban":7193,"confianza":7194,"novela":7195,"escolares":7196,"ligera":7197,"Calle":7198,"Ern":7199,"Ertza":7200,"Vega":7201,"argumenta":7202,"convierte":7203,"Teresa":7204,"asilo":7205,"Magdal":7206,"navarro":7207,"PARTI":7208,"XIX":7209,"enfermedades":7210,"Hispano":7211,"religi":7212,"abordar":7213,"txe":7214,"concesion":7215,"CristÃ³":7216,"entrenamientos":7217,"desconocen":7218,"dÃ©cimo":7219,"normalidad":7220,"acercamiento":7221,"LIBANO":7222,"simple":7223,"Virgen":7224,"nuestras":7225,"estrella":7226,"acelera":7227,"claramente":7228,"circunstancia":7229,"palabras":7230,"Barak":7231,"Fiscal":7232,"fundamentalmente":7233,"Freeto":7234,"cÃ©u":7235,"olÃ³gicas":7236,"indemnizaciÃ³n":7237,"Soria":7238,"empate":7239,"querido":7240,"Hein":7241,"cobrar":7242,"atentado":7243,"Florencia":7244,"yugoslavo":7245,"insular":7246,"Guerrero":7247,"ajuste":7248,"Parlamentaria":7249,"amistoso":7250,"musulmanes":7251,"pÃ¡gina":7252,"defiende":7253,"CastellÃ³n":7254,"isioneros":7255,"Brown":7256,"Dinamarca":7257,"demasiado":7258,"silencio":7259,"provisional":7260,"juvenil":7261,"GOLPE":7262,"depÃ³sitos":7263,"ceremonia":7264,"Patronato":7265,"LogroÃ±o":7266,"Empresariales":7267,"Electoral":7268,"Presupuestos":7269,"homosexuales":7270,"bolivi":7271,"CÃ¡rdenas":7272,"legislaciÃ³n":7273,"centrocampista":7274,"Supremo":7275,"propÃ³sito":7276,"Resultados":7277,"siniestralidad":7278,"Adecco":7279,"Suecia":7280,"herrami":7281,"incertidu":7282,"cobertura":7283,"tribunales":7284,"AlcorcÃ³n":7285,"Algeciras":7286,"AlcÃ¡zar":7287,"Ertzaintza":7288,"Magdalena":7289,"Freetown":7290,"Aca":7291,"Ace":7292,"Abe":7293,"Acera":7294,"Agus":7295,"BER":7296,"BRA":7297,"BCE":7298,"Bellas":7299,"Chec":7300,"Clin":7301,"DRA":7302,"GE":7303,"Ger":7304,"Gana":7305,"Hor":7306,"Hasta":7307,"IÃ±a":7308,"JU":7309,"Jac":7310,"Jaca":7311,"Ki":7312,"Lla":7313,"LÃ¡":7314,"Lam":7315,"MU":7316,"NM":7317,"NÃº":7318,"NUE":7319,"Otros":7320,"OPA":7321,"PM":7322,"PON":7323,"RS":7324,"Ran":7325,"Ste":7326,"SAL":7327,"Sport":7328,"SÃ³lo":7329,"Tho":7330,"TÃºn":7331,"TRAN":7332,"UPA":7333,"Vel":7334,"VER":7335,"Vinos":7336,"Ze":7337,"aun":7338,"apara":7339,"avis":7340,"cadÃ¡":7341,"drio":7342,"edo":7343,"ecua":7344,"gari":7345,"gadas":7346,"geri":7347,"lenta":7348,"mÃºlti":7349,"nto":7350,"ora":7351,"ocur":7352,"plos":7353,"psi":7354,"pado":7355,"uk":7356,"vÃŃas":7357,"demi":7358,"dece":7359,"decre":7360,"detener":7361,"dejado":7362,"enas":7363,"enga":7364,"endario":7365,"escuela":7366,"escuelas":7367,"cientes":7368,"cisiÃ³n":7369,"citadas":7370,"onso":7371,"table":7372,"tamiento":7373,"taller":7374,"erro":7375,"erten":7376,"elka":7377,"argentina":7378,"undos":7379,"asterio":7380,"ines":7381,"involu":7382,"rey":7383,"revi":7384,"retenciÃ³n":7385,"realmente":7386,"tidas":7387,"entona":7388,"contÃ³":7389,"contenido":7390,"pru":7391,"prisioneros":7392,"diff":7393,"divul":7394,"ÃŃfica":7395,"dotado":7396,"teor":7397,"pato":7398,"patro":7399,"porÃ¡n":7400,"portal":7401,"catorce":7402,"toca":7403,"suceso":7404,"superi":7405,"supondrÃ¡":7406,"lico":7407,"licos":7408,"lectura":7409,"dara":7410,"Ã±ar":7411,"rom":7412,"tualmente":7413,"tramo":7414,"tradu":7415,"tramos":7416,"simo":7417,"siguen":7418,"motivos":7419,"viera":7420,"vidrio":7421,"bios":7422,"bieta":7423,"bilaterales":7424,"locu":7425,"noventa":7426,"podÃŃa":7427,"potencia":7428,"respi":7429,"rescisiÃ³n":7430,"descubri":7431,"despliegue":7432,"dador":7433,"med":7434,"compati":7435,"uir":7436,"denes":7437,"ech":7438,"voz":7439,"pudieron":7440,"puzco":7441,"baÃ±":7442,"tensiÃ³n":7443,"acta":7444,"acce":7445,"exhi":7446,"exporta":7447,"toros":7448,"torÃŃa":7449,"mante":7450,"gober":7451,"impe":7452,"imprescin":7453,"guardia":7454,"Lava":7455,"cete":7456,"zaba":7457,"mÃ¡ticos":7458,"trÃ¡n":7459,"tesis":7460,"aliza":7461,"aliados":7462,"pidieron":7463,"minus":7464,"cartera":7465,"lujo":7466,"cascos":7467,"posee":7468,"muro":7469,"muleta":7470,"canegra":7471,"costas":7472,"ganado":7473,"presidida":7474,"dismin":7475,"disfru":7476,"larga":7477,"cercana":7478,"certamen":7479,"bandera":7480,"grados":7481,"creciente":7482,"berto":7483,"cese":7484,"zaro":7485,"Reg":7486,"jazz":7487,"calendario":7488,"llevan":7489,"llevÃ³":7490,"faena":7491,"blio":7492,"Alta":7493,"Alfar":7494,"Alonso":7495,"insk":7496,"Anna":7497,"Andorra":7498,"Anelka":7499,"donantes":7500,"cioso":7501,"abon":7502,"conoce":7503,"Viento":7504,"cena":7505,"producirÃ¡":7506,"mentario":7507,"ilson":7508,"ulfo":7509,"cord":7510,"corto":7511,"clase":7512,"diovis":7513,"urbano":7514,"iniciada":7515,"MirÃ³":7516,"Cardiff":7517,"regreso":7518,"JuliÃ¡n":7519,"situarse":7520,"recibe":7521,"recinto":7522,"reunirÃ¡n":7523,"basa":7524,"CIOS":7525,"CirugÃŃa":7526,"servirÃ¡":7527,"editorial":7528,"BarcelÃ³":7529,"hectÃ¡":7530,"noreste":7531,"ANA":7532,"viabilidad":7533,"falsi":7534,"Diversia":7535,"Saba":7536,"Luc":7537,"Cuenca":7538,"villos":7539,"legales":7540,"COMUN":7541,"recordar":7542,"intentona":7543,"manifestaciones":7544,"secretaria":7545,"Canal":7546,"automÃ³vil":7547,"Monta":7548,"declarado":7549,"competir":7550,"geo":7551,"REA":7552,"Sergio":7553,"permitan":7554,"profunda":7555,"Ã³rdenes":7556,"balÃ³n":7557,"informaciones":7558,"Bocanegra":7559,"totalmente":7560,"OLLER":7561,"guipuzco":7562,"Matil":7563,"desea":7564,"escritora":7565,"escribir":7566,"ineras":7567,"dependiente":7568,"ampliar":7569,"leyes":7570,"preciso":7571,"Comunidades":7572,"Augusto":7573,"diferente":7574,"asistieron":7575,"asistentes":7576,"destinadas":7577,"Adri":7578,"continuarÃ¡":7579,"afectada":7580,"izquier":7581,"condicion":7582,"Ã¡rbitro":7583,"llegarÃ¡":7584,"expresar":7585,"expresado":7586,"atle":7587,"Palmas":7588,"entrenadores":7589,"permanecer":7590,"ocasi":7591,"ocasion":7592,"hermano":7593,"obligado":7594,"obligaciÃ³n":7595,"pelÃŃcula":7596,"regulaciÃ³n":7597,"Hai":7598,"cotizaciones":7599,"violentos":7600,"Mendi":7601,"empezar":7602,"integrado":7603,"Duran":7604,"colocaciÃ³n":7605,"correspondientes":7606,"trasladÃ³":7607,"Singa":7608,"incluirÃ¡":7609,"gasolineras":7610,"peticiones":7611,"conductor":7612,"mexicanos":7613,"baraja":7614,"quinta":7615,"registradas":7616,"IDA":7617,"PÃºblico":7618,"crÃŃtico":7619,"ejecutar":7620,"madridista":7621,"avance":7622,"figuran":7623,"figuras":7624,"Merce":7625,"colap":7626,"combatir":7627,"independencia":7628,"llevaba":7629,"comisiones":7630,"ocurriÃ³":7631,"ocurrido":7632,"hoteles":7633,"falleciÃ³":7634,"fallecido":7635,"Celu":7636,"impulso":7637,"comprometiÃ³":7638,"dedicado":7639,"dedicada":7640,"prose":7641,"invitado":7642,"frenar":7643,"olÃŃmpicos":7644,"similares":7645,"Finanzas":7646,"fundamenta":7647,"legislatura":7648,"legisladores":7649,"Pascual":7650,"grie":7651,"AndrÃ©s":7652,"madrileÃ±a":7653,"Ibex":7654,"sacar":7655,"MENTA":7656,"oreja":7657,"FormaciÃ³n":7658,"religios":7659,"dificultad":7660,"domicili":7661,"Domini":7662,"preguntas":7663,"Betis":7664,"Cristina":7665,"incendio":7666,"inicialmente":7667,"identidad":7668,"alternativas":7669,"flojos":7670,"gobernante":7671,"Constitucional":7672,"azu":7673,"ascendiÃ³":7674,"semifinal":7675,"CaÃ±ete":7676,"discriminaciÃ³n":7677,"concertados":7678,"catalan":7679,"Blanco":7680,"ganaderos":7681,"Patrimonio":7682,"Fondo":7683,"IPC":7684,"republicanos":7685,"TÃ©cnica":7686,"habilitaciÃ³n":7687,"restauraciÃ³n":7688,"decenas":7689,"estancia":7690,"exclusi":7691,"Montevideo":7692,"eficaz":7693,"trayectoria":7694,"Calahorra":7695,"GRANOLLER":7696,"evaluaciÃ³n":7697,"asturiano":7698,"puntualizÃ³":7699,"Pirineos":7700,"expulsiÃ³n":7701,"Francesc":7702,"seleccionador":7703,"conveniente":7704,"aparcamiento":7705,"guardameta":7706,"Episcopal":7707,"Polonia":7708,"fÃ³rmula":7709,"intensificar":7710,"precedente":7711,"fortalecer":7712,"distrito":7713,"Parlament":7714,"mics":7715,"mecanismos":7716,"mediterrÃ¡nea":7717,"multinacional":7718,"repercu":7719,"pabellÃ³n":7720,"compensaciÃ³n":7721,"privatizaciÃ³n":7722,"federaciones":7723,"Gregorio":7724,"aceite":7725,"gigante":7726,"CorporaciÃ³n":7727,"Eibar":7728,"atribuyÃ³":7729,"espiritual":7730,"expositores":7731,"Albacete":7732,"historiador":7733,"CristÃ³bal":7734,"incertidumbre":7735,"Aceralia":7736,"Clinton":7737,"Jacques":7738,"TÃºnez":7739,"cadÃ¡ver":7740,"garita":7741,"hectÃ¡reas":7742,"Matilde":7743,"GRANOLLERS":7744,"130":7745,"AU":7746,"Ama":7747,"Ami":7748,"Alo":7749,"Aber":7750,"Agen":7751,"Aur":7752,"AUS":7753,"Afgan":7754,"Bay":7755,"BÃ©l":7756,"CB":7757,"CC":7758,"CÃ³":7759,"Cali":7760,"Creo":7761,"Dy":7762,"DER":7763,"Dis":7764,"DEN":7765,"EH":7766,"Eti":7767,"Emer":7768,"FBI":7769,"Gor":7770,"GER":7771,"Gas":7772,"GÃ¡n":7773,"Gine":7774,"HÃ©":7775,"Ini":7776,"JO":7777,"JER":7778,"LRE":7779,"Mol":7780,"MES":7781,"Nar":7782,"Net":7783,"Ore":7784,"Ori":7785,"Oferta":7786,"Peri":7787,"PIB":7788,"Rulfo":7789,"SS":7790,"Son":7791,"SER":7792,"Spa":7793,"Sim":7794,"TR":7795,"Ton":7796,"Tim":7797,"TRE":7798,"TRI":7799,"Vo":7800,"VIS":7801,"Via":7802,"Vol":7803,"Vat":7804,"aje":7805,"aparte":7806,"atre":7807,"bin":7808,"besa":7809,"centes":7810,"clÃŃni":7811,"due":7812,"eza":7813,"eve":7814,"ges":7815,"gones":7816,"grÃŃa":7817,"hero":7818,"harÃ¡n":7819,"imo":7820,"izar":7821,"izaciones":7822,"jada":7823,"ld":7824,"mc":7825,"mÃŃas":7826,"mÃŃn":7827,"mundi":7828,"mlin":7829,"nÃ³":7830,"nÃ³stico":7831,"olo":7832,"pÃ³":7833,"plas":7834,"rs":7835,"rer":7836,"rÃ³n":7837,"rroga":7838,"rÃºstico":7839,"sado":7840,"stro":7841,"suel":7842,"ski":7843,"tni":7844,"vÃŃs":7845,"vando":7846,"vuelos":7847,"wa":7848,"yn":7849,"zer":7850,"zcaÃŃ":7851,"zobispo":7852,"desi":7853,"ene":7854,"eni":7855,"encargo":7856,"enviÃ³":7857,"lab":7858,"osci":7859,"ciencia":7860,"rak":7861,"tari":7862,"tativo":7863,"erva":7864,"orqu":7865,"elle":7866,"elio":7867,"aler":7868,"alte":7869,"alma":7870,"aline":7871,"allÃ¡":7872,"argo":7873,"artes":7874,"armon":7875,"arzobispo":7876,"quedarÃ¡":7877,"anÃ³n":7878,"und":7879,"ason":7880,"iner":7881,"into":7882,"ince":7883,"insul":7884,"revelÃ³":7885,"tius":7886,"entro":7887,"confor":7888,"conqu":7889,"seca":7890,"Ã¡tico":7891,"colon":7892,"cocina":7893,"colum":7894,"doctor":7895,"dolor":7896,"teo":7897,"tez":7898,"islas":7899,"porcenta":7900,"catÃ¡":7901,"cayeron":7902,"totales":7903,"sula":7904,"suerte":7905,"lip":7906,"lema":7907,"leche":7908,"leves":7909,"daba":7910,"daciones":7911,"rola":7912,"rojo":7913,"robar":7914,"turo":7915,"tuales":7916,"trato":7917,"trali":7918,"sion":7919,"moles":7920,"viÃ©tica":7921,"bitra":7922,"novia":7923,"proto":7924,"propone":7925,"promovi":7926,"pobre":7927,"poll":7928,"poesÃŃa":7929,"rescate":7930,"dadas":7931,"memor":7932,"comarcas":7933,"Ello":7934,"emble":7935,"emisiÃ³n":7936,"tenÃ³n":7937,"tenfal":7938,"activa":7939,"exac":7940,"extin":7941,"mantenÃŃa":7942,"gole":7943,"imponer":7944,"duras":7945,"univer":7946,"zara":7947,"vaciones":7948,"Esco":7949,"piloto":7950,"cionistas":7951,"cari":7952,"luchar":7953,"post":7954,"recho":7955,"muriÃ³":7956,"rup":7957,"audiovis":7958,"bode":7959,"tantos":7960,"chÃ³":7961,"gane":7962,"llero":7963,"presidido":7964,"segundos":7965,"partidario":7966,"discapaci":7967,"sustra":7968,"ÃŃsticos":7969,"estrec":7970,"cerraron":7971,"grafÃŃa":7972,"Consul":7973,"intermedi":7974,"interrumpi":7975,"juz":7976,"neu":7977,"traslado":7978,"quina":7979,"querÃŃa":7980,"titulada":7981,"llado":7982,"llamar":7983,"llet":7984,"acusaciones":7985,"Margarita":7986,"espec":7987,"prÃ³rroga":7988,"Sant":7989,"Antes":7990,"Angulo":7991,"abas":7992,"COAG":7993,"firmar":7994,"conocida":7995,"Vigo":7996,"Victor":7997,"Vivien":7998,"hipo":7999,"estima":8000,"Paolo":8001,"104":8002,"PartenÃ³n":8003,"equilibra":8004,"prima":8005,"federal":8006,"illo":8007,"coron":8008,"anoche":8009,"ENE":8010,"culpa":8011,"hablaron":8012,"urgente":8013,"iniciar":8014,"ensayo":8015,"Valent":8016,"Arsen":8017,"152":8018,"estudia":8019,"teniendo":8020,"organiza":8021,"Lionel":8022,"nacionalista":8023,"ARIO":8024,"toriano":8025,"Poder":8026,"opÃŃa":8027,"normal":8028,"viaj":8029,"viajar":8030,"irse":8031,"Dios":8032,"Samani":8033,"humor":8034,"Expo":8035,"Casas":8036,"transcurso":8037,"previsiones":8038,"ALU":8039,"ALES":8040,"ÃŃnsula":8041,"destacados":8042,"fomento":8043,"fomentar":8044,"talicio":8045,"participa":8046,"PSC":8047,"aragonÃ©s":8048,"recorte":8049,"intelec":8050,"manifesta":8051,"sanidad":8052,"concedido":8053,"autobÃºs":8054,"declarar":8055,"denunciado":8056,"Telecomunicaciones":8057,"cista":8058,"RETI":8059,"Serbia":8060,"permita":8061,"sale":8062,"TICO":8063,"alcaldes":8064,"Camargo":8065,"dÃ©cadas":8066,"esperaba":8067,"heim":8068,"Mata":8069,"solicitÃ³":8070,"escritores":8071,"Amal":8072,"Amore":8073,"AmonestaciÃ³n":8074,"vienen":8075,"financiado":8076,"bienes":8077,"Ries":8078,"Rico":8079,"Rivera":8080,"convocar":8081,"convocados":8082,"Person":8083,"CEOE":8084,"incrementÃ³":8085,"pedirÃ¡":8086,"autoridad":8087,"Humani":8088,"Humanos":8089,"Hugh":8090,"deberÃŃan":8091,"reconocido":8092,"acabÃ³":8093,"prendas":8094,"favorecer":8095,"Mujer":8096,"contaminaciÃ³n":8097,"justo":8098,"llevaron":8099,"narco":8100,"participarÃ¡":8101,"borrador":8102,"Rural":8103,"permanec":8104,"permanencia":8105,"norteamericano":8106,"convenios":8107,"obligar":8108,"agrarias":8109,"rÃ©cord":8110,"asociados":8111,"mandato":8112,"ejercer":8113,"ComÃºn":8114,"afian":8115,"coinfec":8116,"golpes":8117,"Hoon":8118,"MenÃ©ndez":8119,"sÃ¡til":8120,"infantil":8121,"trucciones":8122,"DIA":8123,"conclusiÃ³n":8124,"ConstrucciÃ³n":8125,"trasladado":8126,"trasladados":8127,"MIEN":8128,"modificaciones":8129,"kovic":8130,"incluida":8131,"condenados":8132,"Organizaciones":8133,"Panamericanos":8134,"magn":8135,"NAVAR":8136,"violaciÃ³n":8137,"popularidad":8138,"registraron":8139,"pisos":8140,"intena":8141,"provocar":8142,"territorios":8143,"naturales":8144,"Paul":8145,"Ferro":8146,"avanzÃ³":8147,"Ciudadana":8148,"Rodri":8149,"tecnologÃŃa":8150,"valoraciÃ³n":8151,"respectivas":8152,"competiciones":8153,"henia":8154,"andaluzas":8155,"universidades":8156,"Angeles":8157,"inmigraciÃ³n":8158,"hoteleros":8159,"novicias":8160,"contemplar":8161,"colmo":8162,"pequeÃ±a":8163,"autonomÃŃa":8164,"renovaciÃ³n":8165,"cÃ¡ncer":8166,"aspecto":8167,"prostitu":8168,"desarrollarÃ¡":8169,"experiencias":8170,"1979":8171,"derrota":8172,"derrotar":8173,"autÃ³nomo":8174,"fotografÃŃas":8175,"PIDE":8176,"ubicado":8177,"refiere":8178,"capitalizaciÃ³n":8179,"sanitaria":8180,"sanitarios":8181,"democrÃ¡tico":8182,"democrÃ¡ticas":8183,"Finalmente":8184,"ULTI":8185,"victorias":8186,"argumento":8187,"consiguiente":8188,"procesados":8189,"Reserva":8190,"amigo":8191,"artÃŃstica":8192,"tomate":8193,"pasajeros":8194,"Historia":8195,"ejempla":8196,"modelos":8197,"moderados":8198,"Estudios":8199,"queremos":8200,"patizantes":8201,"Telesp":8202,"identi":8203,"infraestructuras":8204,"valencian":8205,"normales":8206,"magistrados":8207,"alternativa":8208,"GIL":8209,"flojo":8210,"simpatizantes":8211,"suscrito":8212,"consistorio":8213,"Cairo":8214,"fronteriza":8215,"croata":8216,"semifinales":8217,"peruana":8218,"acelerar":8219,"vÃ¡lidos":8220,"componentes":8221,"discrimina":8222,"sindicales":8223,"espectadores":8224,"testigos":8225,"gÃ¼edad":8226,"motivÃ³":8227,"sentimental":8228,"extraordinario":8229,"Euskal":8230,"Ibarra":8231,"poniendo":8232,"chiÃŃtas":8233,"================================================":8234,"combustibles":8235,"Estocolmo":8236,"equivalentes":8237,"regresar":8238,"favorito":8239,"planteamientos":8240,"arquitecto":8241,"previamente":8242,"exigir":8243,"Isabel":8244,"practi":8245,"contusiones":8246,"pierna":8247,"tarjetas":8248,"verdadera":8249,"marroquÃŃes":8250,"ELECCIONES":8251,"perspectiva":8252,"Caballero":8253,"CPLRE":8254,"dolfo":8255,"llamamiento":8256,"profesorado":8257,"circulaciÃ³n":8258,"Rayo":8259,"becas":8260,"disminuciÃ³n":8261,"hospitales":8262,"asesinado":8263,"enmienda":8264,"Africa":8265,"Americanos":8266,"Grecia":8267,"Kremlin":8268,"albaneses":8269,"hidrocarburos":8270,"rodilla":8271,"mobiliario":8272,"Estrecho":8273,"musical":8274,"Profesional":8275,"Egipto":8276,"arrastra":8277,"presenciar":8278,"planificaciÃ³n":8279,"manifiesto":8280,"eliminatoria":8281,"Ferreira":8282,"aire":8283,"conferencias":8284,"Lorenzo":8285,"Emilio":8286,"Nuevo":8287,"diagnÃ³stico":8288,"profundi":8289,"emisora":8290,"gratui":8291,"masculino":8292,"Raimundo":8293,"globalizaciÃ³n":8294,"superficie":8295,"viceministro":8296,"concesionaria":8297,"AgustÃŃn":8298,"Chechenia":8299,"LÃ¡zaro":8300,"patrocin":8301,"ocasional":8302,"azules":8303,"Aberchan":8304,"Aurelio":8305,"AfganistÃ¡n":8306,"BÃ©lgica":8307,"EtiopÃŃa":8308,"GÃ¡ndara":8309,"Ginebra":8310,"HÃ©ctor":8311,"Oreja":8312,"Vattenfal":8313,"heroÃŃna":8314,"memoria":8315,"Arsenal":8316,"Amorebieta":8317,"Vattenfall":8318,"340":8319,"AZ":8320,"Agru":8321,"Apari":8322,"Bla":8323,"BEL":8324,"BAL":8325,"CM":8326,"Chan":8327,"CCION":8328,"Dan":8329,"Desta":8330,"DOLAR":8331,"EliÃ¡n":8332,"FAR":8333,"Facultad":8334,"HER":8335,"Hay":8336,"Hemos":8337,"IR":8338,"Im":8339,"ICION":8340,"Irak":8341,"Jara":8342,"JNE":8343,"Kal":8344,"LV":8345,"Llo":8346,"Mis":8347,"Mana":8348,"MAN":8349,"Moro":8350,"MST":8351,"Minsk":8352,"NUR":8353,"Oro":8354,"ORA":8355,"Phi":8356,"Preg":8357,"Sar":8358,"Spor":8359,"Sher":8360,"Slobo":8361,"TV":8362,"Tes":8363,"Tarra":8364,"Vas":8365,"VAS":8366,"VOL":8367,"ZAN":8368,"ama":8369,"abre":8370,"aparec":8371,"cros":8372,"ctivos":8373,"dral":8374,"eÃ³":8375,"evento":8376,"fas":8377,"factu":8378,"frecu":8379,"fundaciÃ³n":8380,"gÃ©":8381,"gona":8382,"gesto":8383,"heli":8384,"iles":8385,"idas":8386,"idio":8387,"jana":8388,"llos":8389,"madores":8390,"nis":8391,"od":8392,"psÃŃ":8393,"reros":8394,"smann":8395,"tse":8396,"ux":8397,"utÃŃ":8398,"vÃŃo":8399,"xe":8400,"yos":8401,"zu":8402,"deras":8403,"deterior":8404,"demostrÃ³":8405,"enses":8406,"escla":8407,"lac":8408,"larÃ¡":8409,"lador":8410,"cidio":8411,"cicl":8412,"cierta":8413,"cirugÃŃa":8414,"tara":8415,"elos":8416,"alerta":8417,"arles":8418,"arena":8419,"armada":8420,"arbitra":8421,"PERS":8422,"quedan":8423,"untado":8424,"undaria":8425,"inventa":8426,"incapacidad":8427,"incompati":8428,"retro":8429,"rebaja":8430,"rebajas":8431,"rehenes":8432,"adu":8433,"LOR":8434,"tiera":8435,"entra":8436,"contado":8437,"concur":8438,"secun":8439,"dimen":8440,"dicciÃ³n":8441,"Ã¡tri":8442,"cohe":8443,"coches":8444,"coraje":8445,"isto":8446,"cai":8447,"capa":8448,"caja":8449,"toxi":8450,"torado":8451,"suman":8452,"suministra":8453,"sufre":8454,"cui":8455,"cuali":8456,"cuban":8457,"Ã©ramos":8458,"Ã©tni":8459,"dam":8460,"damos":8461,"Ã±Ã³n":8462,"romÃ¡n":8463,"trauma":8464,"sierra":8465,"simul":8466,"siquiera":8467,"movil":8468,"viar":8469,"vica":8470,"vidad":8471,"viÃ±e":8472,"vizcaÃŃ":8473,"novaciÃ³n":8474,"destrui":8475,"prestar":8476,"sob":8477,"sopor":8478,"parÃ³":8479,"parro":8480,"compuesto":8481,"compatrio":8482,"votaron":8483,"pertin":8484,"bate":8485,"rana":8486,"ranza":8487,"tendrÃŃa":8488,"ach":8489,"acos":8490,"acre":8491,"activas":8492,"accidentes":8493,"Ã¡ndo":8494,"Ã¡nimo":8495,"exter":8496,"explos":8497,"manas":8498,"mancia":8499,"mantes":8500,"impide":8501,"ceutÃŃ":8502,"nic":8503,"trin":8504,"Esqu":8505,"pia":8506,"pies":8507,"piÃ©s":8508,"mina":8509,"quie":8510,"quio":8511,"carga":8512,"cardenal":8513,"sabe":8514,"casso":8515,"castellano":8516,"serbia":8517,"verdad":8518,"verna":8519,"recer":8520,"mur":8521,"lanzÃ³":8522,"rusos":8523,"autÃ³":8524,"aumentÃ³":8525,"canta":8526,"canje":8527,"giar":8528,"gital":8529,"cher":8530,"llen":8531,"presion":8532,"futura":8533,"discurso":8534,"cere":8535,"1980":8536,"Cole":8537,"Colon":8538,"Ene":8539,"Endesa":8540,"bania":8541,"cÃ³p":8542,"Ã©ndose":8543,"elevado":8544,"Conver":8545,"internos":8546,"intercambio":8547,"interlocu":8548,"judica":8549,"neto":8550,"negro":8551,"moso":8552,"triple":8553,"venido":8554,"Revolucion":8555,"titulados":8556,"acusa":8557,"acudieron":8558,"informÃ¡tico":8559,"Maria":8560,"MarÃŃn":8561,"Santos":8562,"Albania":8563,"Anto":8564,"mercan":8565,"ables":8566,"firmÃ³":8567,"rarÃ¡n":8568,"peni":8569,"penal":8570,"pendientes":8571,"peninsular":8572,"Viana":8573,"Viena":8574,"estimÃ³":8575,"UniÃ³":8576,"fechas":8577,"aseo":8578,"directa":8579,"ily":8580,"ulti":8581,"cordo":8582,"Nacionales":8583,"indican":8584,"cultiv":8585,"operar":8586,"iniciarÃ¡":8587,"Cajal":8588,"decidir":8589,"alusiÃ³n":8590,"consigue":8591,"Mix":8592,"Carles":8593,"Jurado":8594,"milicia":8595,"148":8596,"151":8597,"vascas":8598,"bastante":8599,"teniente":8600,"organizadas":8601,"labora":8602,"Litera":8603,"eritre":8604,"Leg":8605,"telsmann":8606,"Ciencia":8607,"siglos":8608,"signos":8609,"Mani":8610,"Poco":8611,"hecha":8612,"optado":8613,"noroeste":8614,"moni":8615,"monu":8616,"monios":8617,"consejeros":8618,"realizan":8619,"seno":8620,"franca":8621,"franqu":8622,"apropi":8623,"INM":8624,"anunciaron":8625,"liberal":8626,"afirman":8627,"2006":8628,"transfer":8629,"ALTA":8630,"legalidad":8631,"negoci":8632,"negocia":8633,"tiempos":8634,"cumplan":8635,"guet":8636,"apoya":8637,"Corrales":8638,"surreal":8639,"concede":8640,"vestir":8641,"Monc":8642,"Montero":8643,"denuncias":8644,"integran":8645,"necesitan":8646,"haberse":8647,"comitÃ©s":8648,"visitas":8649,"visitÃ³":8650,"visitarÃ¡":8651,"anticip":8652,"antigÃ¼edad":8653,"permiten":8654,"permitir":8655,"estableciÃ³":8656,"Brasile":8657,"salva":8658,"Super":8659,"comenzarÃ¡n":8660,"mediodÃŃa":8661,"Campe":8662,"baloncesto":8663,"invertirÃ¡":8664,"Fuente":8665,"ACB":8666,"ACER":8667,"ACNUR":8668,"RIL":8669,"fractura":8670,"cidencias":8671,"Luisa":8672,"terminado":8673,"Generales":8674,"juicios":8675,"telefÃ³nica":8676,"telefÃ³n":8677,"incluyÃ³":8678,"residuos":8679,"deportivas":8680,"Autori":8681,"ORES":8682,"diferencias":8683,"Extreme":8684,"colegi":8685,"destinada":8686,"Huguet":8687,"afectar":8688,"delegados":8689,"delegaciones":8690,"reconocer":8691,"funciona":8692,"funcionar":8693,"ordinario":8694,"calificaciÃ³n":8695,"calificado":8696,"favore":8697,"Murillo":8698,"asesores":8699,"contamin":8700,"encontraban":8701,"encontraron":8702,"Picasso":8703,"mejoras":8704,"expresa":8705,"Buda":8706,"enfrentarÃ¡":8707,"programaciÃ³n":8708,"tectura":8709,"Dow":8710,"reducido":8711,"norteamericana":8712,"CONTRA":8713,"consideradas":8714,"aficiÃ³n":8715,"afili":8716,"confirmar":8717,"VIL":8718,"utilizaciÃ³n":8719,"catedrÃ¡":8720,"garantÃŃas":8721,"abiertas":8722,"recibirÃ¡":8723,"subraya":8724,"preparado":8725,"convertirse":8726,"Torres":8727,"causÃ³":8728,"ocupado":8729,"ocupantes":8730,"mexicana":8731,"Brumas":8732,"intenciones":8733,"electorales":8734,"longi":8735,"intentado":8736,"bursÃ¡til":8737,"fuertemente":8738,"bomba":8739,"garantiza":8740,"avanzar":8741,"concentraciones":8742,"Bertelsmann":8743,"analiza":8744,"analizarÃ¡n":8745,"combates":8746,"realizarÃ¡n":8747,"transportes":8748,"coincidiÃ³":8749,"acompaÃ±ado":8750,"andaluces":8751,"conciencia":8752,"universitario":8753,"consecuencias":8754,"australi":8755,"Bill":8756,"ninguno":8757,"Alemany":8758,"clasificado":8759,"cuadro":8760,"Villafranca":8761,"sustituciÃ³n":8762,"efectuar":8763,"Zapa":8764,"aloja":8765,"nombramientos":8766,"Ãºnicamente":8767,"eliminaciÃ³n":8768,"impuls":8769,"denominada":8770,"finalizÃ³":8771,"individuo":8772,"adelantÃ³":8773,"Plata":8774,"peligros":8775,"novelas":8776,"novedad":8777,"Benito":8778,"greo":8779,"demostrar":8780,"capiÃ©":8781,"capitales":8782,"Alain":8783,"interesante":8784,"legislativa":8785,"ginia":8786,"argumentos":8787,"Vallejo":8788,"histÃ³rica":8789,"galardones":8790,"desplazados":8791,"navarra":8792,"OlÃŃmpico":8793,"Secundaria":8794,"enlace":8795,"intervenciones":8796,"Posible":8797,"agresiones":8798,"separaciÃ³n":8799,"camiÃ³n":8800,"balanza":8801,"aeropuertos":8802,"infraestructura":8803,"diplomÃ¡tico":8804,"persis":8805,"valenciana":8806,"Johnson":8807,"bloqueo":8808,"cicleta":8809,"someter":8810,"gobernador":8811,"Virginia":8812,"vinculados":8813,"BNG":8814,"Jerus":8815,"Derechos":8816,"EMP":8817,"chileno":8818,"Industriales":8819,"movilizaciones":8820,"UDC":8821,"captar":8822,"catalana":8823,"sirve":8824,"presupuestaria":8825,"Penal":8826,"intimida":8827,"disciplina":8828,"variable":8829,"extraordinaria":8830,"Eugenio":8831,"acadÃ©mico":8832,"Esperanza":8833,"rÃ¡pida":8834,"rÃ¡pidamente":8835,"bancarias":8836,"experimentado":8837,"chubasco":8838,"Galaverna":8839,"MediterrÃ¡n":8840,"bÃ¡sicos":8841,"jurÃŃdico":8842,"cinemato":8843,"extremeÃ±o":8844,"Helguera":8845,"suprimir":8846,"George":8847,"Langreo":8848,"agenda":8849,"bÃºsqueda":8850,"imagen":8851,"retraso":8852,"tarjeta":8853,"estratÃ©gica":8854,"precipitaciones":8855,"acogerÃ¡":8856,"perspectivas":8857,"reivindicaciones":8858,"Stanic":8859,"debÃŃa":8860,"progresi":8861,"humanitaria":8862,"energÃ©ticos":8863,"farmacÃ©u":8864,"23050018":8865,"hincapiÃ©":8866,"deficiencias":8867,"proporcion":8868,"despido":8869,"lluvias":8870,"liquidaciÃ³n":8871,"tormentoso":8872,"austriaco":8873,"ComisarÃŃa":8874,"Ballester":8875,"recuerda":8876,"Williams":8877,"Agrarias":8878,"GASOL":8879,"enorme":8880,"prÃ©stamos":8881,"cercanÃŃas":8882,"subsidios":8883,"ÃŃtimos":8884,"canadiense":8885,"Juventud":8886,"ESPAÃĳA":8887,"encabeza":8888,"sÃ©ptima":8889,"quirÃºrgica":8890,"espalda":8891,"inmueble":8892,"cabezas":8893,"billetes":8894,"pusieron":8895,"excelente":8896,"Infanta":8897,"Manzanero":8898,"deliberaciones":8899,"FiscalÃŃa":8900,"Heinz":8901,"herramientas":8902,"Rangel":8903,"VelÃ¡zquez":8904,"mÃºltiples":8905,"LavapiÃ©s":8906,"Mendieta":8907,"Singapur":8908,"Celular":8909,"porcentaje":8910,"NAVARRA":8911,"ejemplares":8912,"ocasionalmente":8913,"Aparicio":8914,"Preguntado":8915,"Slobodan":8916,"Tesoro":8917,"Tarragona":8918,"helicÃ³p":8919,"psÃŃqui":8920,"cohetes":8921,"toxicÃ³":8922,"interlocutor":8923,"Ade":8924,"Agui":8925,"Abon":8926,"Adolfo":8927,"Bre":8928,"Bac":8929,"Ces":8930,"Cri":8931,"Cle":8932,"ClÃŃni":8933,"CNM":8934,"DH":8935,"DU":8936,"Dam":8937,"Dia":8938,"ET":8939,"Eco":8940,"FO":8941,"Fue":8942,"Fas":8943,"Fenos":8944,"FRAN":8945,"Haban":8946,"IC":8947,"Ibi":8948,"IVA":8949,"Jon":8950,"JUN":8951,"Ke":8952,"LAS":8953,"Lino":8954,"Larre":8955,"MER":8956,"MPE":8957,"NOS":8958,"On":8959,"Ocho":8960,"Osas":8961,"Oficial":8962,"PF":8963,"Que":8964,"Rhe":8965,"Sh":8966,"Sui":8967,"Tar":8968,"Tay":8969,"Terri":8970,"UCE":8971,"Vu":8972,"Vera":8973,"XXI":8974,"YA":8975,"apa":8976,"ahÃŃ":8977,"bÃ³n":8978,"bona":8979,"beral":8980,"cr":8981,"cÃŃan":8982,"cÃ¡l":8983,"fch":8984,"ffon":8985,"gam":8986,"gentes":8987,"gÃ©n":8988,"ise":8989,"ificaciÃ³n":8990,"iÃ¡s":8991,"jim":8992,"ks":8993,"lm":8994,"my":8995,"mÃ©ri":8996,"ny":8997,"nado":8998,"pada":8999,"ptista":9000,"rele":9001,"sales":9002,"sÃŃn":9003,"senten":9004,"tta":9005,"tÃ©n":9006,"uis":9007,"vuelo":9008,"ww":9009,"zÃ³n":9010,"depu":9011,"deposi":9012,"decano":9013,"debiÃ³":9014,"enciales":9015,"entiende":9016,"esencial":9017,"cica":9018,"rao":9019,"ong":9020,"onmano":9021,"tareas":9022,"erÃ³":9023,"erno":9024,"orgu":9025,"ERO":9026,"alco":9027,"aldo":9028,"alim":9029,"alÃ©n":9030,"armados":9031,"PERU":9032,"anes":9033,"anÃŃa":9034,"ander":9035,"incu":9036,"inseguridad":9037,"inmeta":9038,"rera":9039,"repar":9040,"refuer":9041,"reconstrucciÃ³n":9042,"refren":9043,"reintegraciÃ³n":9044,"remate":9045,"ads":9046,"advi":9047,"tizaciÃ³n":9048,"configu":9049,"contexto":9050,"diaria":9051,"difusiÃ³n":9052,"dichas":9053,"Ã¡u":9054,"ÃŃdo":9055,"cobre":9056,"dora":9057,"tegra":9058,"teoro":9059,"dell":9060,"delincu":9061,"pau":9062,"paisa":9063,"padece":9064,"cajas":9065,"calante":9066,"tomaron":9067,"rival":9068,"suble":9069,"supon":9070,"suces":9071,"sufra":9072,"supuso":9073,"suponen":9074,"matin":9075,"liza":9076,"cuÃ¡l":9077,"mido":9078,"mitaciÃ³n":9079,"lela":9080,"lectores":9081,"Ã©is":9082,"Ã©li":9083,"Ã©valo":9084,"daÃ±o":9085,"Ã±ol":9086,"rot":9087,"rompi":9088,"rotativo":9089,"trafi":9090,"trazado":9091,"sima":9092,"sienten":9093,"vial":9094,"vimiento":9095,"bida":9096,"biblio":9097,"paraguay":9098,"pola":9099,"podamos":9100,"petra":9101,"desma":9102,"destro":9103,"descubier":9104,"desestabili":9105,"Ãºcar":9106,"holan":9107,"homÃ³":9108,"sobe":9109,"soviÃ©tica":9110,"estad":9111,"ficada":9112,"fijÃ³":9113,"mecÃ¡n":9114,"parquÃ©":9115,"compi":9116,"comunes":9117,"uien":9118,"Elena":9119,"pudieran":9120,"perdieron":9121,"pertene":9122,"pernoc":9123,"perpetra":9124,"rande":9125,"rango":9126,"ranual":9127,"emana":9128,"embajada":9129,"tend":9130,"tenis":9131,"exposiciones":9132,"excep":9133,"expondrÃ¡":9134,"RNE":9135,"FENI":9136,"amor":9137,"amista":9138,"importa":9139,"imposible":9140,"prefi":9141,"nitratos":9142,"vaya":9143,"alias":9144,"alizada":9145,"Escalante":9146,"quillo":9147,"quieran":9148,"gata":9149,"carece":9150,"luciones":9151,"luch":9152,"serbios":9153,"breve":9154,"rector":9155,"lantes":9156,"rus":9157,"rural":9158,"rumano":9159,"autas":9160,"aumente":9161,"audiencia":9162,"autÃ©n":9163,"canas":9164,"nacido":9165,"namics":9166,"boza":9167,"bour":9168,"coso":9169,"costo":9170,"marcÃ³":9171,"marcador":9172,"Ã©stas":9173,"entregado":9174,"entregaron":9175,"fur":9176,"dison":9177,"dispon":9178,"discre":9179,"distancia":9180,"veza":9181,"veinti":9182,"larÃ¡n":9183,"cerrado":9184,"cerveza":9185,"obel":9186,"1986":9187,"1983":9188,"Coll":9189,"bank":9190,"elevar":9191,"Consu":9192,"intercep":9193,"onamiento":9194,"Inf":9195,"vende":9196,"gena":9197,"ariamente":9198,"traspaso":9199,"Redon":9200,"Reforma":9201,"ReuniÃ³n":9202,"bul":9203,"buenos":9204,"bral":9205,"jap":9206,"jala":9207,"jayun":9208,"SeÃ±":9209,"titulado":9210,"llamado":9211,"llegan":9212,"Martini":9213,"Marjayun":9214,"garÃ¡n":9215,"esperado":9216,"nuevamente":9217,"fama":9218,"Alg":9219,"Alfre":9220,"inscri":9221,"instrucciÃ³n":9222,"instrucciones":9223,"Anne":9224,"Annan":9225,"mers":9226,"absoluciÃ³n":9227,"frÃŃa":9228,"Vila":9229,"Vita":9230,"Vicerrec":9231,"hici":9232,"1993":9233,"terios":9234,"comunitaria":9235,"uss":9236,"usta":9237,"ceni":9238,"barco":9239,"barri":9240,"Pardo":9241,"illas":9242,"ENTA":9243,"plana":9244,"plantaciones":9245,"Port":9246,"pleados":9247,"electos":9248,"iniones":9249,"CafÃ©":9250,"Barboza":9251,"gaso":9252,"Mila":9253,"Mieres":9254,"Miquel":9255,"Carro":9256,"Vale":9257,"militantes":9258,"responde":9259,"respondiÃ³":9260,"Arqui":9261,"ArÃ©valo":9262,"situadas":9263,"situaciones":9264,"recientes":9265,"reciben":9266,"Som":9267,"Soge":9268,"Solana":9269,"campeones":9270,"manipu":9271,"Libera":9272,"Libro":9273,"Liberal":9274,"Leo":9275,"Ledesma":9276,"Cipoll":9277,"seÃ±al":9278,"Roca":9279,"Roig":9280,"Roland":9281,"aseguraron":9282,"135":9283,"edicto":9284,"representada":9285,"temor":9286,"Manzano":9287,"oridad":9288,"alguien":9289,"opes":9290,"opta":9291,"opiniones":9292,"fallos":9293,"fundador":9294,"bolsas":9295,"Digital":9296,"Sama":9297,"Saporta":9298,"socialdemÃ³crata":9299,"encuesta":9300,"teriormente":9301,"trabajado":9302,"Extran":9303,"ExplicÃ³":9304,"franco":9305,"compaÃ±ero":9306,"180":9307,"ELN":9308,"anuncia":9309,"Castellano":9310,"Lugo":9311,"MÃ©dicos":9312,"Charles":9313,"regir":9314,"regidor":9315,"previsible":9316,"continÃºan":9317,"ALI":9318,"Cuatre":9319,"destacar":9320,"cumpla":9321,"aray":9322,"responsabili":9323,"etaria":9324,"resultar":9325,"intentÃ³":9326,"abrirÃ¡":9327,"volcÃ¡n":9328,"concejala":9329,"bajaron":9330,"automati":9331,"automovil":9332,"Montoro":9333,"interanual":9334,"jugÃ³":9335,"cismo":9336,"Serna":9337,"Medina":9338,"nÃºmeros":9339,"ventana":9340,"domini":9341,"turno":9342,"turnos":9343,"invertido":9344,"Fujim":9345,"Antoni":9346,"investiga":9347,"Ã¡ctea":9348,"Minas":9349,"terminar":9350,"solicitarÃ¡":9351,"belga":9352,"Amor":9353,"Ambos":9354,"AmÃ©ri":9355,"incluyen":9356,"incluyendo":9357,"propios":9358,"gall":9359,"debatir":9360,"debatirÃ¡":9361,"precisa":9362,"estudiarÃ¡":9363,"estudiantil":9364,"convocadas":9365,"controlar":9366,"operativos":9367,"Garros":9368,"diferencial":9369,"asistiÃ³":9370,"asistir":9371,"colega":9372,"pedidos":9373,"autorizaciÃ³n":9374,"Addis":9375,"afectado":9376,"provinciales":9377,"Bancomer":9378,"contaba":9379,"villano":9380,"llevarse":9381,"malestar":9382,"encontrado":9383,"alcanzÃ³":9384,"completo":9385,"completar":9386,"complementa":9387,"Buffon":9388,"prÃ³ximamente":9389,"Palencia":9390,"igualmente":9391,"vieran":9392,"Grandes":9393,"partamentos":9394,"Ruano":9395,"permanece":9396,"pintura":9397,"desapare":9398,"rechazar":9399,"rechazada":9400,"agrade":9401,"aplicado":9402,"igno":9403,"ight":9404,"CONO":9405,"recuperarse":9406,"ejerce":9407,"lÃ³gicas":9408,"Haya":9409,"VIH":9410,"utiliza":9411,"garantÃŃa":9412,"infl":9413,"trÃ¡mite":9414,"Navarro":9415,"integral":9416,"LEONA":9417,"Arabia":9418,"trasladaron":9419,"necesarios":9420,"inaugurÃ³":9421,"reite":9422,"convertido":9423,"escalada":9424,"modifi":9425,"constituciÃ³n":9426,"constituyen":9427,"kom":9428,"incluidos":9429,"Atlan":9430,"VALOR":9431,"encargada":9432,"sexta":9433,"caÃŃdo":9434,"violar":9435,"britÃ¡nicos":9436,"resoluciones":9437,"Bruto":9438,"pisto":9439,"sÃŃmbo":9440,"aceptÃ³":9441,"Baptista":9442,"colectiva":9443,"clases":9444,"Guirao":9445,"desempleados":9446,"observaciÃ³n":9447,"obstÃ¡culos":9448,"comienza":9449,"coincide":9450,"respectivos":9451,"universitaria":9452,"ofrecen":9453,"SIERRA":9454,"ingresado":9455,"ocurrieron":9456,"superÃ³":9457,"supervis":9458,"implica":9459,"implicar":9460,"clasifica":9461,"cuadros":9462,"Villal":9463,"Quince":9464,"pequeÃ±os":9465,"Zaplana":9466,"apari":9467,"nombrado":9468,"fortun":9469,"comprometieron":9470,"consulta":9471,"dedicar":9472,"Asturi":9473,"inmediatamente":9474,"descartÃ³":9475,"1974":9476,"tomarÃ¡":9477,"Alicante":9478,"Beni":9479,"Denilson":9480,"olÃŃmpica":9481,"Clara":9482,"patronato":9483,"cÃ¡mara":9484,"aspirante":9485,"aspirantes":9486,"convivencia":9487,"Vallecano":9488,"TURA":9489,"Teruel":9490,"galardon":9491,"mericano":9492,"educativos":9493,"PARLA":9494,"SecciÃ³n":9495,"acumulaciÃ³n":9496,"anualmente":9497,"asumir":9498,"detalle":9499,"tificada":9500,"contributivas":9501,"camise":9502,"estatutos":9503,"bonos":9504,"concluida":9505,"diplomÃ¡ticas":9506,"landÃ©s":9507,"Checa":9508,"otorga":9509,"Airbus":9510,"Numancia":9511,"estrellas":9512,"interpretaciÃ³n":9513,"Feliciano":9514,"biÃ³ticos":9515,"chilena":9516,"venezo":9517,"enviado":9518,"elÃ©ctricas":9519,"precisamente":9520,"pieza":9521,"gestiones":9522,"suizo":9523,"aumentando":9524,"prioridad":9525,"prioridades":9526,"Joao":9527,"artÃŃculos":9528,"constatÃ³":9529,"variaciones":9530,"TÃ©cnicos":9531,"indemnizaciones":9532,"acadÃ©mica":9533,"Especial":9534,"demÃ³cratas":9535,"Olmo":9536,"discusiÃ³n":9537,"denunciante":9538,"favoritos":9539,"fÃ¡bricas":9540,"Cela":9541,"HernÃ¡n":9542,"dejaron":9543,"feliz":9544,"felici":9545,"colaborar":9546,"colaboradores":9547,"sucede":9548,"previas":9549,"corredor":9550,"asumiÃ³":9551,"Oscar":9552,"nervi":9553,"radicales":9554,"presuntamente":9555,"productividad":9556,"Petrobras":9557,"Pirineo":9558,"ahorro":9559,"halla":9560,"injustamente":9561,"niebla":9562,"IndicÃ³":9563,"cristianos":9564,"articu":9565,"retrasos":9566,"Ã¡rabe":9567,"tranquilidad":9568,"Producto":9569,"Zamorano":9570,"secuestrados":9571,"saludÃ³":9572,"armamento":9573,"limpieza":9574,"optimismo":9575,"optimista":9576,"independentista":9577,"BSCH":9578,"acontecimiento":9579,"mixta":9580,"Laborales":9581,"vencedor":9582,"AntibiÃ³ticos":9583,"barcelonista":9584,"organizador":9585,"Programa":9586,"disciplinas":9587,"panameÃ±a":9588,"SaudÃŃ":9589,"errores":9590,"arriba":9591,"Informativos":9592,"ministerial":9593,"erradicaciÃ³n":9594,"Christi":9595,"clÃ¡usulas":9596,"Cervantes":9597,"ETIOP":9598,"Hurtado":9599,"etÃŃopes":9600,"cuota":9601,"prestigio":9602,"fichaje":9603,"amarillo":9604,"trÃ³nico":9605,"muestras":9606,"correcta":9607,"Caribe":9608,"Melbour":9609,"Speight":9610,"alarma":9611,"catÃ³lica":9612,"despacho":9613,"lanzamiento":9614,"consentimiento":9615,"DemocrÃ¡":9616,"transiciÃ³n":9617,"Urbanismo":9618,"boliviano":9619,"Academi":9620,"Abeba":9621,"IÃ±aki":9622,"ocurre":9623,"imprescindible":9624,"atletas":9625,"Mercedes":9626,"fundamentales":9627,"cadÃ¡veres":9628,"Alomar":9629,"Dynamics":9630,"mundiales":9631,"labores":9632,"exactamente":9633,"Escolar":9634,"Vivienda":9635,"coinfecciÃ³n":9636,"========================================================":9637,"Sporting":9638,"aparecen":9639,"viÃ±edos":9640,"pertinentes":9641,"Convergencia":9642,"Legisla":9643,"Manila":9644,"catedrÃ¡tico":9645,"JerusalÃ©n":9646,"Aguilar":9647,"Abonados":9648,"CNMV":9649,"Damasco":9650,"Fassa":9651,"Fenosa":9652,"Ibiza":9653,"Larreina":9654,"Osasuna":9655,"Rheinmeta":9656,"Suiza":9657,"teorologÃŃa":9658,"soberan":9659,"FENIL":9660,"Alfredo":9661,"Sogecable":9662,"LiberaciÃ³n":9663,"Cipollini":9664,"Cuatrecasas":9665,"Fujimori":9666,"AmÃ©ricas":9667,"sÃŃmbolo":9668,"Melbourne":9669,"Academia":9670,"Rheinmetall":9671,"114":9672,"112":9673,"450":9674,"730":9675,"Ab":9676,"Ada":9677,"Ape":9678,"Aya":9679,"Abier":9680,"ARA":9681,"Abel":9682,"AVE":9683,"BO":9684,"BRE":9685,"BID":9686,"CZ":9687,"Cay":9688,"Cambi":9689,"CRI":9690,"Cep":9691,"Dra":9692,"Dal":9693,"Dem":9694,"EO":9695,"Eta":9696,"Eman":9697,"Ever":9698,"Ejecu":9699,"Etxe":9700,"Fr":9701,"Ferra":9702,"FUT":9703,"Fraga":9704,"Gan":9705,"Geta":9706,"GUN":9707,"GestiÃ³n":9708,"GRES":9709,"Hun":9710,"Hol":9711,"Hab":9712,"Igu":9713,"Ivan":9714,"IAC":9715,"Jau":9716,"KA":9717,"MON":9718,"Nico":9719,"Nadal":9720,"Nobel":9721,"OPE":9722,"Oriente":9723,"PD":9724,"Pra":9725,"PIS":9726,"PES":9727,"PTA":9728,"Preci":9729,"Pimenta":9730,"Rac":9731,"Sto":9732,"Sha":9733,"SOL":9734,"Samp":9735,"TS":9736,"Tro":9737,"Tex":9738,"Tau":9739,"TIN":9740,"TEL":9741,"Tara":9742,"Vla":9743,"Wi":9744,"XV":9745,"XII":9746,"Yu":9747,"ZÃº":9748,"Zoto":9749,"af":9750,"ago":9751,"agu":9752,"apren":9753,"afri":9754,"aisla":9755,"aportaciones":9756,"atrÃ¡s":9757,"aciertos":9758,"avu":9759,"bero":9760,"cle":9761,"cÃºn":9762,"cÃ©n":9763,"ctivo":9764,"ctiva":9765,"darios":9766,"ey":9767,"emo":9768,"edes":9769,"etas":9770,"ecimiento":9771,"ejÃ©rcito":9772,"fen":9773,"fla":9774,"fos":9775,"fam":9776,"facul":9777,"gl":9778,"gales":9779,"gamos":9780,"hur":9781,"iano":9782,"irÃ¡n":9783,"ificar":9784,"imag":9785,"kin":9786,"kio":9787,"kistÃ¡n":9788,"ls":9789,"lÃ¡ctea":9790,"mmers":9791,"nam":9792,"om":9793,"oca":9794,"och":9795,"relo":9796,"rculo":9797,"sso":9798,"sados":9799,"sacer":9800,"tch":9801,"vem":9802,"vÃ©n":9803,"vana":9804,"wagen":9805,"web":9806,"xeo":9807,"yi":9808,"zi":9809,"zalo":9810,"deco":9811,"defec":9812,"dedores":9813,"devoluciÃ³n":9814,"devalu":9815,"encon":9816,"enio":9817,"enmarca":9818,"esÃ³":9819,"escon":9820,"escas":9821,"escal":9822,"escru":9823,"lamiento":9824,"ost":9825,"osos":9826,"oscense":9827,"ciller":9828,"onÃ©s":9829,"tano":9830,"tana":9831,"taleza":9832,"ers":9833,"erse":9834,"ertor":9835,"eria":9836,"erne":9837,"Ã³men":9838,"uega":9839,"ERIT":9840,"alde":9841,"almor":9842,"alzarse":9843,"aldea":9844,"arres":9845,"arran":9846,"asal":9847,"asfi":9848,"intra":9849,"inmuni":9850,"incidente":9851,"inestabilidad":9852,"repres":9853,"redon":9854,"remon":9855,"remitiÃ³":9856,"requeri":9857,"advir":9858,"timo":9859,"tiles":9860,"tirÃŃa":9861,"tional":9862,"tierras":9863,"conec":9864,"contene":9865,"sera":9866,"sembra":9867,"pror":9868,"dimi":9869,"digo":9870,"dices":9871,"dicen":9872,"diariamente":9873,"Ã¡bi":9874,"ÃŃes":9875,"ÃŃdos":9876,"dote":9877,"ted":9878,"tecciÃ³n":9879,"dello":9880,"cao":9881,"toral":9882,"suda":9883,"sumar":9884,"suple":9885,"supuestos":9886,"supresiÃ³n":9887,"lici":9888,"lidera":9889,"curios":9890,"milen":9891,"miedo":9892,"leal":9893,"leti":9894,"leales":9895,"Ã©tico":9896,"Ã±ido":9897,"rode":9898,"tuja":9899,"hach":9900,"traer":9901,"tratado":9902,"sirio":9903,"mod":9904,"moto":9905,"moda":9906,"modes":9907,"vira":9908,"vidas":9909,"vive":9910,"viesa":9911,"bidas":9912,"novillos":9913,"prove":9914,"provis":9915,"parados":9916,"paralizaciÃ³n":9917,"paralela":9918,"pedÃŃa":9919,"restantes":9920,"desple":9921,"descri":9922,"desplaza":9923,"descentra":9924,"desfavore":9925,"Ãºo":9926,"holandÃ©s":9927,"solar":9928,"sociÃ³":9929,"fiestas":9930,"fianza":9931,"mela":9932,"parsor":9933,"compuesta":9934,"compartir":9935,"componen":9936,"uig":9937,"Elber":9938,"vole":9939,"puente":9940,"puzano":9941,"bala":9942,"rancia":9943,"ranch":9944,"empla":9945,"tenor":9946,"tensiones":9947,"ace":9948,"acoso":9949,"aclarÃ³":9950,"exce":9951,"torga":9952,"torsiÃ³n":9953,"toreo":9954,"impuso":9955,"improvis":9956,"ducto":9957,"ductores":9958,"Laur":9959,"Lamela":9960,"ceÃ±ido":9961,"preocupa":9962,"lesiÃ¡s":9963,"niÃ±o":9964,"ality":9965,"form":9966,"formÃ³":9967,"Espar":9968,"pil":9969,"pien":9970,"pirena":9971,"minente":9972,"tarri":9973,"tarlo":9974,"gala":9975,"gama":9976,"cionero":9977,"cardio":9978,"cargas":9979,"luco":9980,"casco":9981,"castren":9982,"seri":9983,"muer":9984,"mulas":9985,"mutu":9986,"landestin":9987,"aul":9988,"auri":9989,"paÃ±ÃŃa":9990,"nacionalidad":9991,"tanques":9992,"chal":9993,"chado":9994,"chinos":9995,"ganadora":9996,"lly":9997,"llerÃŃa":9998,"preside":9999,"iat":10000,"mari":10001,"maria":10002,"marcada":10003,"fumadores":10004,"disponer":10005,"disponen":10006,"vecin":10007,"veintena":10008,"larse":10009,"estrecha":10010,"estone":10011,"obtenidos":10012,"1985":10013,"Coordin":10014,"Colin":10015,"EnseÃ±anza":10016,"Entidades":10017,"pasando":10018,"pastel":10019,"mistas":10020,"grabados":10021,"creciÃ³":10022,"jeras":10023,"visa":10024,"Conce":10025,"Consor":10026,"Conchi":10027,"interprofesional":10028,"juris":10029,"jugando":10030,"onat":10031,"millon":10032,"Indice":10033,"Incidencias":10034,"negado":10035,"tintos":10036,"trices":10037,"geno":10038,"Red":10039,"Reco":10040,"contradi":10041,"brazo":10042,"tiendas":10043,"feros":10044,"quÃ©s":10045,"calma":10046,"calcu":10047,"titula":10048,"llamados":10049,"llegue":10050,"acudiÃ³":10051,"informarÃ¡":10052,"garo":10053,"mÃ³du":10054,"Santil":10055,"Altos":10056,"AlmerÃŃa":10057,"agricultura":10058,"agrande":10059,"Anuk":10060,"abin":10061,"mencion":10062,"COL":10063,"penÃŃnsula":10064,"centrales":10065,"Vid":10066,"Vieri":10067,"peseta":10068,"consiste":10069,"hija":10070,"ESA":10071,"estipu":10072,"Paco":10073,"Pais":10074,"mestra":10075,"108":10076,"vares":10077,"Parque":10078,"Parti":10079,"valle":10080,"equipara":10081,"equivo":10082,"priva":10083,"corregir":10084,"personalmente":10085,"personalidades":10086,"=====":10087,"Naval":10088,"indio":10089,"tonia":10090,"Barros":10091,"ONCE":10092,"maÃ±o":10093,"Mili":10094,"Micros":10095,"Cartuja":10096,"regla":10097,"reglamenta":10098,"reglamento":10099,"trando":10100,"responden":10101,"Arro":10102,"Artur":10103,"Arturo":10104,"145":10105,"147":10106,"reciÃ©n":10107,"Frank":10108,"reunieron":10109,"basado":10110,"Solid":10111,"Sotron":10112,"manifiesta":10113,"nubes":10114,"CID":10115,"Ligas":10116,"rence":10117,"RomÃ¡n":10118,"choque":10119,"choques":10120,"servirÃ¡n":10121,"Astorga":10122,"ManceÃ±ido":10123,"Polo":10124,"ANTER":10125,"viajÃ³":10126,"fallÃ³":10127,"mond":10128,"realizaron":10129,"Diario":10130,"celebrarse":10131,"INTEN":10132,"anunciar":10133,"Cascos":10134,"Casagrande":10135,"podÃŃan":10136,"afirmado":10137,"seguimiento":10138,"dorm":10139,"objetos":10140,"continental":10141,"ÃŃndices":10142,"Cuatro":10143,"madu":10144,"gueras":10145,"responsabilidades":10146,"etapas":10147,"oft":10148,"resulta":10149,"danza":10150,"manifestar":10151,"Corbella":10152,"volta":10153,"sancion":10154,"saneamiento":10155,"secretarÃŃa":10156,"ambientales":10157,"peso":10158,"concejo":10159,"concedidos":10160,"CancÃºn":10161,"Siempre":10162,"Montes":10163,"Monetario":10164,"Todo":10165,"denunciar":10166,"Telekom":10167,"Televisa":10168,"jugados":10169,"240":10170,"245":10171,"seguros":10172,"especialista":10173,"Louis":10174,"cistas":10175,"MeteorologÃŃa":10176,"hispan":10177,"Ã±osas":10178,"establezca":10179,"salÃ³n":10180,"salto":10181,"salvo":10182,"Summers":10183,"TIL":10184,"TICIAS":10185,"Camp":10186,"Campuzano":10187,"turco":10188,"invertir":10189,"informativa":10190,"informativas":10191,"dÃ©bil":10192,"Bom":10193,"Boada":10194,"disputan":10195,"disputÃ³":10196,"ACU":10197,"Matt":10198,"frag":10199,"fraude":10200,"desequi":10201,"publicar":10202,"guatem":10203,"dependencia":10204,"dependientes":10205,"propias":10206,"reside":10207,"debates":10208,"Comunicaciones":10209,"Ribera":10210,"UNI":10211,"UNED":10212,"operativo":10213,"operativa":10214,"operador":10215,"operarios":10216,"Perpi":10217,"subvenciÃ³n":10218,"subcomisiÃ³n":10219,"asisten":10220,"destinarÃ¡":10221,"instalado":10222,"Morales":10223,"Mollet":10224,"delegada":10225,"Embajada":10226,"Ã¡rra":10227,"Esteve":10228,"asesora":10229,"Puente":10230,"sorteo":10231,"encontrarse":10232,"Pie":10233,"Pier":10234,"expresada":10235,"posiblemente":10236,"Gonzalo":10237,"movilidad":10238,"planteÃ³":10239,"plantear":10240,"procedente":10241,"TEC":10242,"seÃ±alan":10243,"carreras":10244,"carreteras":10245,"plenamente":10246,"generar":10247,"herencia":10248,"rechazado":10249,"convencido":10250,"Ã©rico":10251,"agradeci":10252,"experto":10253,"CONS":10254,"CONSE":10255,"CONGRES":10256,"CompaÃ±ÃŃa":10257,"ponerse":10258,"dirigidas":10259,"linos":10260,"utilidad":10261,"cotizan":10262,"catedral":10263,"presupuestos":10264,"alaves":10265,"fÃŃsica":10266,"fÃŃsicas":10267,"Menacho":10268,"LETICO":10269,"concluye":10270,"concluyeron":10271,"trasladar":10272,"inaugura":10273,"convertir":10274,"escapar":10275,"NOTICIAS":10276,"defensas":10277,"definido":10278,"incluir":10279,"condenÃ³":10280,"IBAR":10281,"Torre":10282,"amenazado":10283,"Catalana":10284,"brasileÃ±as":10285,"ocupÃ³":10286,"SalÃ³n":10287,"caÃŃdas":10288,"violaciones":10289,"territorial":10290,"RANTES":10291,"madridistas":10292,"determinante":10293,"Ã¡ldez":10294,"libertades":10295,"garantizada":10296,"avances":10297,"avanzado":10298,"plena":10299,"maternidad":10300,"Tip":10301,"Tigres":10302,"concretamente":10303,"colari":10304,"carburante":10305,"observador":10306,"observaciones":10307,"ComitÃ©s":10308,"valorar":10309,"apuntan":10310,"apuntaron":10311,"acordÃ³":10312,"econÃ³micamente":10313,"coincidiendo":10314,"Fox":10315,"adoptada":10316,"adoptarÃ¡":10317,"competitividad":10318,"acompaÃ±Ã³":10319,"acompaÃ±ada":10320,"conciertos":10321,"consecuciÃ³n":10322,"Balza":10323,"atraves":10324,"atraviesa":10325,"Prieto":10326,"cuestion":10327,"comisarÃŃa":10328,"frutos":10329,"portugueses":10330,"italianos":10331,"fallecidos":10332,"Empresas":10333,"reclamÃ³":10334,"sustituye":10335,"esperando":10336,"efectuÃ³":10337,"promotor":10338,"extranjera":10339,"Albert":10340,"campeona":10341,"suele":10342,"yenes":10343,"TurquÃŃa":10344,"denominaciÃ³n":10345,"inmediata":10346,"negativos":10347,"especie":10348,"especies":10349,"individuos":10350,"Plataforma":10351,"invitaciÃ³n":10352,"papeles":10353,"construido":10354,"Claude":10355,"ULAR":10356,"Ã³sticos":10357,"referido":10358,"supera":10359,"consiguieron":10360,"regulador":10361,"estructurales":10362,"TUR":10363,"artÃŃsticas":10364,"RENFE":10365,"pasapor":10366,"intervenir":10367,"colombiana":10368,"GURA":10369,"Posteriormente":10370,"ilegales":10371,"relieve":10372,"Mossos":10373,"Moscoso":10374,"PNC":10375,"moderado":10376,"salari":10377,"querellas":10378,"aprobaron":10379,"preguntado":10380,"patio":10381,"desconoce":10382,"comparecencias":10383,"concluirÃ¡":10384,"bilba":10385,"obispos":10386,"consensu":10387,"valenciano":10388,"alternativos":10389,"Koeh":10390,"entrevistarse":10391,"Nuestra":10392,"mueve":10393,"contun":10394,"contento":10395,"Ã¡mbitos":10396,"peruano":10397,"peruanos":10398,"RegiÃ³n":10399,"petrolera":10400,"CaÃ±ellas":10401,"CaÃ±izar":10402,"Farland":10403,"arrai":10404,"levantar":10405,"espectacular":10406,"movilizaciÃ³n":10407,"Barajas":10408,"New":10409,"News":10410,"Blanc":10411,"Ecuality":10412,"gestiona":10413,"extensiÃ³n":10414,"ganaderÃŃa":10415,"Patrick":10416,"SVK":10417,"republicano":10418,"diseÃ±o":10419,"motivado":10420,"encabezados":10421,"Bono":10422,"FINAL":10423,"Puebla":10424,"kms":10425,"consolidar":10426,"conjuntamente":10427,"dividen":10428,"investigador":10429,"ratificÃ³":10430,"paquetes":10431,"equivalente":10432,"renuncia":10433,"HernÃ¡ndez":10434,"apostÃ³":10435,"formular":10436,"sabÃŃa":10437,"McFarland":10438,"eficacia":10439,"solamente":10440,"comparaciÃ³n":10441,"distribuir":10442,"ATLETICO":10443,"grÃºa":10444,"remitido":10445,"producirse":10446,"Parlamentario":10447,"Petrova":10448,"BernÃ¡ldez":10449,"ahorros":10450,"sensaciÃ³n":10451,"sensatez":10452,"redacciÃ³n":10453,"fijadas":10454,"Francesco":10455,"circuito":10456,"incrementado":10457,"aparcamientos":10458,"energÃ©tico":10459,"Raymond":10460,"dictamen":10461,"matrimonio":10462,"imputados":10463,"aÃ±adieron":10464,"desarrollando":10465,"ProducciÃ³n":10466,"subvenciones":10467,"experimental":10468,"tormentosos":10469,"manejo":10470,"adaptaciÃ³n":10471,"Ballesteros":10472,"independentistas":10473,"GriÃ±Ã³n":10474,"LIFE":10475,"Vaquero":10476,"aconte":10477,"octava":10478,"cuantas":10479,"Laboral":10480,"organizadores":10481,"sospech":10482,"guirre":10483,"caracteriza":10484,"Daroca":10485,"Jiam":10486,"Ronda":10487,"debut":10488,"revisar":10489,"equipamientos":10490,"Carlota":10491,"transformadoras":10492,"coincidencia":10493,"Edward":10494,"FRENTE":10495,"Occidente":10496,"pacÃŃfica":10497,"emisiones":10498,"achacÃ³":10499,"Carmona":10500,"SecretarÃŃa":10501,"adquirir":10502,"DefensorÃŃa":10503,"Honduras":10504,"contribuir":10505,"cerrase":10506,"inspiraciÃ³n":10507,"Ernesto":10508,"acelerada":10509,"ecuatoriano":10510,"involucra":10511,"teorÃŃa":10512,"superiores":10513,"Reglamento":10514,"Sabadell":10515,"profundamente":10516,"izquierdo":10517,"catalanes":10518,"exclusivamente":10519,"Network":10520,"Viagra":10521,"Volks":10522,"vÃŃspera":10523,"columna":10524,"extinciÃ³n":10525,"universal":10526,"bodegas":10527,"abastecimiento":10528,"Samaniego":10529,"intelectuales":10530,"RETIRA":10531,"Riesgos":10532,"MIENTOS":10533,"Rodrigo":10534,"Kalparsor":10535,"Philip":10536,"VOLU":10537,"facturaciÃ³n":10538,"nistÃŃa":10539,"PERSONAS":10540,"incompatibles":10541,"romÃ¡nico":10542,"sierrale":10543,"simultÃ¡n":10544,"parroqui":10545,"acredi":10546,"Revolucionario":10547,"Literatura":10548,"monumento":10549,"anticipada":10550,"longitud":10551,"MediterrÃ¡neo":10552,"toxicÃ³manos":10553,"Clemente":10554,"Habana":10555,"mÃ©ritos":10556,"alimentos":10557,"refuerzo":10558,"sublevaciÃ³n":10559,"matinales":10560,"Consumo":10561,"Redondo":10562,"japonesa":10563,"Algunos":10564,"Samaranch":10565,"dominicano":10566,"influi":10567,"ETIOPIA":10568,"soberanÃŃa":10569,"Apelaciones":10570,"Ayala":10571,"CZE":10572,"Cepsa":10573,"Etapa":10574,"Everest":10575,"Frente":10576,"Getafe":10577,"Racan":10578,"Tropas":10579,"Zotoluco":10580,"avutar":10581,"fenÃ³men":10582,"famoso":10583,"imagin":10584,"ochenta":10585,"vemente":10586,"ertorrique":10587,"ERITREA":10588,"inmunidad":10589,"descentralizaciÃ³n":10590,"sociÃ³logo":10591,"Consorcio":10592,"Santillana":10593,"Microsoft":10594,"Solidaridad":10595,"Sotrondio":10596,"hispanista":10597,"asesoramiento":10598,"Koehler":10599,"CaÃ±izares":10600,"Volkswagen":10601,"Kalparsoro":10602,"fenÃ³meno":10603,"125":10604,"118":10605,"350":10606,"328":10607,"335":10608,"380":10609,"410":10610,"570":10611,"712":10612,"922":10613,"Adu":10614,"Ana":10615,"Abo":10616,"AcciÃ³n":10617,"ADE":10618,"Aeros":10619,"Avenida":10620,"AENA":10621,"Aguirre":10622,"Badal":10623,"Brent":10624,"Cin":10625,"Cis":10626,"Clas":10627,"Cro":10628,"Cur":10629,"CÃºper":10630,"Dec":10631,"Dja":10632,"Deno":10633,"Dentro":10634,"DALU":10635,"Echar":10636,"ECONO":10637,"FT":10638,"Fla":10639,"Fra":10640,"Funa":10641,"Fru":10642,"Fir":10643,"Frei":10644,"FID":10645,"Gro":10646,"Gale":10647,"Grasa":10648,"Har":10649,"Ham":10650,"Hing":10651,"Isi":10652,"Iru":10653,"Iber":10654,"IES":10655,"Itur":10656,"IVI":10657,"Jun":10658,"Junto":10659,"Jonat":10660,"Ken":10661,"KAL":10662,"LÃ©":10663,"Lac":10664,"Lorca":10665,"MÃº":10666,"Mori":10667,"Mendo":10668,"MOS":10669,"Mexi":10670,"Nuevas":10671,"OO":10672,"Oce":10673,"Otero":10674,"PH":10675,"PRA":10676,"Ping":10677,"Paseo":10678,"Resta":10679,"Rena":10680,"SW":10681,"Sales":10682,"Sindi":10683,"SUE":10684,"SOS":10685,"Sindica":10686,"Semana":10687,"Tal":10688,"TON":10689,"TPI":10690,"Udal":10691,"UFP":10692,"VO":10693,"VÃŃa":10694,"VES":10695,"Yong":10696,"ZAR":10697,"apel":10698,"aparece":10699,"avenida":10700,"bran":10701,"brÃŃa":10702,"bron":10703,"cad":10704,"ctas":10705,"clar":10706,"cemos":10707,"clandestin":10708,"dÃ¡":10709,"dantes":10710,"eas":10711,"eciÃ³":10712,"emociÃ³n":10713,"elabor":10714,"event":10715,"fp":10716,"ft":10717,"fv":10718,"fres":10719,"fases":10720,"factos":10721,"gn":10722,"glos":10723,"gÃ¡n":10724,"gadi":10725,"gnan":10726,"hada":10727,"hemb":10728,"hry":10729,"hesiÃ³n":10730,"hÃ¡bi":10731,"iban":10732,"jm":10733,"jla":10734,"jÃ¡":10735,"jante":10736,"kas":10737,"koso":10738,"keni":10739,"lis":10740,"lero":10741,"ling":10742,"mt":10743,"mÃ³n":10744,"muno":10745,"nes":10746,"nell":10747,"oa":10748,"ojos":10749,"oponen":10750,"pÃŃ":10751,"pÃ©":10752,"pali":10753,"pados":10754,"psico":10755,"plÃ¡s":10756,"rino":10757,"sano":10758,"sfp":10759,"tÃºe":10760,"up":10761,"uer":10762,"uruguay":10763,"upil":10764,"vm":10765,"vestu":10766,"vrati":10767,"vtse":10768,"wor":10769,"wrence":10770,"ys":10771,"zuna":10772,"zadores":10773,"ztia":10774,"zmÃ¡n":10775,"debilidad":10776,"detuvieron":10777,"demuestra":10778,"ens":10779,"enza":10780,"enseÃ±":10781,"enemi":10782,"esen":10783,"estros":10784,"esgri":10785,"essel":10786,"rat":10787,"onalizaciÃ³n":10788,"tala":10789,"taqui":10790,"tamante":10791,"tamaÃ±o":10792,"erts":10793,"Ã³ri":10794,"Ã³cra":10795,"EROS":10796,"ald":10797,"aldad":10798,"albaÃ±":10799,"armado":10800,"arresto":10801,"arries":10802,"PERA":10803,"quera":10804,"quejas":10805,"quets":10806,"anex":10807,"antenas":10808,"inci":10809,"inÃ©":10810,"indÃŃ":10811,"inexistente":10812,"inminente":10813,"repor":10814,"repe":10815,"reza":10816,"reina":10817,"reval":10818,"reacciones":10819,"reproducciÃ³n":10820,"retorno":10821,"recurrir":10822,"rehabilitaciÃ³n":10823,"admisiÃ³n":10824,"adjunta":10825,"adjudica":10826,"tiga":10827,"ticias":10828,"cong":10829,"contras":10830,"conteni":10831,"contener":10832,"conge":10833,"convirtiÃ³":10834,"convali":10835,"conjuntas":10836,"sevillano":10837,"diciÃ³n":10838,"disi":10839,"dicas":10840,"dicial":10841,"diab":10842,"dirÃ¡n":10843,"dialo":10844,"dichos":10845,"Ã¡cica":10846,"ÃŃtu":10847,"ÃŃtima":10848,"corazones":10849,"coyun":10850,"dobles":10851,"docentes":10852,"teme":10853,"tegi":10854,"techo":10855,"tectos":10856,"teatra":10857,"isti":10858,"porcent":10859,"camente":10860,"cafe":10861,"caminos":10862,"tomÃ³":10863,"rich":10864,"subido":10865,"sucesi":10866,"suponga":10867,"mat":10868,"matr":10869,"maras":10870,"mader":10871,"magro":10872,"licas":10873,"lifera":10874,"cus":10875,"miro":10876,"mites":10877,"levar":10878,"lejan":10879,"letÃŃn":10880,"Ã©se":10881,"Ã©ticas":10882,"roca":10883,"tuta":10884,"tuvieran":10885,"hamed":10886,"tramitaciÃ³n":10887,"sivo":10888,"siga":10889,"molinos":10890,"vicerrec":10891,"bicicleta":10892,"loa":10893,"loga":10894,"logos":10895,"lobos":10896,"adoles":10897,"propuso":10898,"proposiciones":10899,"prolifera":10900,"parali":10901,"paracaÃŃdas":10902,"pei":10903,"peor":10904,"resca":10905,"restitu":10906,"despren":10907,"desalo":10908,"preser":10909,"prestado":10910,"prestaciones":10911,"presenten":10912,"Ãºen":10913,"Ãºmenes":10914,"homi":10915,"terdam":10916,"dosa":10917,"filas":10918,"fijar":10919,"ficadas":10920,"fichar":10921,"meda":10922,"paros":10923,"parencia":10924,"composi":10925,"compensar":10926,"combin":10927,"Elor":10928,"ecÃŃa":10929,"voy":10930,"voces":10931,"votaciones":10932,"pug":10933,"puertorrique":10934,"perjuicio":10935,"bata":10936,"randa":10937,"emas":10938,"empu":10939,"tense":10940,"tendencias":10941,"tencioso":10942,"actores":10943,"accesi":10944,"actÃºan":10945,"iol":10946,"exclui":10947,"exig":10948,"excepciÃ³n":10949,"torne":10950,"tormenta":10951,"manÃŃa":10952,"mantendrÃ¡":10953,"mantenÃŃan":10954,"gola":10955,"ambu":10956,"amnistÃŃa":10957,"impone":10958,"impru":10959,"gues":10960,"guine":10961,"guerras":10962,"gulador":10963,"dump":10964,"Laud":10965,"Lawrence":10966,"cedo":10967,"cedido":10968,"zaga":10969,"prevÃ©n":10970,"jovtse":10971,"nica":10972,"vaja":10973,"alican":10974,"alizado":10975,"foresta":10976,"formal":10977,"Espin":10978,"quiero":10979,"gaba":10980,"caro":10981,"cardi":10982,"luca":10983,"saben":10984,"serio":10985,"seria":10986,"serÃŃan":10987,"serrat":10988,"brera":10989,"posteriores":10990,"posesiÃ³n":10991,"verse":10992,"reclu":10993,"murales":10994,"landes":10995,"lanÃ©s":10996,"lanzada":10997,"rupciÃ³n":10998,"aur":10999,"auxi":11000,"canal":11001,"cantidades":11002,"natal":11003,"nacimiento":11004,"navaja":11005,"boico":11006,"gias":11007,"gieron":11008,"costa":11009,"chino":11010,"ganando":11011,"llÃ³":11012,"partirÃ¡":11013,"partidarios":11014,"fuga":11015,"dismo":11016,"dispuesta":11017,"dispuestos":11018,"dispondrÃ¡":11019,"disparo":11020,"disponi":11021,"veran":11022,"vetta":11023,"sustan":11024,"estÃŃ":11025,"estri":11026,"obe":11027,"obreros":11028,"1987":11029,"1981":11030,"1967":11031,"CorazÃ³n":11032,"Cooperativas":11033,"Encu":11034,"banera":11035,"biernos":11036,"pasi":11037,"pasos":11038,"pasadas":11039,"pasarÃ¡":11040,"ponencias":11041,"misa":11042,"misiones":11043,"eleva":11044,"creÃ³":11045,"crearÃ¡":11046,"creemos":11047,"finca":11048,"lÃŃmites":11049,"Contin":11050,"Concha":11051,"interesa":11052,"intervini":11053,"medianas":11054,"talÃ³":11055,"tallas":11056,"talban":11057,"Inten":11058,"Infra":11059,"Intx":11060,"Ingeni":11061,"tinos":11062,"posibili":11063,"zarlo":11064,"vencer":11065,"vendido":11066,"venosa":11067,"generan":11068,"generÃ³":11069,"derse":11070,"derÃ¡n":11071,"derrum":11072,"presentados":11073,"presentarÃ¡n":11074,"Regulador":11075,"contratado":11076,"masa":11077,"titulares":11078,"titulaciones":11079,"Goles":11080,"GolÃ¡n":11081,"Gobiernos":11082,"llamÃ³":11083,"llamarÃ¡":11084,"ayana":11085,"llera":11086,"lleve":11087,"acudan":11088,"informÃ¡ticas":11089,"Maru":11090,"Mary":11091,"Marbella":11092,"garse":11093,"Almagro":11094,"inspe":11095,"AntÃ³n":11096,"ciosa":11097,"merece":11098,"absor":11099,"firmantes":11100,"pensiÃ³n":11101,"conocen":11102,"conocimientos":11103,"ViÃ±ol":11104,"constancia":11105,"conselle":11106,"comunicar":11107,"ESTU":11108,"puedo":11109,"censura":11110,"produzca":11111,"plata":11112,"Paola":11113,"bares":11114,"barril":11115,"101":11116,"107":11117,"Parra":11118,"vale":11119,"equilib":11120,"privi":11121,"privados":11122,"privadas":11123,"corte":11124,"corrida":11125,"corrupciÃ³n":11126,"ENCIA":11127,"ENCIAS":11128,"plane":11129,"Navrati":11130,"indicios":11131,"indicador":11132,"curren":11133,"formato":11134,"Porque":11135,"Porzuna":11136,"primas":11137,"urgentes":11138,"electores":11139,"electrÃ³nico":11140,"CatÃ³":11141,"decimo":11142,"decidida":11143,"decidirÃ¡":11144,"Jose":11145,"Josu":11146,"303":11147,"Barre":11148,"gastron":11149,"Cardenal":11150,"Valde":11151,"VallÃ©s":11152,"Juli":11153,"Judicial":11154,"TAS":11155,"TAMIENTOS":11156,"Argel":11157,"Armada":11158,"153":11159,"156":11160,"reunido":11161,"reunirse":11162,"vascular":11163,"campos":11164,"Lijovtse":11165,"Lee":11166,"nacionalismo":11167,"CientÃŃ":11168,"seÃ±or":11169,"Roja":11170,"Roger":11171,"Roost":11172,"cing":11173,"Asmara":11174,"137":11175,"139":11176,"editado":11177,"representaciones":11178,"tempera":11179,"tistuta":11180,"finalistas":11181,"ANAT":11182,"ANDALU":11183,"ANTON":11184,"viable":11185,"fallado":11186,"fundada":11187,"monto":11188,"monasterio":11189,"consejerÃŃa":11190,"bolso":11191,"realizados":11192,"Dida":11193,"Sara":11194,"sosteni":11195,"encuestas":11196,"Guar":11197,"GuzmÃ¡n":11198,"Guayana":11199,"trabajadora":11200,"Exterior":11201,"Exchan":11202,"IND":11203,"ING":11204,"INO":11205,"INAS":11206,"INFOR":11207,"ELES":11208,"anunciada":11209,"Luarca":11210,"163":11211,"164":11212,"vanguar":11213,"seguidos":11214,"doro":11215,"consideraron":11216,"171":11217,"175":11218,"177":11219,"ingles":11220,"legalmente":11221,"cumplen":11222,"recorrieron":11223,"secreto":11224,"111":11225,"institucionalidad":11226,"pesquero":11227,"Proyec":11228,"clin":11229,"Montalban":11230,"TomÃ¡s":11231,"Tokio":11232,"Toluca":11233,"integr":11234,"Ramiro":11235,"Rabanera":11236,"Racing":11237,"Logan":11238,"Locales":11239,"programadas":11240,"antidump":11241,"Servini":11242,"Mej":11243,"hispana":11244,"salman":11245,"Center":11246,"Sudeste":11247,"pacif":11248,"turÃŃstica":11249,"turÃŃsticas":11250,"Europeos":11251,"cirse":11252,"Bow":11253,"OLA":11254,"guirÃ¡":11255,"Mapei":11256,"fracas":11257,"retirado":11258,"retirarse":11259,"publicaciones":11260,"incluya":11261,"propietario":11262,"resivo":11263,"parecÃŃa":11264,"empleos":11265,"trataba":11266,"UNION":11267,"pantalla":11268,"Auto":11269,"destinar":11270,"continuada":11271,"registro":11272,"Joana":11273,"Mobil":11274,"Movimiento":11275,"Mohamed":11276,"Agricultores":11277,"Bank":11278,"acusada":11279,"Universidades":11280,"ellÃ³":11281,"relato":11282,"relativa":11283,"relativos":11284,"Unas":11285,"calificar":11286,"favorecen":11287,"salido":11288,"virtud":11289,"justas":11290,"Puertos":11291,"Desay":11292,"alcance":11293,"alcanza":11294,"alcanzan":11295,"ats":11296,"mostrarÃ¡":11297,"planteado":11298,"planteamiento":11299,"nubosidad":11300,"borde":11301,"viejo":11302,"periodismo":11303,"Asociaciones":11304,"RumanÃŃa":11305,"redujo":11306,"ÃŃculas":11307,"cuartel":11308,"cuarteles":11309,"permanentes":11310,"pincha":11311,"pinturas":11312,"plenaria":11313,"rechaza":11314,"ordenar":11315,"obligaciones":11316,"aplican":11317,"pelÃŃculas":11318,"atacar":11319,"CONST":11320,"recuperado":11321,"acoge":11322,"dirigir":11323,"dirigirse":11324,"MÃ¡xi":11325,"aficionado":11326,"utilizado":11327,"cilia":11328,"cotidi":11329,"CAM":11330,"industrias":11331,"abandonado":11332,"Menores":11333,"enfermo":11334,"empezado":11335,"DIARIO":11336,"recibidos":11337,"coloquio":11338,"subray":11339,"preparaciÃ³n":11340,"preparativos":11341,"corresponden":11342,"MACION":11343,"MAÃĳ":11344,"reativo":11345,"viceconsejero":11346,"vicepresidenta":11347,"compras":11348,"necesarias":11349,"373":11350,"inaugurado":11351,"conversiÃ³n":11352,"MIL":11353,"kilo":11354,"constitucional":11355,"constituida":11356,"confesÃ³":11357,"definitivamente":11358,"Fiyi":11359,"Figueras":11360,"kovica":11361,"koupil":11362,"encamin":11363,"jugarÃ¡n":11364,"IBEX":11365,"Institucional":11366,"alemanas":11367,"diciendo":11368,"magreb":11369,"Salvati":11370,"encargados":11371,"encarecimiento":11372,"minuto":11373,"registrados":11374,"millar":11375,"IDO":11376,"Robles":11377,"Robert":11378,"Roberts":11379,"provocaciÃ³n":11380,"provocaron":11381,"ejecutado":11382,"determinados":11383,"Ã¡lbu":11384,"aceptaciÃ³n":11385,"gusta":11386,"gustarÃŃa":11387,"tÃ©rpre":11388,"intentaron":11389,"quÃŃvo":11390,"quisiÃ©ramos":11391,"Batistuta":11392,"concentraron":11393,"Gibral":11394,"entendimiento":11395,"multa":11396,"facilitados":11397,"facilitarÃ¡":11398,"tecnolÃ³gica":11399,"beneficia":11400,"Merck":11401,"Travolta":11402,"valorado":11403,"transportar":11404,"pronosti":11405,"insistir":11406,"Deporte":11407,"exige":11408,"MEIAC":11409,"aboga":11410,"abogÃ³":11411,"concierne":11412,"sufrir":11413,"sufrieron":11414,"universidad":11415,"consecutiva":11416,"ejercicios":11417,"Bilateral":11418,"Tajo":11419,"cuestiona":11420,"tÃ³rico":11421,"volverÃ¡n":11422,"ocurridos":11423,"Segura":11424,"suspender":11425,"suspendido":11426,"Villaverde":11427,"CelrÃ¡":11428,"QuÃ©":11429,"contemporÃ¡n":11430,"coln":11431,"efectuadas":11432,"efectuarÃ¡n":11433,"SUB":11434,"SUI":11435,"apartado":11436,"mÃºsicos":11437,"promotores":11438,"AGI":11439,"consultados":11440,"TurÃŃn":11441,"grÃ¡ficas":11442,"inmediaciones":11443,"1978":11444,"finaliza":11445,"finalizar":11446,"finalizarÃ¡":11447,"derrotas":11448,"individuales":11449,"adelantar":11450,"Chaud":11451,"AlimentaciÃ³n":11452,"Ã©xitos":11453,"montaje":11454,"montaÃ±osas":11455,"Clavero":11456,"Gama":11457,"GavÃ¡":11458,"Milenio":11459,"blanca":11460,"blancos":11461,"factor":11462,"Ã³sto":11463,"referente":11464,"reflexi":11465,"reflejan":11466,"pagaron":11467,"Calvo":11468,"convicciÃ³n":11469,"histÃ³ricos":11470,"evacuadas":11471,"TRAL":11472,"asiÃ¡tico":11473,"madrileÃ±os":11474,"educativo":11475,"Magreb":11476,"Ponce":11477,"Respon":11478,"dalla":11479,"sacÃ³":11480,"sacas":11481,"desplazarse":11482,"mezcla":11483,"ganancia":11484,"intervendrÃ¡n":11485,"acumulado":11486,"colombianos":11487,"GUERRA":11488,"Posi":11489,"Posada":11490,"afronta":11491,"ilegalmente":11492,"protagonista":11493,"abordarÃ¡":11494,"desarrollarÃ¡n":11495,"Transparencia":11496,"ecolog":11497,"derivados":11498,"favorables":11499,"urbanizaciÃ³n":11500,"urbanÃŃstico":11501,"preguntÃ³":11502,"incendiarios":11503,"adquisitivo":11504,"tificados":11505,"contribuciÃ³n":11506,"separado":11507,"literaria":11508,"Actualmente":11509,"Accionistas":11510,"Elecciones":11511,"escuchar":11512,"diplomÃ¡tica":11513,"tradicionales":11514,"biltza":11515,"Recreativo":11516,"animÃ³":11517,"polÃ©micas":11518,"manteniendo":11519,"entrevistÃ³":11520,"consistente":11521,"Geof":11522,"azul":11523,"adquiriÃ³":11524,"aprovechÃ³":11525,"clÃ¡sica":11526,"clÃ¡sico":11527,"conservaciÃ³n":11528,"palacio":11529,"palabra":11530,"explotaciones":11531,"espectaculares":11532,"Director":11533,"Fischer":11534,"esposo":11535,"cometidos":11536,"capÃŃtu":11537,"precisaron":11538,"cÃºbi":11539,"variedades":11540,"suiza":11541,"sirven":11542,"discoteca":11543,"genialidad":11544,"Font":11545,"Freestone":11546,"introducciÃ³n":11547,"introducido":11548,"republicana":11549,"construye":11550,"CARBU":11551,"FINAN":11552,"consolidaciÃ³n":11553,"Segundo":11554,"chiÃŃta":11555,"BorbÃ³n":11556,"aportar":11557,"jurÃŃdicos":11558,"divisa":11559,"formulado":11560,"sabemos":11561,"instructor":11562,"Guernica":11563,"ocuparÃ¡":11564,"extremeÃ±a":11565,"extremeÃ±os":11566,"Silva":11567,"examen":11568,"mÃ¡ximas":11569,"Bustamante":11570,"Busquets":11571,"Verona":11572,"practica":11573,"radical":11574,"agrega":11575,"estratÃ©gico":11576,"adecuado":11577,"satisfechos":11578,"reivindicaciÃ³n":11579,"Rendue":11580,"Serrat":11581,"Serrano":11582,"UPC":11583,"economÃŃas":11584,"lÃ¡ntico":11585,"Ã³logos":11586,"Individu":11587,"CORONAS":11588,"profesora":11589,"cristiano":11590,"pÃ¡ginas":11591,"Lincoln":11592,"Rosario":11593,"fÃ³rmulas":11594,"pelear":11595,"agrupaciones":11596,"enmiendas":11597,"Hanson":11598,"Kremer":11599,"Maragall":11600,"Noruega":11601,"Susan":11602,"ajenas":11603,"abusos":11604,"lluvioso":11605,"perjudicados":11606,"lesionÃ³":11607,"austriaca":11608,"Comisiones":11609,"jugadora":11610,"sensibilidad":11611,"sensibles":11612,"Basauri":11613,"CSIF":11614,"Mauri":11615,"revela":11616,"pactado":11617,"cuantÃŃa":11618,"pertenece":11619,"frustraron":11620,"Iberoamericano":11621,"AYUN":11622,"POSICION":11623,"PRECIOS":11624,"kgs":11625,"anunciador":11626,"HidrocantÃ¡brico":11627,"clÃ¡usula":11628,"TecnologÃŃa":11629,"Ariztia":11630,"Gerardi":11631,"POLI":11632,"aconsejÃ³":11633,"escultor":11634,"cientÃŃficos":11635,"diversidad":11636,"moderna":11637,"proclamÃ³":11638,"empotrÃ³":11639,"minoristas":11640,"Carmelo":11641,"mayoritario":11642,"aproximadamente":11643,"malagueÃ±a":11644,"conmemo":11645,"conmemora":11646,"cuerpos":11647,"perfectamente":11648,"exenciÃ³n":11649,"exenciones":11650,"ferroviaria":11651,"absurdo":11652,"Cuarta":11653,"Hotelera":11654,"Barakaldo":11655,"Lampre":11656,"NÃºÃ±ez":11657,"SALUD":11658,"aparato":11659,"engaÃ±o":11660,"tocamientos":11661,"romper":11662,"exhibi":11663,"disminuir":11664,"Alfaro":11665,"COMUNICA":11666,"guipuzcoana":11667,"MENTARIA":11668,"Agenda":11669,"CÃ³dice":11670,"Inicia":11671,"Toni":11672,"VISION":11673,"almacen":11674,"anÃ³nimas":11675,"catÃ¡stro":11676,"activaciÃ³n":11677,"goleador":11678,"postsoviÃ©tica":11679,"audiovisual":11680,"discapacitados":11681,"estrechar":11682,"Consultivo":11683,"juzgados":11684,"espectÃ¡culo":11685,"Victoria":11686,"coronas":11687,"ValentÃŃn":11688,"manifestaron":11689,"Hughes":11690,"narcotrÃ¡fico":11691,"magnÃŃfica":11692,"ULTIMO":11693,"valencianistas":11694,"Llodio":11695,"ZANU":11696,"deterioro":11697,"ciclista":11698,"secundaria":11699,"dimensiones":11700,"Ã¡trico":11701,"cubanos":11702,"traumatismo":11703,"soportar":11704,"compatriota":11705,"explosiÃ³n":11706,"cultivadores":11707,"Mixto":11708,"monitores":11709,"surrealismo":11710,"Supercopa":11711,"Autoridad":11712,"afiliados":11713,"Taylor":11714,"apatÃŃa":11715,"cÃ¡lculos":11716,"gÃ©nero":11717,"sentenciÃ³":11718,"reparto":11719,"adscri":11720,"delincuencia":11721,"traficantes":11722,"destrozos":11723,"holandesa":11724,"amistad":11725,"discrepan":11726,"Infantil":11727,"SeÃ±alÃ³":11728,"Vicerrectorado":11729,"ceniza":11730,"Somport":11731,"automatizado":11732,"automovilÃŃstico":11733,"AmorÃ³s":11734,"desaparecidos":11735,"Villalba":11736,"Asturiana":11737,"Christian":11738,"Dalton":11739,"DemÃ³cra":11740,"Ferrari":11741,"FUTBOL":11742,"Prats":11743,"Stock":11744,"Sampras":11745,"Texas":11746,"relojes":11747,"devaluaciÃ³n":11748,"asfixi":11749,"intravenosa":11750,"hachÃŃs":11751,"modesto":11752,"Lauren":11753,"tarricense":11754,"CoordinaciÃ³n":11755,"Partici":11756,"Navalmoral":11757,"madurez":11758,"Perpignan":11759,"TECNO":11760,"CONGRESO":11761,"IBARRA":11762,"acontecimientos":11763,"involucrados":11764,"RETIRADA":11765,"Badalona":11766,"CissÃ©":11767,"Curro":11768,"Djakovica":11769,"DenominaciÃ³n":11770,"FTSE":11771,"Funai":11772,"Frutos":11773,"FIDH":11774,"Hingis":11775,"Jonathan":11776,"LÃ©rida":11777,"Mendoza":11778,"Udalbiltza":11779,"eventual":11780,"paliar":11781,"world":11782,"albaÃ±il":11783,"revalori":11784,"coyuntura":11785,"matrÃŃcula":11786,"madereros":11787,"proliferaciÃ³n":11788,"compositor":11789,"torneos":11790,"Laudrup":11791,"Espinosa":11792,"auxili":11793,"Intxaur":11794,"ViÃ±oly":11795,"equilibrio":11796,"Navratilova":11797,"Argelia":11798,"Lijovtseva":11799,"ANATEL":11800,"ANTONIO":11801,"Exchange":11802,"antidumping":11803,"Mobilvetta":11804,"CONSTRU":11805,"MAÃĳANA":11806,"Salvatierra":11807,"Gibraltar":11808,"Chaudhry":11809,"CARBURANTES":11810,"Rendueles":11811,"./":11812,"110":11813,"117":11814,"225":11815,"290":11816,"316":11817,"398":11818,"422":11819,"440":11820,"477":11821,"540":11822,"614":11823,"900":11824,"Acu":11825,"AÃ©":11826,"Arar":11827,"Atencia":11828,"AtenciÃ³n":11829,"Asegu":11830,"AMEN":11831,"Afortun":11832,"BÃ³":11833,"Bis":11834,"Bana":11835,"Bena":11836,"Bella":11837,"BUL":11838,"CL":11839,"Cen":11840,"CER":11841,"CÃŃ":11842,"CEL":11843,"CLA":11844,"CCA":11845,"CTO":11846,"CLU":11847,"DÃ¡":11848,"Dras":11849,"Dimas":11850,"Elo":11851,"Ejer":11852,"Evan":11853,"Ebro":11854,"EJER":11855,"Fel":11856,"Fal":11857,"FON":11858,"FUN":11859,"Faus":11860,"FÃ©li":11861,"GAL":11862,"Gabri":11863,"GADOS":11864,"Giner":11865,"Huel":11866,"HOL":11867,"HUN":11868,"HOT":11869,"Hyn":11870,"IL":11871,"IMI":11872,"Iker":11873,"IÃ±i":11874,"JR":11875,"KAR":11876,"LN":11877,"Len":11878,"Llu":11879,"Llan":11880,"Llor":11881,"MG":11882,"Mes":11883,"Mano":11884,"MÃ¡r":11885,"Nari":11886,"Neu":11887,"NOR":11888,"Nie":11889,"Ola":11890,"Ota":11891,"Otras":11892,"OPS":11893,"Otegi":11894,"PO":11895,"Pel":11896,"Pob":11897,"Pag":11898,"PEN":11899,"PEL":11900,"PTI":11901,"Punto":11902,"Pesos":11903,"Pinto":11904,"Resi":11905,"RÃºa":11906,"SF":11907,"Sho":11908,"Stan":11909,"Sele":11910,"Smas":11911,"SIN":11912,"SIDA":11913,"Trias":11914,"Tei":11915,"UELA":11916,"VM":11917,"Var":11918,"Varios":11919,"VAL":11920,"Vara":11921,"Vaz":11922,"Ventas":11923,"We":11924,"Wim":11925,"Web":11926,"Wang":11927,"Yas":11928,"Zu":11929,"Zar":11930,"Zab":11931,"Zala":11932,"acia":11933,"apu":11934,"aga":11935,"afa":11936,"apreci":11937,"abajo":11938,"aprue":11939,"aterri":11940,"bÃŃ":11941,"bÃ©n":11942,"bÃºl":11943,"cz":11944,"cco":11945,"cres":11946,"cran":11947,"ccero":11948,"dr":11949,"dy":11950,"dre":11951,"drez":11952,"dÃŃstica":11953,"duelo":11954,"ed":11955,"ev":11956,"eci":11957,"eal":11958,"evo":11959,"eval":11960,"eamente":11961,"eusk":11962,"evac":11963,"fna":11964,"ffe":11965,"fano":11966,"fluvi":11967,"facultad":11968,"gni":11969,"grante":11970,"gonesa":11971,"gmt":11972,"hno":11973,"hado":11974,"hÃŃa":11975,"hui":11976,"hem":11977,"hÃºn":11978,"ix":11979,"illa":11980,"ibol":11981,"igua":11982,"jados":11983,"jadores":11984,"janos":11985,"jaron":11986,"kis":11987,"lones":11988,"leros":11989,"line":11990,"lvÃ©":11991,"mmy":11992,"nal":11993,"nio":11994,"nados":11995,"olas":11996,"ojo":11997,"ove":11998,"oral":11999,"pest":12000,"plÃŃ":12001,"padas":12002,"ptica":12003,"pÃºl":12004,"pino":12005,"pÃ¡rra":12006,"rt":12007,"rindi":12008,"rerÃ¡":12009,"senta":12010,"ston":12011,"stem":12012,"sori":12013,"ttan":12014,"uta":12015,"use":12016,"usa":12017,"uraciÃ³n":12018,"vor":12019,"vad":12020,"wo":12021,"wan":12022,"well":12023,"ware":12024,"xas":12025,"xiÃ³n":12026,"xeira":12027,"yente":12028,"yÃ¡n":12029,"zheim":12030,"zhemb":12031,"ĠFat":12032,"deu":12033,"dela":12034,"dedu":12035,"depre":12036,"debili":12037,"decep":12038,"departamentos":12039,"envas":12040,"encomen":12041,"envÃŃo":12042,"esper":12043,"espero":12044,"escolari":12045,"lama":12046,"osas":12047,"citÃ³":12048,"rama":12049,"raba":12050,"ralidad":12051,"onÃŃa":12052,"onistas":12053,"tani":12054,"erio":12055,"erbai":12056,"ornam":12057,"els":12058,"elu":12059,"elor":12060,"elli":12061,"almuer":12062,"arrea":12063,"quetas":12064,"queÃ±os":12065,"quejÃ³":12066,"quehue":12067,"ane":12068,"ancianos":12069,"unden":12070,"unista":12071,"asenta":12072,"astres":12073,"astron":12074,"ind":12075,"inal":12076,"incon":12077,"inmer":12078,"invas":12079,"inciden":12080,"insuficiente":12081,"inmobiliario":12082,"inquie":12083,"reos":12084,"repri":12085,"recur":12086,"repÃºblica":12087,"repeti":12088,"requiere":12089,"revoluciÃ³n":12090,"reportero":12091,"reafirmar":12092,"retxe":12093,"adra":12094,"adul":12095,"adjunto":12096,"tira":12097,"tible":12098,"tiÃ©r":12099,"tificaciÃ³n":12100,"tizaciones":12101,"tillero":12102,"enteros":12103,"ISMO":12104,"conmi":12105,"concurri":12106,"conjuntos":12107,"contencioso":12108,"sey":12109,"seco":12110,"semestra":12111,"printer":12112,"preliminar":12113,"dias":12114,"dimientos":12115,"diarias":12116,"ditorio":12117,"dirola":12118,"Ã¡vi":12119,"Ã¡ticos":12120,"Ã¡mica":12121,"Ã¡menes":12122,"ÃŃos":12123,"ÃŃda":12124,"ÃŃfico":12125,"cocaÃŃ":12126,"dotar":12127,"dotaciÃ³n":12128,"tega":12129,"telar":12130,"temen":12131,"isterio":12132,"islÃ¡":12133,"pata":12134,"caba":12135,"cabel":12136,"tope":12137,"tomas":12138,"riera":12139,"suro":12140,"sugi":12141,"sumÃ³":12142,"sucur":12143,"suministro":12144,"sumaron":12145,"suger":12146,"sumario":12147,"sudeste":12148,"mata":12149,"mama":12150,"malas":12151,"matar":12152,"maqui":12153,"madera":12154,"liti":12155,"lida":12156,"limp":12157,"litoral":12158,"cuÃ¡":12159,"cuento":12160,"cuentos":12161,"curador":12162,"mira":12163,"leos":12164,"damni":12165,"Ã±ete":12166,"roz":12167,"rotura":12168,"tude":12169,"turaciÃ³n":12170,"tuviera":12171,"hacha":12172,"hattan":12173,"trada":12174,"traciones":12175,"tratada":12176,"tratarÃ¡":12177,"tratarÃ¡n":12178,"sillo":12179,"simula":12180,"sitÃºan":12181,"mol":12182,"modos":12183,"motor":12184,"vides":12185,"viva":12186,"vital":12187,"viamente":12188,"vitalicio":12189,"virus":12190,"oneses":12191,"onestaciones":12192,"logas":12193,"nol":12194,"now":12195,"noven":12196,"novilla":12197,"nombres":12198,"propuesto":12199,"propondrÃ¡":12200,"promesas":12201,"propug":12202,"pollo":12203,"peraciÃ³n":12204,"pedia":12205,"pecta":12206,"resu":12207,"restante":12208,"restrin":12209,"deso":12210,"desen":12211,"desper":12212,"desesti":12213,"destru":12214,"destrucciÃ³n":12215,"desconsideraciÃ³n":12216,"desventaja":12217,"descomposiciÃ³n":12218,"desÃ³rdenes":12219,"desarticu":12220,"presta":12221,"hol":12222,"hogar":12223,"teria":12224,"terÃŃas":12225,"sombra":12226,"estatales":12227,"doscientos":12228,"fijos":12229,"mex":12230,"metal":12231,"comparte":12232,"compare":12233,"compens":12234,"compensa":12235,"entemente":12236,"uidos":12237,"ElÃ©ctri":12238,"echenes":12239,"vocaciÃ³n":12240,"vocales":12241,"pert":12242,"perdÃŃa":12243,"persigue":12244,"entab":12245,"bab":12246,"baya":12247,"baÃ±o":12248,"batalla":12249,"bacco":12250,"empi":12251,"tosa":12252,"tenciones":12253,"tencial":12254,"tender":12255,"accesos":12256,"expor":12257,"exha":12258,"exteriores":12259,"expuso":12260,"excesos":12261,"exÃ¡menes":12262,"expecta":12263,"torero":12264,"manta":12265,"mandos":12266,"manente":12267,"manio":12268,"amÃ³n":12269,"ampa":12270,"amonestaciones":12271,"imos":12272,"imposiciÃ³n":12273,"impresiÃ³n":12274,"gular":12275,"guerr":12276,"dum":12277,"duro":12278,"Lati":12279,"tasaray":12280,"unilateral":12281,"preven":12282,"pretemporada":12283,"prevenir":12284,"predominio":12285,"nilla":12286,"nizaciÃ³n":12287,"trzhemb":12288,"vatorio":12289,"aliado":12290,"alianzas":12291,"formas":12292,"formada":12293,"fornia":12294,"formarÃ¡":12295,"Esp":12296,"pita":12297,"minimi":12298,"tarra":12299,"trofe":12300,"carril":12301,"luencia":12302,"sables":12303,"pose":12304,"verÃ¡":12305,"verte":12306,"versa":12307,"veredicto":12308,"verificar":12309,"muÃ±e":12310,"lanzado":12311,"rublos":12312,"canciÃ³n":12313,"cantar":12314,"cancha":12315,"canciller":12316,"nacion":12317,"nacidos":12318,"bomb":12319,"boom":12320,"gidos":12321,"tantas":12322,"costos":12323,"costÃ³":12324,"cosur":12325,"costarricense":12326,"chinas":12327,"chechenes":12328,"gani":12329,"ganas":12330,"ganda":12331,"ganadores":12332,"ganade":12333,"llena":12334,"presidiÃ³":12335,"presionar":12336,"marcas":12337,"marcan":12338,"marcado":12339,"marines":12340,"partiÃ³":12341,"dispositivo":12342,"veda":12343,"velar":12344,"sustenta":12345,"cercano":12346,"cerrarÃ¡":12347,"Copas":12348,"Comentario":12349,"banquillo":12350,"pasan":12351,"pasados":12352,"pondrÃ¡n":12353,"sondeo":12354,"grada":12355,"grabar":12356,"Ã©ndo":12357,"Ã©ndum":12358,"elevÃ³":12359,"creen":12360,"jefes":12361,"Cono":12362,"Consi":12363,"Conser":12364,"Contre":12365,"Contem":12366,"interno":12367,"intercambios":12368,"medias":12369,"medicam":12370,"medicina":12371,"hando":12372,"jul":12373,"Inca":12374,"Inclu":12375,"Independiente":12376,"Inlac":12377,"InnovaciÃ³n":12378,"IntÃ©rpre":12379,"nedo":12380,"negaron":12381,"tinio":12382,"cesis":12383,"eronÃ¡u":12384,"Reu":12385,"Recu":12386,"Rebol":12387,"contrarias":12388,"contratiempo":12389,"fertili":12390,"ferias":12391,"calzada":12392,"Seco":12393,"SepÃºl":12394,"titudes":12395,"titulaciÃ³n":12396,"llaves":12397,"llamadas":12398,"llevada":12399,"sinton":12400,"informÃ¡tica":12401,"Marta":12402,"Marco":12403,"faz":12404,"Sani":12405,"roso":12406,"AlcÃ¡n":12407,"instan":12408,"instancia":12409,"instancias":12410,"inscripciÃ³n":12411,"instalÃ³":12412,"Anglo":12413,"dÃ³j":12414,"dÃ³Ã±ez":12415,"ezcan":12416,"donosti":12417,"fueran":12418,"merecido":12419,"abductores":12420,"antece":12421,"firmaron":12422,"pene":12423,"conociÃ³":12424,"centrarse":12425,"Vicen":12426,"Vitalicio":12427,"hito":12428,"comunitarias":12429,"EST":12430,"ESTE":12431,"usan":12432,"estimu":12433,"cendido":12434,"produci":12435,"produciendo":12436,"produzcan":12437,"placa":12438,"Papa":12439,"PakistÃ¡n":12440,"barrios":12441,"105":12442,"109":12443,"valÃŃas":12444,"RAS":12445,"RAZ":12446,"2019":12447,"2010":12448,"2015":12449,"directivo":12450,"illos":12451,"ulen":12452,"ultra":12453,"ultz":12454,"corren":12455,"ENT":12456,"Nairo":12457,"indicar":12458,"indicadores":12459,"culÃ³":12460,"culmin":12461,"cultivo":12462,"culturas":12463,"hablan":12464,"habrÃŃan":12465,"claves":12466,"primaria":12467,"iniciales":12468,"ensay":12469,"Caf":12470,"Cacao":12471,"305":12472,"aludable":12473,"Barro":12474,"Barrio":12475,"tregua":12476,"criterio":12477,"criterios":12478,"Mik":12479,"Miranda":12480,"Cardios":12481,"CarreÃ±o":12482,"Debido":12483,"regados":12484,"regresivo":12485,"granjas":12486,"radoras":12487,"Valor":12488,"Valero":12489,"VallvÃ©":12490,"Eurocopa":12491,"Eurovestir":12492,"Arn":12493,"Arri":12494,"Arce":12495,"Arbitro":12496,"Arnedo":12497,"sÃ³lido":12498,"situar":12499,"situados":12500,"149":12501,"reciban":12502,"recicla":12503,"explicaciones":12504,"reunir":12505,"riaga":12506,"Soccero":12507,"campado":12508,"nucle":12509,"trulla":12510,"proyecciÃ³n":12511,"CIER":12512,"erife":12513,"Lew":12514,"Leica":12515,"rendido":12516,"print":12517,"128":12518,"Astillero":12519,"138":12520,"toriales":12521,"toriana":12522,"edic":12523,"adilla":12524,"representados":12525,"representativas":12526,"templo":12527,"Manquehue":12528,"Manhattan":12529,"horario":12530,"tish":12531,"atrop":12532,"bosque":12533,"ANESES":12534,"falla":12535,"arrojÃ³":12536,"arrojar":12537,"bolsillo":12538,"ASO":12539,"Sava":12540,"Saeco":12541,"sostiene":12542,"senadores":12543,"sentir":12544,"zadoras":12545,"GutiÃ©r":12546,"hura":12547,"hume":12548,"celebraron":12549,"respetar":12550,"Casares":12551,"Casimi":12552,"Lukas":12553,"2007":12554,"2008":12555,"Consejero":12556,"sectorial":12557,"eligiÃ³":12558,"transmisiÃ³n":12559,"transpirena":12560,"dorf":12561,"terano":12562,"consideraciones":12563,"considerarse":12564,"174":12565,"ALIA":12566,"ciarse":12567,"CubrÃŃa":12568,"destacan":12569,"COMI":12570,"dinense":12571,"ocupan":12572,"Internacionales":12573,"Intervalos":12574,"madamente":12575,"apoyÃ³":12576,"lense":12577,"Corri":12578,"Corea":12579,"CortÃ©s":12580,"Cornell":12581,"volÃºmenes":12582,"sangri":12583,"concep":12584,"concediÃ³":12585,"concepciÃ³n":12586,"isteo":12587,"peridad":12588,"bajado":12589,"bajadores":12590,"automociÃ³n":12591,"Simi":12592,"centroamericano":12593,"Monto":12594,"Moneo":12595,"Montene":12596,"Monasterio":12597,"Monetaria":12598,"Tour":12599,"Tobacco":12600,"logÃŃstica":12601,"logÃŃstico":12602,"286":12603,"Telecinco":12604,"comitiva":12605,"Ayer":12606,"Ayuntamientos":12607,"programado":12608,"Estam":12609,"Estabilidad":12610,"REE":12611,"REAL":12612,"Sergi":12613,"drola":12614,"permitieron":12615,"eucali":12616,"comercios":12617,"fisio":12618,"sesenta":12619,"establecida":12620,"establecidos":12621,"Pete":12622,"PequeÃ±os":12623,"salsa":12624,"Sub":12625,"TIVA":12626,"TIENE":12627,"comenzado":12628,"medioambiental":12629,"Campos":12630,"balonmano":12631,"turista":12632,"turismos":12633,"turÃŃsticos":12634,"inverso":12635,"esperaban":12636,"709":12637,"Antonia":12638,"Boerse":12639,"disputar":12640,"disputados":12641,"Fernan":12642,"Maia":12643,"Maffe":12644,"cidentales":12645,"investigar":12646,"Minus":12647,"terminales":12648,"terminarÃ¡":12649,"ADPI":12650,"ADORES":12651,"retirÃ³":12652,"Orle":12653,"Ortega":12654,"OrdÃ³Ã±ez":12655,"belleza":12656,"televisi":12657,"publicarÃ¡":12658,"USO":12659,"episco":12660,"Ambesa":12661,"propiciar":12662,"leyen":12663,"Chivas":12664,"financiarÃ¡":12665,"bienestar":12666,"precisos":12667,"precisan":12668,"UNMI":12669,"convoque":12670,"controver":12671,"controlada":12672,"Aula":12673,"Auton":12674,"Auditorio":12675,"Permanente":12676,"subasta":12677,"subsecretario":12678,"asistirÃ¡":12679,"colecciÃ³n":12680,"colegiados":12681,"alegaciones":12682,"alegrÃŃa":12683,"Ãºnicas":12684,"continuÃ³":12685,"registros":12686,"Federi":12687,"Mofaz":12688,"AlemÃ¡n":12689,"adecuar":12690,"InstrucciÃ³n":12691,"Banca":12692,"acaban":12693,"acabado":12694,"Empren":12695,"ordinaria":12696,"ellÃ³n":12697,"evidente":12698,"califica":12699,"Musi":12700,"salieron":12701,"contac":12702,"virtual":12703,"Puerta":12704,"malo":12705,"mallor":12706,"encontrados":12707,"selectivo":12708,"llegarÃ¡n":12709,"mejorado":12710,"expresaron":12711,"nard":12712,"completado":12713,"americanas":12714,"348":12715,"Buena":12716,"Bulevar":12717,"mostraron":12718,"enfrentan":12719,"enfrentar":12720,"enfrentados":12721,"pretendÃŃa":12722,"planteados":12723,"plantearse":12724,"procede":12725,"proceder":12726,"procederÃ¡":12727,"procedimientos":12728,"AzÃºcar":12729,"Azerbai":12730,"participen":12731,"Grant":12732,"embarque":12733,"embarcaciÃ³n":12734,"Dokoupil":12735,"RubÃ©n":12736,"reduce":12737,"reducciones":12738,"entrenado":12739,"pintor":12740,"plenos":12741,"pobres":12742,"desatÃ³":12743,"etz":12744,"here":12745,"hermana":12746,"hermoso":12747,"ordenado":12748,"ordenador":12749,"pelo":12750,"mandatos":12751,"mandatario":12752,"vÃŃdeo":12753,"acome":12754,"premiado":12755,"conocerÃ¡":12756,"dirigidos":12757,"enciada":12758,"confirmada":12759,"confirmaciÃ³n":12760,"Haas":12761,"palos":12762,"utilizan":12763,"cotizaron":12764,"localmente":12765,"jalÃŃa":12766,"mbÃ³":12767,"recogiÃ³":12768,"recogidas":12769,"habitaciones":12770,"infan":12771,"celebran":12772,"DIO":12773,"DIDA":12774,"preparados":12775,"corresponsal":12776,"AragonÃ©s":12777,"MAX":12778,"trasladarse":12779,"376":12780,"ideo":12781,"tabla":12782,"inaugurar":12783,"Reynard":12784,"definiÃ³":12785,"definiciÃ³n":12786,"definirÃ¡":12787,"Fira":12788,"Fidel":12789,"Filo":12790,"kova":12791,"Organo":12792,"Panaria":12793,"Pantani":12794,"animaciÃ³n":12795,"amenazÃ³":12796,"igualdad":12797,"alemanes":12798,"magisterio":12799,"956":12800,"NACION":12801,"alumno":12802,"ocupadas":12803,"CentroamÃ©rica":12804,"pÃ©rtiga":12805,"encarga":12806,"conduce":12807,"conducido":12808,"Palau":12809,"mÃ©todos":12810,"mÃ©dica":12811,"piscina":12812,"protegido":12813,"ckey":12814,"londinense":12815,"madrid":12816,"determinaciÃ³n":12817,"determinadas":12818,"aceptado":12819,"intentan":12820,"voluntaria":12821,"quÃŃmicos":12822,"CHI":12823,"siguiÃ³":12824,"FermÃŃn":12825,"Lonja":12826,"occidentales":12827,"Berman":12828,"entender":12829,"documenta":12830,"extraÃ±a":12831,"Andaluz":12832,"financieras":12833,"beneficiar":12834,"366":12835,"Jefes":12836,"Jeff":12837,"Mercosur":12838,"Trabajadores":12839,"analizÃ³":12840,"concreta":12841,"transportado":12842,"transportistas":12843,"pronÃ³sticos":12844,"obstÃ¡culo":12845,"Jafna":12846,"adopciÃ³n":12847,"competirÃ¡n":12848,"acompaÃ±an":12849,"henko":12850,"universitarias":12851,"Baloncesto":12852,"cruce":12853,"accionari":12854,"auspi":12855,"charla":12856,"Primaria":12857,"SION":12858,"independientes":12859,"textos":12860,"textil":12861,"incorporarse":12862,"significar":12863,"volverÃ¡":12864,"superÃ¡vi":12865,"hotelera":12866,"criticado":12867,"criticaron":12868,"Ã¼n":12869,"notable":12870,"Villalobos":12871,"fallecimientos":12872,"CelestÃŃ":12873,"Quinta":12874,"contemplan":12875,"colisiÃ³n":12876,"reclamar":12877,"sustituyÃ³":12878,"sustituido":12879,"SUP":12880,"extremadamente":12881,"extranjeras":12882,"Salazar":12883,"sueÃ±o":12884,"dirigÃŃa":12885,"comprometido":12886,"reformar":12887,"prosi":12888,"prosperidad":12889,"desarrollada":12890,"FCAC":12891,"Rambla":12892,"ventor":12893,"descartar":12894,"1973":12895,"finalizada":12896,"especialidad":12897,"Prensa":12898,"Urda":12899,"invitados":12900,"novedades":12901,"negociaron":12902,"FIC":12903,"ubicada":12904,"refieren":12905,"liberar":12906,"liberados":12907,"sanitarias":12908,"democrÃ¡ticos":12909,"Alameda":12910,"Claro":12911,"Delhi":12912,"Finlandia":12913,"MorÃ³n":12914,"ULT":12915,"blanqui":12916,"factura":12917,"factorÃŃa":12918,"referidos":12919,"referirse":12920,"referÃ©ndum":12921,"superan":12922,"Calder":12923,"Caldirola":12924,"Pastor":12925,"cÃ¡maras":12926,"cÃ¡pita":12927,"aspiraciones":12928,"histÃ³ricas":12929,"evacuada":12930,"Tercer":12931,"Tercera":12932,"griego":12933,"AndrÃ©":12934,"hubieran":12935,"ocupaba":12936,"educativas":12937,"Hierro":12938,"escena":12939,"escenarios":12940,"desplazaron":12941,"navarras":12942,"navarros":12943,"significativos":12944,"OlÃŃmpica":12945,"restable":12946,"expediciÃ³n":12947,"expedientes":12948,"FortÃºn":12949,"aplicarÃ¡":12950,"txa":12951,"derivadas":12952,"urbanÃŃstica":12953,"aprobarÃ¡":12954,"094":12955,"BBV":12956,"espada":12957,"incentiv":12958,"literario":12959,"desconocido":12960,"agrupaciÃ³n":12961,"EXPOSICION":12962,"Elec":12963,"Galisteo":12964,"PROBLE":12965,"PROGRA":12966,"boni":12967,"escuch":12968,"infracciÃ³n":12969,"concluir":12970,"concluido":12971,"secuestros":12972,"tradiciÃ³n":12973,"potenciar":12974,"bloqueos":12975,"Kouch":12976,"LIBANESES":12977,"Rector":12978,"otorgado":12979,"animales":12980,"mantenida":12981,"gobernadores":12982,"consistirÃ¡":12983,"vinculado":12984,"vinculada":12985,"gallega":12986,"estreno":12987,"adquirido":12988,"filiales":12989,"aprovechar":12990,"RUSIA":12991,"absolutamente":12992,"aseguradora":12993,"transparente":12994,"sorprendido":12995,"sorprendidos":12996,"Nevada":12997,"fantas":12998,"enviar":12999,"artefactos":13000,"cadenas":13001,"liberalizadoras":13002,"femenina":13003,"femeninos":13004,"Blanca":13005,"Dax":13006,"Daily":13007,"PabellÃ³n":13008,"cÃºpu":13009,"dÃŃmir":13010,"variante":13011,"sirviÃ³":13012,"hard":13013,"liderado":13014,"sentimientos":13015,"encabezÃ³":13016,"encabezado":13017,"pronuncia":13018,"pronunciÃ³":13019,"AÃĳO":13020,"AÃĳOS":13021,"CARCEL":13022,"Euros":13023,"Ibarrola":13024,"Ibarretxe":13025,"Padres":13026,"divide":13027,"dibujo":13028,"ementerio":13029,"acadÃ©micos":13030,"bancaria":13031,"restaurar":13032,"Galatasaray":13033,"Olga":13034,"Tenemos":13035,"Tenerife":13036,"TELEDIARIO":13037,"bÃ¡sica":13038,"decena":13039,"fabricar":13040,"fabricaciÃ³n":13041,"renunciÃ³":13042,"renunciado":13043,"ConsellerÃŃa":13044,"Conselleria":13045,"PacÃŃfico":13046,"Silvio":13047,"vuln":13048,"arquitectura":13049,"recomendaciones":13050,"sucedido":13051,"suprimi":13052,"cuatrimestre":13053,"trayecto":13054,"aclara":13055,"pensaba":13056,"corredores":13057,"Transporte":13058,"Bush":13059,"SOBRE":13060,"asturiana":13061,"contusiÃ³n":13062,"filtraciones":13063,"formarÃ¡n":13064,"francesas":13065,"adecuada":13066,"adecuadas":13067,"patrioterÃŃa":13068,"Caballeros":13069,"amistosos":13070,"UPNA":13071,"economista":13072,"ocultÃ³":13073,"debemos":13074,"asignaciones":13075,"progresista":13076,"resuelto":13077,"resuelve":13078,"nietos":13079,"niega":13080,"rumbo":13081,"CORP":13082,"EZLN":13083,"EZUELA":13084,"Henrique":13085,"Henry":13086,"Quito":13087,"hinchas":13088,"baile":13089,"internacion":13090,"absuel":13091,"tranquila":13092,"hospitala":13093,"subvencion":13094,"experimentos":13095,"protagonizaron":13096,"Africana":13097,"Gayarre":13098,"Gaysso":13099,"QUES":13100,"abulense":13101,"flm":13102,"flores":13103,"albanesa":13104,"repartidas":13105,"refugios":13106,"refugiados":13107,"reanudar":13108,"reanudaciÃ³n":13109,"maneja":13110,"preferenciales":13111,"comerciantes":13112,"Basso":13113,"LAND":13114,"Machito":13115,"OTR":13116,"octavo":13117,"latinoamericano":13118,"infecciÃ³n":13119,"rodillo":13120,"comparten":13121,"Esther":13122,"musicales":13123,"crediticia":13124,"vencedores":13125,"Francois":13126,"Programas":13127,"Profesionales":13128,"temporalmente":13129,"desempeÃ±":13130,"desempeÃ±ar":13131,"frustrado":13132,"Iberoamericana":13133,"apuntalamiento":13134,"panameÃ±o":13135,"conselleria":13136,"BOLSA":13137,"DarÃŃo":13138,"VENEZUELA":13139,"donaciones":13140,"enormes":13141,"prÃ©stamo":13142,"prohibi":13143,"especÃŃfica":13144,"especÃŃficos":13145,"ministerios":13146,"Natural":13147,"clausura":13148,"anunciadas":13149,"British":13150,"DISIP":13151,"EconÃ³mica":13152,"Frontera":13153,"Fronteras":13154,"Schultz":13155,"aconseja":13156,"brutos":13157,"etÃŃope":13158,"otoÃ±o":13159,"esculturas":13160,"alquiler":13161,"dieci":13162,"dignidad":13163,"cuotas":13164,"legiti":13165,"probable":13166,"emisor":13167,"minorÃŃa":13168,"jubilaciÃ³n":13169,"Cartagena":13170,"mayoritaria":13171,"Salvatella":13172,"malagueÃ±o":13173,"adquiridos":13174,"examinarÃ¡n":13175,"Hasbaya":13176,"Obser":13177,"aportaciÃ³n":13178,"razonablemente":13179,"ISTAS":13180,"congresista":13181,"caballo":13182,"prometido":13183,"excesivo":13184,"amplÃŃ":13185,"preocupados":13186,"quizÃ¡s":13187,"mensual":13188,"transmitir":13189,"Montserrat":13190,"Paloma":13191,"solucionen":13192,"ligeramente":13193,"PARTIDO":13194,"religioso":13195,"Ganaderos":13196,"Horst":13197,"NUEVA":13198,"psiqui":13199,"patologÃŃa":13200,"patologÃŃas":13201,"respira":13202,"disfrutar":13203,"AlfarerÃŃa":13204,"falsificadas":13205,"geogrÃ¡fica":13206,"guipuzcoano":13207,"ocasionado":13208,"colapso":13209,"proseguir":13210,"griega":13211,"griegos":13212,"religiosos":13213,"Dominique":13214,"repercusiÃ³n":13215,"California":13216,"Narbona":13217,"clÃŃnica":13218,"orquesta":13219,"armonizaciÃ³n":13220,"insultos":13221,"conforme":13222,"colonos":13223,"robaron":13224,"cariÃ±o":13225,"intermediarios":13226,"equilibrar":13227,"equilibrado":13228,"ENERG":13229,"viajarÃ¡":13230,"Personal":13231,"Humanidades":13232,"discriminatorio":13233,"profundizar":13234,"AgrupaciÃ³n":13235,"DestacÃ³":13236,"Impuesto":13237,"Sherry":13238,"esclarecer":13239,"entraÃ±a":13240,"capaces":13241,"cuidados":13242,"Ã©tnico":13243,"vizcaÃŃno":13244,"sobres":13245,"acostu":13246,"ceutÃŃes":13247,"Esquadra":13248,"autÃ³c":13249,"cantau":13250,"Colegios":13251,"Colonia":13252,"Enedina":13253,"AntoÃ±ete":13254,"peniques":13255,"CajalÃ³n":13256,"laboratorios":13257,"Moncloa":13258,"Campeonato":13259,"ACERALIA":13260,"telefÃ³nicas":13261,"ExtremeÃ±o":13262,"Budapest":13263,"Zapatero":13264,"intimidatorios":13265,"progresivo":13266,"GASOLINAS":13267,"helicÃ³ptero":13268,"Cesar":13269,"ClÃŃnico":13270,"ETB":13271,"IVAM":13272,"Kevin":13273,"Ochoa":13274,"TarrÃ©s":13275,"relevantes":13276,"sÃŃntomas":13277,"orgullo":13278,"refrendado":13279,"advierte":13280,"configuraciÃ³n":13281,"pautas":13282,"paisaje":13283,"rompiÃ³":13284,"paraguayo":13285,"mecÃ¡nica":13286,"autÃ©ntico":13287,"furgon":13288,"Portland":13289,"Milagros":13290,"Valedor":13291,"trabajadoras":13292,"ExtranjerÃŃa":13293,"agradecer":13294,"pistola":13295,"apariciÃ³n":13296,"Benidorm":13297,"PARLAMENTARIA":13298,"venezolan":13299,"felicitar":13300,"DemocrÃ¡tico":13301,"=============================================================":13302,"Abierto":13303,"Cambio":13304,"Emanuel":13305,"Ejecutiva":13306,"Etxebarri":13307,"HungrÃŃa":13308,"Igualmente":13309,"Jaume":13310,"VladÃŃmir":13311,"ZÃºrich":13312,"cÃ©ntri":13313,"facultades":13314,"sacerdote":13315,"encontrÃ³":13316,"escasez":13317,"escrutinio":13318,"represalias":13319,"advirtieron":13320,"lealtad":13321,"modalidad":13322,"desplazamiento":13323,"series":13324,"ConcejalÃŃa":13325,"Conchita":13326,"mÃ³dulos":13327,"alaveses":13328,"pasaporte":13329,"arraigada":13330,"sospechoso":13331,"parroquial":13332,"Cinco":13333,"ClasificaciÃ³n":13334,"Croacia":13335,"Echarte":13336,"ECONOMI":13337,"Freixas":13338,"Group":13339,"Irureta":13340,"Iberdrola":13341,"Kenia":13342,"MÃºsica":13343,"Morientes":13344,"OceanÃŃa":13345,"RestauraciÃ³n":13346,"SWE":13347,"Sindical":13348,"Sindicatos":13349,"apelÃ³":13350,"taquillas":13351,"contenidas":13352,"porcentuales":13353,"custo":13354,"lejanÃŃas":13355,"homicidio":13356,"reclutas":13357,"boicot":13358,"disponibles":13359,"veranie":13360,"sustancial":13361,"intervinieron":13362,"Intensos":13363,"Infraestructuras":13364,"CientÃŃfica":13365,"sostenible":13366,"Proyecto":13367,"MejÃŃa":13368,"salmantino":13369,"Desayuno":13370,"MÃ¡ximo":13371,"Ã¡lbum":13372,"Ã³stoles":13373,"Responsables":13374,"capÃŃtulo":13375,"cÃºbicos":13376,"catÃ¡strofe":13377,"discrepancias":13378,"DemÃ³crata":13379,"asfixiar":13380,"Intxaurraga":13381,"CONSTRUCCION":13382,"Afortunadamente":13383,"Banamex":13384,"CLUB":13385,"Draskovic":13386,"Eloy":13387,"Ejercito":13388,"EJERCI":13389,"FÃ©lix":13390,"Huelva":13391,"Hynde":13392,"IÃ±igo":13393,"NariÃ±o":13394,"Show":13395,"Teixeira":13396,"Yastrzhemb":13397,"Zabalza":13398,"igualado":13399,"rindieron":13400,"depreciaciÃ³n":13401,"almuerzo":13402,"astronautas":13403,"incidencia":13404,"conmigo":13405,"cocaÃŃna":13406,"suroeste":13407,"limpio":13408,"novillada":13409,"expectativas":13410,"muÃ±eca":13411,"ContemporÃ¡n":13412,"medicamentos":13413,"IntÃ©rpretes":13414,"Rebollo":13415,"fertilizantes":13416,"SepÃºlveda":13417,"AlcÃ¡ntara":13418,"donostiarra":13419,"Nairobi":13420,"Cardiosaludable":13421,"Socceroos":13422,"GutiÃ©rrez":13423,"Casimiro":13424,"Lukashenko":13425,"Montenegro":13426,"Maffei":13427,"episcopales":13428,"UNMIK":13429,"Federico":13430,"AzerbaiyÃ¡n":13431,"superÃ¡vit":13432,"PROBLEMAS":13433,"PROGRAMACION":13434,"Kouchner":13435,"Gayssot":13436,"Yastrzhembski":13437,"050":13438,"123":13439,"210":13440,"220":13441,"215":13442,"224":13443,"320":13444,"360":13445,"425":13446,"480":13447,"460":13448,"436":13449,"550":13450,"527":13451,"623":13452,"630":13453,"635":13454,"640":13455,"645":13456,"710":13457,"815":13458,"835":13459,"970":13460,"9111":13461,"AF":13462,"Af":13463,"Apo":13464,"Ame":13465,"Atan":13466,"Aven":13467,"Afe":13468,"AzÃ³":13469,"Asoci":13470,"Agua":13471,"Apare":13472,"AVI":13473,"AMA":13474,"AUT":13475,"Aquel":13476,"Amur":13477,"Allen":13478,"Azarlo":13479,"BR":13480,"Bent":13481,"BasÃŃ":13482,"Biz":13483,"Bell":13484,"BCR":13485,"CK":13486,"Cui":13487,"Cada":13488,"Clar":13489,"DB":13490,"DR":13491,"Dju":13492,"DAN":13493,"Dino":13494,"DAD":13495,"Danza":13496,"DINA":13497,"DADOS":13498,"Ev":13499,"Era":13500,"Edi":13501,"Eli":13502,"Equi":13503,"Eber":13504,"ECI":13505,"Ehu":13506,"EAD":13507,"EMT":13508,"EGURA":13509,"FN":13510,"FSP":13511,"FIS":13512,"FÃ¡":13513,"Fri":13514,"Fil":13515,"FÃ³r":13516,"Fresi":13517,"Fiat":13518,"Gim":13519,"Gau":13520,"Gros":13521,"Gab":13522,"GEN":13523,"GAR":13524,"GOR":13525,"GIA":13526,"Globo":13527,"Gusta":13528,"HA":13529,"HI":13530,"HO":13531,"Hr":13532,"Hal":13533,"Hera":13534,"Hof":13535,"IV":13536,"IX":13537,"Ir":13538,"Igor":13539,"ICIO":13540,"Iwan":13541,"Jal":13542,"Juiz":13543,"KO":13544,"Kas":13545,"Kro":13546,"Kur":13547,"Kavi":13548,"Kat":13549,"Kfar":13550,"Karan":13551,"Kily":13552,"LEN":13553,"Larrea":13554,"Meta":13555,"MUS":13556,"Male":13557,"MÃºni":13558,"MCD":13559,"MÃ³stoles":13560,"Nve":13561,"NAR":13562,"Ocu":13563,"Otra":13564,"Obi":13565,"Oeste":13566,"Open":13567,"ODE":13568,"OBS":13569,"OUA":13570,"Pin":13571,"Pfi":13572,"Prado":13573,"PAS":13574,"PID":13575,"Pisto":13576,"RT":13577,"Rue":13578,"Ras":13579,"RÃ©":13580,"Rese":13581,"Rol":13582,"Ronal":13583,"Ramos":13584,"SG":13585,"SÃ©":13586,"Shi":13587,"SAD":13588,"STE":13589,"Schu":13590,"Schil":13591,"Semin":13592,"Sward":13593,"Sabin":13594,"Sampa":13595,"TH":13596,"Tu":13597,"Tos":13598,"Tan":13599,"TrÃ¡":13600,"Tren":13601,"Tura":13602,"Tall":13603,"TLAND":13604,"UZ":13605,"Ul":13606,"UDA":13607,"UUA":13608,"Usera":13609,"Ves":13610,"VII":13611,"Vella":13612,"Viol":13613,"Wo":13614,"Walter":13615,"Wander":13616,"Xos":13617,"Xabier":13618,"Xfera":13619,"YI":13620,"YES":13621,"Zvo":13622,"Zac":13623,"Zim":13624,"Zag":13625,"ZEL":13626,"aa":13627,"ain":13628,"ais":13629,"aver":13630,"aves":13631,"aguar":13632,"acierto":13633,"acondicion":13634,"br":13635,"bÃŃa":13636,"bÃ©s":13637,"beli":13638,"bris":13639,"cem":13640,"crÃ³":13641,"cÃŃo":13642,"cuevas":13643,"crecer":13644,"cementerio":13645,"dsa":13646,"dante":13647,"ding":13648,"dalo":13649,"eau":13650,"edas":13651,"edores":13652,"efici":13653,"evolu":13654,"fel":13655,"fol":13656,"flujo":13657,"fÃ©rico":13658,"gbo":13659,"ghan":13660,"gber":13661,"grÃ³":13662,"geta":13663,"hel":13664,"hun":13665,"huir":13666,"id":13667,"iran":13668,"iese":13669,"ibero":13670,"ji":13671,"kt":13672,"kon":13673,"ldef":13674,"mpa":13675,"mpe":13676,"mba":13677,"mbri":13678,"mueva":13679,"mberto":13680,"ns":13681,"ok":13682,"oli":13683,"ole":13684,"omo":13685,"ova":13686,"over":13687,"opon":13688,"ods":13689,"oane":13690,"ps":13691,"pra":13692,"pciones":13693,"ping":13694,"puig":13695,"rb":13696,"rq":13697,"rlos":13698,"rÃŃas":13699,"ste":13700,"samente":13701,"sterdam":13702,"tc":13703,"tto":13704,"tle":13705,"ug":13706,"vales":13707,"vina":13708,"vadi":13709,"weal":13710,"yl":13711,"ybo":13712,"yentes":13713,"ygor":13714,"zor":13715,"zio":13716,"zgo":13717,"zur":13718,"zell":13719,"Â¡":13720,"ĠFt":13721,"ĠFaa":13722,"deos":13723,"devo":13724,"deje":13725,"deteni":13726,"desil":13727,"dedica":13728,"degus":13729,"decomis":13730,"detecciÃ³n":13731,"engan":13732,"enve":13733,"enfa":13734,"enrique":13735,"enclave":13736,"essa":13737,"escondi":13738,"escasa":13739,"eslova":13740,"escÃ©":13741,"esquina":13742,"esprinter":13743,"lari":13744,"laber":13745,"lazos":13746,"lack":13747,"osÃŃ":13748,"cie":13749,"cima":13750,"ciles":13751,"ciru":13752,"cifr":13753,"ciadas":13754,"citados":13755,"cinos":13756,"cigal":13757,"cientas":13758,"ciertas":13759,"cielos":13760,"rate":13761,"ony":13762,"onza":13763,"oneta":13764,"talib":13765,"tamil":13766,"erca":13767,"ertan":13768,"ergen":13769,"erros":13770,"ĠPX":13771,"orent":13772,"orbi":13773,"ortÃºa":13774,"elten":13775,"elson":13776,"ERV":13777,"ERTE":13778,"ERRIL":13779,"alle":13780,"albano":13781,"altitud":13782,"ard":13783,"aro":13784,"arque":13785,"arch":13786,"arreg":13787,"quede":13788,"anon":13789,"anfi":13790,"anteri":13791,"andin":13792,"anÃ©c":13793,"unciÃ³":13794,"undÃ©cima":13795,"asamble":13796,"inad":13797,"indu":13798,"inera":13799,"incor":13800,"incul":13801,"inunda":13802,"intel":13803,"intera":13804,"incau":13805,"inÃ³s":13806,"incÃ³mo":13807,"inmovili":13808,"ingeni":13809,"inmobili":13810,"innovaciÃ³n":13811,"inmuno":13812,"inclin":13813,"invadi":13814,"rej":13815,"repara":13816,"repu":13817,"retor":13818,"rece":13819,"rega":13820,"repos":13821,"retros":13822,"retario":13823,"revan":13824,"reafirmÃ³":13825,"repul":13826,"reacciÃ³n":13827,"reestruc":13828,"recomien":13829,"represiÃ³n":13830,"reconducir":13831,"replicÃ³":13832,"repliegue":13833,"revolucion":13834,"recepciÃ³n":13835,"rebajar":13836,"adrado":13837,"adhesiÃ³n":13838,"LOGI":13839,"tios":13840,"tion":13841,"tias":13842,"tifica":13843,"tificar":13844,"entrarÃ¡":13845,"ISR":13846,"MISION":13847,"contenciÃ³n":13848,"confron":13849,"convir":13850,"concien":13851,"concili":13852,"concursos":13853,"conglo":13854,"conformado":13855,"congresistas":13856,"contienda":13857,"sela":13858,"seos":13859,"semej":13860,"prelimin":13861,"dial":13862,"dili":13863,"dilu":13864,"digan":13865,"divor":13866,"Ã¡in":13867,"Ã¡ez":13868,"Ã¡tica":13869,"ÃŃno":13870,"ÃŃmenes":13871,"ÃŃsimo":13872,"codi":13873,"copi":13874,"copas":13875,"cobro":13876,"copia":13877,"cooperativa":13878,"dov":13879,"dotada":13880,"dotaciones":13881,"docencia":13882,"tej":13883,"temÃ¡tico":13884,"tecario":13885,"teÃ³ri":13886,"ises":13887,"isas":13888,"istar":13889,"pate":13890,"paga":13891,"pagÃ³":13892,"pagados":13893,"patente":13894,"pateras":13895,"padecen":13896,"pacense":13897,"papele":13898,"pore":13899,"porquÃ©":13900,"cay":13901,"cama":13902,"caza":13903,"cacere":13904,"tome":13905,"toras":13906,"tologÃŃa":13907,"tolitros":13908,"rid":13909,"rigu":13910,"riale":13911,"supo":13912,"suya":13913,"suena":13914,"suyo":13915,"suavi":13916,"suponer":13917,"supl":13918,"sufrÃŃa":13919,"made":13920,"mael":13921,"matu":13922,"macha":13923,"maestro":13924,"lidi":13925,"limÃŃ":13926,"cub":13927,"mide":13928,"mita":13929,"miel":13930,"mito":13931,"milÃŃ":13932,"mitorio":13933,"milanÃ©s":13934,"lash":13935,"lea":13936,"lecciÃ³n":13937,"leonesa":13938,"leÃŃda":13939,"Ã©ticos":13940,"daje":13941,"davia":13942,"Ã±al":13943,"Ã±Ã©s":13944,"rov":13945,"roto":13946,"rock":13947,"romana":13948,"tus":13949,"ham":13950,"hague":13951,"trana":13952,"traje":13953,"siento":13954,"siam":13955,"sigan":13956,"silla":13957,"silia":13958,"sionado":13959,"vita":13960,"vices":13961,"vientos":13962,"vivÃŃa":13963,"vivencia":13964,"vigÃ©":13965,"vitude":13966,"bitros":13967,"birÃ¡n":13968,"bizu":13969,"bielor":13970,"loh":13971,"novas":13972,"nomb":13973,"novio":13974,"noches":13975,"propa":13976,"propin":13977,"proponer":13978,"promul":13979,"promesa":13980,"prohÃŃ":13981,"parado":13982,"parable":13983,"paracai":13984,"paradÃ³j":13985,"polio":13986,"poÃ©tica":13987,"potable":13988,"poemas":13989,"pea":13990,"peras":13991,"pefa":13992,"peraturas":13993,"resa":13994,"restos":13995,"desbor":13996,"desenca":13997,"descontrol":13998,"desmor":13999,"desviar":14000,"despedidos":14001,"descabel":14002,"descampado":14003,"prescripciÃ³n":14004,"dadura":14005,"hoo":14006,"homb":14007,"terna":14008,"tercio":14009,"tercios":14010,"terloh":14011,"soy":14012,"sobra":14013,"estatura":14014,"doso":14015,"fila":14016,"fice":14017,"fijo":14018,"ficciÃ³n":14019,"merado":14020,"metÃ¡":14021,"medalla":14022,"pard":14023,"parten":14024,"parmes":14025,"parcel":14026,"comb":14027,"comando":14028,"comprÃ³":14029,"compaÃ±a":14030,"composiciones":14031,"Elisa":14032,"Elvira":14033,"dene":14034,"dense":14035,"ecan":14036,"eclesiÃ¡s":14037,"ecretario":14038,"vot":14039,"votantes":14040,"puero":14041,"pudiera":14042,"perfil":14043,"permisos":14044,"entar":14045,"baco":14046,"bach":14047,"bamos":14048,"baty":14049,"rancÃ³n":14050,
[...]
